{
  "version": "1.0",
  "truncation": null,
  "padding": null,
  "added_tokens": [
    {
      "id": 0,
      "content": "[PAD]",
      "single_word": false,
      "lstrip": false,
      "rstrip": false,
      "normalized": false,
      "special": true
    },
    {
      "id": 1,
      "content": "[UNK]",
      "single_word": false,
      "lstrip": false,
      "rstrip": false,
      "normalized": false,
      "special": true
    }
  ],
  "normalizer": {
    "type": "Sequence",
    "normalizers": [
      {
        "type": "Lowercase"
      }
    ]
  },
  "pre_tokenizer": {
    "type": "Sequence",
    "pretokenizers": [
      {
        "type": "Whitespace"
      },
      {
        "type": "Punctuation",
        "behavior": "Isolated"
      }
    ]
  },
  "post_processor": null,
  "decoder": null,
  "model": {
    "type": "BPE",
    "dropout": null,
    "unk_token": "[UNK]",
    "continuing_subword_prefix": null,
    "end_of_word_suffix": null,
    "fuse_unk": false,
    "byte_fallback": false,
    "ignore_merges": false,
    "vocab": {
      "[PAD]": 0,
      "[UNK]": 1,
      "\u0001": 2,
      "\u0002": 3,
      "\u0003": 4,
      "\u0004": 5,
      "\u0005": 6,
      "\u0006": 7,
      "\u0007": 8,
      "\b": 9,
      "\u000e": 10,
      "\u000f": 11,
      "\u0010": 12,
      "\u0011": 13,
      "\u0012": 14,
      "\u0013": 15,
      "\u0014": 16,
      "\u0015": 17,
      "\u0016": 18,
      "\u0017": 19,
      "\u0018": 20,
      "\u0019": 21,
      "\u001a": 22,
      "\u001b": 23,
      "\u001c": 24,
      "\u001d": 25,
      "\u001e": 26,
      "\u001f": 27,
      "!": 28,
      "\"": 29,
      "#": 30,
      "$": 31,
      "%": 32,
      "&": 33,
      "'": 34,
      "(": 35,
      ")": 36,
      "*": 37,
      "+": 38,
      ",": 39,
      "-": 40,
      ".": 41,
      "/": 42,
      "0": 43,
      "1": 44,
      "2": 45,
      "3": 46,
      "4": 47,
      "5": 48,
      "6": 49,
      "7": 50,
      "8": 51,
      "9": 52,
      ":": 53,
      ";": 54,
      "<": 55,
      "=": 56,
      ">": 57,
      "?": 58,
      "@": 59,
      "[": 60,
      "\\": 61,
      "]": 62,
      "^": 63,
      "_": 64,
      "`": 65,
      "a": 66,
      "b": 67,
      "c": 68,
      "d": 69,
      "e": 70,
      "f": 71,
      "g": 72,
      "h": 73,
      "i": 74,
      "j": 75,
      "k": 76,
      "l": 77,
      "m": 78,
      "n": 79,
      "o": 80,
      "p": 81,
      "q": 82,
      "r": 83,
      "s": 84,
      "t": 85,
      "u": 86,
      "v": 87,
      "w": 88,
      "x": 89,
      "y": 90,
      "z": 91,
      "{": 92,
      "|": 93,
      "}": 94,
      "~": 95,
      "": 96,
      "": 97,
      "": 98,
      "": 99,
      "": 100,
      "": 101,
      "": 102,
      "": 103,
      "": 104,
      "": 105,
      "": 106,
      "": 107,
      "": 108,
      "": 109,
      "": 110,
      "": 111,
      "": 112,
      "": 113,
      "": 114,
      "": 115,
      "": 116,
      "": 117,
      "": 118,
      "": 119,
      "¡": 120,
      "¢": 121,
      "£": 122,
      "¤": 123,
      "¥": 124,
      "¦": 125,
      "§": 126,
      "¨": 127,
      "©": 128,
      "ª": 129,
      "«": 130,
      "¬": 131,
      "­": 132,
      "®": 133,
      "¯": 134,
      "°": 135,
      "±": 136,
      "²": 137,
      "³": 138,
      "´": 139,
      "µ": 140,
      "¶": 141,
      "·": 142,
      "¸": 143,
      "¹": 144,
      "º": 145,
      "»": 146,
      "¼": 147,
      "½": 148,
      "¾": 149,
      "¿": 150,
      "×": 151,
      "ß": 152,
      "à": 153,
      "á": 154,
      "â": 155,
      "ã": 156,
      "ä": 157,
      "å": 158,
      "æ": 159,
      "ç": 160,
      "è": 161,
      "é": 162,
      "ê": 163,
      "ë": 164,
      "ì": 165,
      "í": 166,
      "î": 167,
      "ï": 168,
      "ð": 169,
      "ñ": 170,
      "ò": 171,
      "ó": 172,
      "ô": 173,
      "õ": 174,
      "ö": 175,
      "÷": 176,
      "ø": 177,
      "ù": 178,
      "ú": 179,
      "û": 180,
      "ü": 181,
      "ý": 182,
      "þ": 183,
      "ÿ": 184,
      "ā": 185,
      "ă": 186,
      "ą": 187,
      "ć": 188,
      "ĉ": 189,
      "č": 190,
      "ď": 191,
      "đ": 192,
      "ē": 193,
      "ĕ": 194,
      "ė": 195,
      "ę": 196,
      "ě": 197,
      "ĝ": 198,
      "ğ": 199,
      "ġ": 200,
      "ģ": 201,
      "ĥ": 202,
      "ħ": 203,
      "ĩ": 204,
      "ī": 205,
      "ĭ": 206,
      "į": 207,
      "ı": 208,
      "ĳ": 209,
      "ĵ": 210,
      "ķ": 211,
      "ĸ": 212,
      "ĺ": 213,
      "ļ": 214,
      "ľ": 215,
      "ŀ": 216,
      "ł": 217,
      "ń": 218,
      "ņ": 219,
      "ň": 220,
      "ŋ": 221,
      "ō": 222,
      "ŏ": 223,
      "ő": 224,
      "œ": 225,
      "ŕ": 226,
      "ŗ": 227,
      "ř": 228,
      "ś": 229,
      "ŝ": 230,
      "ş": 231,
      "š": 232,
      "ţ": 233,
      "ť": 234,
      "ŧ": 235,
      "ũ": 236,
      "ū": 237,
      "ŭ": 238,
      "ů": 239,
      "ű": 240,
      "ų": 241,
      "ŵ": 242,
      "ŷ": 243,
      "ź": 244,
      "ż": 245,
      "ž": 246,
      "ſ": 247,
      "ƀ": 248,
      "ƃ": 249,
      "ƅ": 250,
      "ƈ": 251,
      "ƌ": 252,
      "ƍ": 253,
      "ƒ": 254,
      "ƕ": 255,
      "ƙ": 256,
      "ƚ": 257,
      "ƛ": 258,
      "ƞ": 259,
      "ơ": 260,
      "ƣ": 261,
      "ƥ": 262,
      "ƨ": 263,
      "ƪ": 264,
      "ƫ": 265,
      "ƭ": 266,
      "ư": 267,
      "ƴ": 268,
      "ƶ": 269,
      "ƹ": 270,
      "ƺ": 271,
      "ƻ": 272,
      "ƽ": 273,
      "ƿ": 274,
      "ǀ": 275,
      "ǁ": 276,
      "ǂ": 277,
      "ǃ": 278,
      "ǎ": 279,
      "ǐ": 280,
      "ǒ": 281,
      "ǔ": 282,
      "ǖ": 283,
      "ǘ": 284,
      "ǚ": 285,
      "ǜ": 286,
      "ǝ": 287,
      "ǣ": 288,
      "ǥ": 289,
      "ǧ": 290,
      "ǩ": 291,
      "ǫ": 292,
      "ǯ": 293,
      "ǰ": 294,
      "ǳ": 295,
      "ǵ": 296,
      "ǹ": 297,
      "ǻ": 298,
      "ǽ": 299,
      "ǿ": 300,
      "ȁ": 301,
      "ȃ": 302,
      "ȅ": 303,
      "ȇ": 304,
      "ȉ": 305,
      "ȍ": 306,
      "ȏ": 307,
      "ȓ": 308,
      "ȕ": 309,
      "ȗ": 310,
      "ș": 311,
      "ț": 312,
      "ȝ": 313,
      "ȟ": 314,
      "ȡ": 315,
      "ȣ": 316,
      "ȥ": 317,
      "ȧ": 318,
      "ȩ": 319,
      "ȫ": 320,
      "ȭ": 321,
      "ȯ": 322,
      "ȱ": 323,
      "ȳ": 324,
      "ȴ": 325,
      "ȶ": 326,
      "ȷ": 327,
      "ȸ": 328,
      "ȹ": 329,
      "ȼ": 330,
      "ȿ": 331,
      "ɀ": 332,
      "ɂ": 333,
      "ɇ": 334,
      "ɉ": 335,
      "ɋ": 336,
      "ɍ": 337,
      "ɏ": 338,
      "ɐ": 339,
      "ɑ": 340,
      "ɒ": 341,
      "ɓ": 342,
      "ɔ": 343,
      "ɕ": 344,
      "ɖ": 345,
      "ɗ": 346,
      "ɘ": 347,
      "ə": 348,
      "ɚ": 349,
      "ɛ": 350,
      "ɜ": 351,
      "ɝ": 352,
      "ɞ": 353,
      "ɟ": 354,
      "ɠ": 355,
      "ɡ": 356,
      "ɢ": 357,
      "ɣ": 358,
      "ɤ": 359,
      "ɥ": 360,
      "ɦ": 361,
      "ɧ": 362,
      "ɨ": 363,
      "ɩ": 364,
      "ɪ": 365,
      "ɫ": 366,
      "ɬ": 367,
      "ɭ": 368,
      "ɮ": 369,
      "ɯ": 370,
      "ɰ": 371,
      "ɱ": 372,
      "ɲ": 373,
      "ɳ": 374,
      "ɴ": 375,
      "ɵ": 376,
      "ɶ": 377,
      "ɷ": 378,
      "ɸ": 379,
      "ɹ": 380,
      "ɺ": 381,
      "ɻ": 382,
      "ɼ": 383,
      "ɽ": 384,
      "ɾ": 385,
      "ʀ": 386,
      "ʁ": 387,
      "ʂ": 388,
      "ʃ": 389,
      "ʄ": 390,
      "ʅ": 391,
      "ʆ": 392,
      "ʇ": 393,
      "ʈ": 394,
      "ʉ": 395,
      "ʊ": 396,
      "ʋ": 397,
      "ʌ": 398,
      "ʍ": 399,
      "ʎ": 400,
      "ʏ": 401,
      "ʐ": 402,
      "ʑ": 403,
      "ʒ": 404,
      "ʔ": 405,
      "ʕ": 406,
      "ʖ": 407,
      "ʗ": 408,
      "ʘ": 409,
      "ʙ": 410,
      "ʛ": 411,
      "ʜ": 412,
      "ʝ": 413,
      "ʞ": 414,
      "ʟ": 415,
      "ʠ": 416,
      "ʡ": 417,
      "ʢ": 418,
      "ʣ": 419,
      "ʤ": 420,
      "ʥ": 421,
      "ʦ": 422,
      "ʧ": 423,
      "ʨ": 424,
      "ʪ": 425,
      "ʫ": 426,
      "ʬ": 427,
      "ʭ": 428,
      "ʮ": 429,
      "ʯ": 430,
      "ʰ": 431,
      "ʱ": 432,
      "ʲ": 433,
      "ʳ": 434,
      "ʴ": 435,
      "ʵ": 436,
      "ʶ": 437,
      "ʷ": 438,
      "ʸ": 439,
      "ʹ": 440,
      "ʺ": 441,
      "ʻ": 442,
      "ʼ": 443,
      "ʽ": 444,
      "ʾ": 445,
      "ʿ": 446,
      "ˀ": 447,
      "ˁ": 448,
      "˂": 449,
      "˃": 450,
      "˄": 451,
      "˅": 452,
      "ˆ": 453,
      "ˇ": 454,
      "ˈ": 455,
      "ˊ": 456,
      "ˋ": 457,
      "ˌ": 458,
      "ˍ": 459,
      "ˎ": 460,
      "ˏ": 461,
      "ː": 462,
      "ˑ": 463,
      "˒": 464,
      "˓": 465,
      "˔": 466,
      "˕": 467,
      "˖": 468,
      "˗": 469,
      "˘": 470,
      "˙": 471,
      "˚": 472,
      "˛": 473,
      "˜": 474,
      "˝": 475,
      "˟": 476,
      "ˠ": 477,
      "ˢ": 478,
      "ˣ": 479,
      "ˤ": 480,
      "˦": 481,
      "˧": 482,
      "˨": 483,
      "˩": 484,
      "˪": 485,
      "˫": 486,
      "˭": 487,
      "ˮ": 488,
      "˳": 489,
      "̀": 490,
      "́": 491,
      "̂": 492,
      "̃": 493,
      "̄": 494,
      "̅": 495,
      "̆": 496,
      "̇": 497,
      "̈": 498,
      "̉": 499,
      "̊": 500,
      "̋": 501,
      "̌": 502,
      "̍": 503,
      "̎": 504,
      "̏": 505,
      "̐": 506,
      "̑": 507,
      "̓": 508,
      "̕": 509,
      "̜": 510,
      "̞": 511,
      "̟": 512,
      "̠": 513,
      "̢": 514,
      "̣": 515,
      "̤": 516,
      "̥": 517,
      "̦": 518,
      "̧": 519,
      "̨": 520,
      "̩": 521,
      "̪": 522,
      "̭": 523,
      "̮": 524,
      "̯": 525,
      "̱": 526,
      "̲": 527,
      "̶": 528,
      "̸": 529,
      "̹": 530,
      "̺": 531,
      "̻": 532,
      "̼": 533,
      "̽": 534,
      "̾": 535,
      "̿": 536,
      "̀": 537,
      "́": 538,
      "͂": 539,
      "ͅ": 540,
      "͊": 541,
      "͑": 542,
      "͒": 543,
      "͗": 544,
      "͘": 545,
      "͜": 546,
      "͟": 547,
      "͠": 548,
      "͡": 549,
      "ͣ": 550,
      "ͤ": 551,
      "ͬ": 552,
      "ͼ": 553,
      "΄": 554,
      "΅": 555,
      "·": 556,
      "΍": 557,
      "ΐ": 558,
      "ά": 559,
      "έ": 560,
      "ή": 561,
      "ί": 562,
      "ΰ": 563,
      "α": 564,
      "β": 565,
      "γ": 566,
      "δ": 567,
      "ε": 568,
      "ζ": 569,
      "η": 570,
      "θ": 571,
      "ι": 572,
      "κ": 573,
      "λ": 574,
      "μ": 575,
      "ν": 576,
      "ξ": 577,
      "ο": 578,
      "π": 579,
      "ρ": 580,
      "ς": 581,
      "σ": 582,
      "τ": 583,
      "υ": 584,
      "φ": 585,
      "χ": 586,
      "ψ": 587,
      "ω": 588,
      "ϊ": 589,
      "ϋ": 590,
      "ό": 591,
      "ύ": 592,
      "ώ": 593,
      "ϐ": 594,
      "ϑ": 595,
      "ϒ": 596,
      "ϔ": 597,
      "ϕ": 598,
      "ϖ": 599,
      "ϙ": 600,
      "ϝ": 601,
      "ϟ": 602,
      "ϣ": 603,
      "ϥ": 604,
      "ϩ": 605,
      "ϫ": 606,
      "ϭ": 607,
      "ϰ": 608,
      "ϲ": 609,
      "ϵ": 610,
      "ϻ": 611,
      "а": 612,
      "б": 613,
      "в": 614,
      "г": 615,
      "д": 616,
      "е": 617,
      "ж": 618,
      "з": 619,
      "и": 620,
      "й": 621,
      "к": 622,
      "л": 623,
      "м": 624,
      "н": 625,
      "о": 626,
      "п": 627,
      "р": 628,
      "с": 629,
      "т": 630,
      "у": 631,
      "ф": 632,
      "х": 633,
      "ц": 634,
      "ч": 635,
      "ш": 636,
      "щ": 637,
      "ъ": 638,
      "ы": 639,
      "ь": 640,
      "э": 641,
      "ю": 642,
      "я": 643,
      "ѐ": 644,
      "ё": 645,
      "ђ": 646,
      "ѓ": 647,
      "є": 648,
      "ѕ": 649,
      "і": 650,
      "ї": 651,
      "ј": 652,
      "љ": 653,
      "њ": 654,
      "ћ": 655,
      "ќ": 656,
      "ѝ": 657,
      "ў": 658,
      "џ": 659,
      "ѡ": 660,
      "ѣ": 661,
      "ѥ": 662,
      "ѧ": 663,
      "ѩ": 664,
      "ѫ": 665,
      "ѭ": 666,
      "ѯ": 667,
      "ѱ": 668,
      "ѳ": 669,
      "ѵ": 670,
      "ѷ": 671,
      "ѹ": 672,
      "ѻ": 673,
      "ѿ": 674,
      "҂": 675,
      "҃": 676,
      "҄": 677,
      "҆": 678,
      "҇": 679,
      "ҍ": 680,
      "ґ": 681,
      "ғ": 682,
      "ҕ": 683,
      "җ": 684,
      "ҙ": 685,
      "қ": 686,
      "ҝ": 687,
      "ҟ": 688,
      "ҡ": 689,
      "ң": 690,
      "ҥ": 691,
      "ҧ": 692,
      "ҩ": 693,
      "ҫ": 694,
      "ҭ": 695,
      "ү": 696,
      "ұ": 697,
      "ҳ": 698,
      "ҵ": 699,
      "ҷ": 700,
      "ҹ": 701,
      "һ": 702,
      "ӄ": 703,
      "ӆ": 704,
      "ӈ": 705,
      "ӊ": 706,
      "ӏ": 707,
      "ӑ": 708,
      "ӓ": 709,
      "ӕ": 710,
      "ӗ": 711,
      "ә": 712,
      "ӝ": 713,
      "ӟ": 714,
      "ӡ": 715,
      "ӣ": 716,
      "ӥ": 717,
      "ӧ": 718,
      "ө": 719,
      "ӭ": 720,
      "ӯ": 721,
      "ӱ": 722,
      "ӳ": 723,
      "ӵ": 724,
      "ӷ": 725,
      "ӹ": 726,
      "ԁ": 727,
      "ԃ": 728,
      "ԅ": 729,
      "ԇ": 730,
      "ԉ": 731,
      "ԋ": 732,
      "ԍ": 733,
      "ԏ": 734,
      "ԑ": 735,
      "ԓ": 736,
      "ԕ": 737,
      "ԗ": 738,
      "ԙ": 739,
      "ԝ": 740,
      "ԥ": 741,
      "ԧ": 742,
      "ԫ": 743,
      "՛": 744,
      "՝": 745,
      "ա": 746,
      "բ": 747,
      "գ": 748,
      "դ": 749,
      "ե": 750,
      "զ": 751,
      "է": 752,
      "ը": 753,
      "թ": 754,
      "ժ": 755,
      "ի": 756,
      "լ": 757,
      "խ": 758,
      "ծ": 759,
      "կ": 760,
      "հ": 761,
      "ձ": 762,
      "ղ": 763,
      "ճ": 764,
      "մ": 765,
      "յ": 766,
      "ն": 767,
      "շ": 768,
      "ո": 769,
      "չ": 770,
      "պ": 771,
      "ջ": 772,
      "ռ": 773,
      "ս": 774,
      "վ": 775,
      "տ": 776,
      "ր": 777,
      "ց": 778,
      "ւ": 779,
      "փ": 780,
      "ք": 781,
      "օ": 782,
      "ֆ": 783,
      "և": 784,
      "։": 785,
      "֎": 786,
      "֖": 787,
      "֪": 788,
      "֫": 789,
      "ְ": 790,
      "ֱ": 791,
      "ֲ": 792,
      "ֳ": 793,
      "ִ": 794,
      "ֵ": 795,
      "ֶ": 796,
      "ַ": 797,
      "ָ": 798,
      "ֹ": 799,
      "ֺ": 800,
      "ֻ": 801,
      "ּ": 802,
      "ֽ": 803,
      "־": 804,
      "ֿ": 805,
      "׀": 806,
      "ׁ": 807,
      "ׂ": 808,
      "ׅ": 809,
      "ׇ": 810,
      "א": 811,
      "ב": 812,
      "ג": 813,
      "ד": 814,
      "ה": 815,
      "ו": 816,
      "ז": 817,
      "ח": 818,
      "ט": 819,
      "י": 820,
      "ך": 821,
      "כ": 822,
      "ל": 823,
      "ם": 824,
      "מ": 825,
      "ן": 826,
      "נ": 827,
      "ס": 828,
      "ע": 829,
      "ף": 830,
      "פ": 831,
      "ץ": 832,
      "צ": 833,
      "ק": 834,
      "ר": 835,
      "ש": 836,
      "ת": 837,
      "ׯ": 838,
      "װ": 839,
      "ױ": 840,
      "ײ": 841,
      "׳": 842,
      "״": 843,
      "׵": 844,
      "׺": 845,
      "׻": 846,
      "،": 847,
      "؟": 848,
      "ء": 849,
      "آ": 850,
      "أ": 851,
      "ؤ": 852,
      "إ": 853,
      "ئ": 854,
      "ا": 855,
      "ب": 856,
      "ة": 857,
      "ت": 858,
      "ث": 859,
      "ج": 860,
      "ح": 861,
      "خ": 862,
      "د": 863,
      "ذ": 864,
      "ر": 865,
      "ز": 866,
      "س": 867,
      "ش": 868,
      "ص": 869,
      "ض": 870,
      "ط": 871,
      "ظ": 872,
      "ع": 873,
      "غ": 874,
      "ؿ": 875,
      "ـ": 876,
      "ف": 877,
      "ق": 878,
      "ك": 879,
      "ل": 880,
      "م": 881,
      "ن": 882,
      "ه": 883,
      "و": 884,
      "ى": 885,
      "ي": 886,
      "ً": 887,
      "ٌ": 888,
      "ٍ": 889,
      "َ": 890,
      "ُ": 891,
      "ِ": 892,
      "ّ": 893,
      "ْ": 894,
      "ٔ": 895,
      "ٕ": 896,
      "ٗ": 897,
      "٠": 898,
      "٢": 899,
      "ٱ": 900,
      "ٹ": 901,
      "ٽ": 902,
      "پ": 903,
      "ڄ": 904,
      "چ": 905,
      "ڈ": 906,
      "ڌ": 907,
      "ڏ": 908,
      "ڑ": 909,
      "ړ": 910,
      "ژ": 911,
      "ڠ": 912,
      "ک": 913,
      "ڪ": 914,
      "ګ": 915,
      "ڬ": 916,
      "گ": 917,
      "ں": 918,
      "ھ": 919,
      "ہ": 920,
      "ی": 921,
      "ێ": 922,
      "ې": 923,
      "ە": 924,
      "۩": 925,
      "۰": 926,
      "۱": 927,
      "۲": 928,
      "۳": 929,
      "۴": 930,
      "۵": 931,
      "۶": 932,
      "۷": 933,
      "۸": 934,
      "۹": 935,
      "܆": 936,
      "ܐ": 937,
      "ܑ": 938,
      "ܒ": 939,
      "ܓ": 940,
      "ܕ": 941,
      "ܗ": 942,
      "ܘ": 943,
      "ܙ": 944,
      "ܚ": 945,
      "ܛ": 946,
      "ܝ": 947,
      "ܟ": 948,
      "ܠ": 949,
      "ܡ": 950,
      "ܢ": 951,
      "ܣ": 952,
      "ܤ": 953,
      "ܥ": 954,
      "ܦ": 955,
      "ܧ": 956,
      "ܨ": 957,
      "ܩ": 958,
      "ܪ": 959,
      "ܫ": 960,
      "ܬ": 961,
      "ܭ": 962,
      "ܮ": 963,
      "ܯ": 964,
      "ܰ": 965,
      "ܱ": 966,
      "ܲ": 967,
      "ܴ": 968,
      "ܵ": 969,
      "ܶ": 970,
      "ܷ": 971,
      "ܸ": 972,
      "ܹ": 973,
      "ܺ": 974,
      "ܻ": 975,
      "ܼ": 976,
      "ܽ": 977,
      "ܿ": 978,
      "݀": 979,
      "݂": 980,
      "݃": 981,
      "݅": 982,
      "݆": 983,
      "݈": 984,
      "݉": 985,
      "݊": 986,
      "݋": 987,
      "ݎ": 988,
      "ݏ": 989,
      "ݐ": 990,
      "ݑ": 991,
      "ݒ": 992,
      "ݓ": 993,
      "ݔ": 994,
      "ݜ": 995,
      "ݣ": 996,
      "ݨ": 997,
      "ݪ": 998,
      "ߙ": 999,
      "ߝ": 1000,
      "ߠ": 1001,
      "ߤ": 1002,
      "ߩ": 1003,
      "ߪ": 1004,
      "߫": 1005,
      "߬": 1006,
      "߮": 1007,
      "߲": 1008,
      "߳": 1009,
      "߶": 1010,
      "ࣙ": 1011,
      "࣮": 1012,
      "ँ": 1013,
      "ं": 1014,
      "ः": 1015,
      "अ": 1016,
      "आ": 1017,
      "इ": 1018,
      "ई": 1019,
      "उ": 1020,
      "ऊ": 1021,
      "ऋ": 1022,
      "ए": 1023,
      "ऑ": 1024,
      "क": 1025,
      "ख": 1026,
      "ग": 1027,
      "घ": 1028,
      "ङ": 1029,
      "च": 1030,
      "ज": 1031,
      "ञ": 1032,
      "ट": 1033,
      "ठ": 1034,
      "ड": 1035,
      "ढ": 1036,
      "ण": 1037,
      "त": 1038,
      "थ": 1039,
      "द": 1040,
      "ध": 1041,
      "न": 1042,
      "प": 1043,
      "फ": 1044,
      "ब": 1045,
      "भ": 1046,
      "म": 1047,
      "य": 1048,
      "र": 1049,
      "ल": 1050,
      "ळ": 1051,
      "व": 1052,
      "श": 1053,
      "ष": 1054,
      "स": 1055,
      "ह": 1056,
      "़": 1057,
      "ा": 1058,
      "ि": 1059,
      "ी": 1060,
      "ु": 1061,
      "ू": 1062,
      "ृ": 1063,
      "े": 1064,
      "ै": 1065,
      "ॉ": 1066,
      "ॊ": 1067,
      "ो": 1068,
      "्": 1069,
      "ॐ": 1070,
      "।": 1071,
      "॥": 1072,
      "०": 1073,
      "१": 1074,
      "॰": 1075,
      "ॱ": 1076,
      "ং": 1077,
      "আ": 1078,
      "উ": 1079,
      "ক": 1080,
      "খ": 1081,
      "গ": 1082,
      "জ": 1083,
      "ঞ": 1084,
      "ত": 1085,
      "থ": 1086,
      "দ": 1087,
      "ন": 1088,
      "ব": 1089,
      "ম": 1090,
      "য": 1091,
      "র": 1092,
      "ল": 1093,
      "শ": 1094,
      "ষ": 1095,
      "স": 1096,
      "হ": 1097,
      "়": 1098,
      "া": 1099,
      "ি": 1100,
      "ী": 1101,
      "ু": 1102,
      "্": 1103,
      "৑": 1104,
      "ৰ": 1105,
      "৳": 1106,
      "਄": 1107,
      "ਅ": 1108,
      "ਆ": 1109,
      "ਈ": 1110,
      "ਉ": 1111,
      "਌": 1112,
      "਎": 1113,
      "ਏ": 1114,
      "਒": 1115,
      "ਔ": 1116,
      "ਕ": 1117,
      "ਖ": 1118,
      "ਠ": 1119,
      "ਣ": 1120,
      "ਤ": 1121,
      "ਨ": 1122,
      "ਮ": 1123,
      "ਰ": 1124,
      "ਲ": 1125,
      "ਾ": 1126,
      "ੀ": 1127,
      "੉": 1128,
      "ੌ": 1129,
      "੽": 1130,
      "ઁ": 1131,
      "ક": 1132,
      "ગ": 1133,
      "ચ": 1134,
      "ણ": 1135,
      "ધ": 1136,
      "ર": 1137,
      "ળ": 1138,
      "ા": 1139,
      "ો": 1140,
      "૨": 1141,
      "଴": 1142,
      "ଵ": 1143,
      "ଶ": 1144,
      "ଷ": 1145,
      "ହ": 1146,
      "଺": 1147,
      "ା": 1148,
      "ି": 1149,
      "ୀ": 1150,
      "୧": 1151,
      "୪": 1152,
      "୬": 1153,
      "ୱ": 1154,
      "இ": 1155,
      "க": 1156,
      "ச": 1157,
      "ஜ": 1158,
      "ஞ": 1159,
      "ன": 1160,
      "ப": 1161,
      "ம": 1162,
      "ய": 1163,
      "ர": 1164,
      "ல": 1165,
      "ழ": 1166,
      "஻": 1167,
      "஼": 1168,
      "஽": 1169,
      "ா": 1170,
      "ி": 1171,
      "ீ": 1172,
      "ு": 1173,
      "ூ": 1174,
      "௄": 1175,
      "௅": 1176,
      "ெ": 1177,
      "ே": 1178,
      "ை": 1179,
      "௉": 1180,
      "ொ": 1181,
      "ோ": 1182,
      "ௌ": 1183,
      "்": 1184,
      "௎": 1185,
      "௏": 1186,
      "ௐ": 1187,
      "௔": 1188,
      "ௗ": 1189,
      "௘": 1190,
      "௙": 1191,
      "௚": 1192,
      "௜": 1193,
      "௝": 1194,
      "௞": 1195,
      "௠": 1196,
      "௡": 1197,
      "௢": 1198,
      "௣": 1199,
      "௥": 1200,
      "௦": 1201,
      "௧": 1202,
      "௨": 1203,
      "௩": 1204,
      "௫": 1205,
      "ం": 1206,
      "ఈ": 1207,
      "ఌ": 1208,
      "ఏ": 1209,
      "గ": 1210,
      "ఘ": 1211,
      "ఙ": 1212,
      "ఝ": 1213,
      "ప": 1214,
      "బ": 1215,
      "భ": 1216,
      "మ": 1217,
      "య": 1218,
      "ర": 1219,
      "ల": 1220,
      "శ": 1221,
      "ష": 1222,
      "ె": 1223,
      "్": 1224,
      "ಂ": 1225,
      "ಅ": 1226,
      "ಆ": 1227,
      "ಒ": 1228,
      "ಕ": 1229,
      "ಖ": 1230,
      "ಗ": 1231,
      "ಚ": 1232,
      "ಜ": 1233,
      "ಟ": 1234,
      "ಠ": 1235,
      "ಡ": 1236,
      "ಣ": 1237,
      "ತ": 1238,
      "ಥ": 1239,
      "ದ": 1240,
      "ಧ": 1241,
      "ನ": 1242,
      "ಪ": 1243,
      "ಬ": 1244,
      "ಮ": 1245,
      "ಯ": 1246,
      "ರ": 1247,
      "ಲ": 1248,
      "ಳ": 1249,
      "ವ": 1250,
      "ಶ": 1251,
      "ಷ": 1252,
      "ಸ": 1253,
      "ಹ": 1254,
      "ಾ": 1255,
      "ಿ": 1256,
      "ೀ": 1257,
      "ು": 1258,
      "ೂ": 1259,
      "ೆ": 1260,
      "ೇ": 1261,
      "ೈ": 1262,
      "ೊ": 1263,
      "ೋ": 1264,
      "ೌ": 1265,
      "್": 1266,
      "೐": 1267,
      "೔": 1268,
      "ೕ": 1269,
      "೘": 1270,
      "೛": 1271,
      "ೞ": 1272,
      "ೡ": 1273,
      "ഁ": 1274,
      "ഐ": 1275,
      "ജ": 1276,
      "ത": 1277,
      "പ": 1278,
      "ര": 1279,
      "ള": 1280,
      "ാ": 1281,
      "ി": 1282,
      "ു": 1283,
      "ൈ": 1284,
      "്": 1285,
      "ൗ": 1286,
      "൜": 1287,
      "ൣ": 1288,
      "൧": 1289,
      "൫": 1290,
      "൬": 1291,
      "൭": 1292,
      "൯": 1293,
      "൰": 1294,
      "൱": 1295,
      "ൺ": 1296,
      "ൻ": 1297,
      "ർ": 1298,
      "ൽ": 1299,
      "ൾ": 1300,
      "ൿ": 1301,
      "඀": 1302,
      "ඁ": 1303,
      "ං": 1304,
      "඄": 1305,
      "අ": 1306,
      "ආ": 1307,
      "ඇ": 1308,
      "ඈ": 1309,
      "ඉ": 1310,
      "උ": 1311,
      "ඌ": 1312,
      "ඍ": 1313,
      "ඎ": 1314,
      "ඏ": 1315,
      "ඐ": 1316,
      "ඒ": 1317,
      "ඓ": 1318,
      "ඔ": 1319,
      "ක": 1320,
      "ග": 1321,
      "ජ": 1322,
      "ඥ": 1323,
      "ට": 1324,
      "ඨ": 1325,
      "ත": 1326,
      "ද": 1327,
      "න": 1328,
      "ප": 1329,
      "ඵ": 1330,
      "ම": 1331,
      "ය": 1332,
      "ර": 1333,
      "ල": 1334,
      "ව": 1335,
      "ශ": 1336,
      "ස": 1337,
      "හ": 1338,
      "්": 1339,
      "෍": 1340,
      "ා": 1341,
      "ැ": 1342,
      "ෑ": 1343,
      "ි": 1344,
      "ී": 1345,
      "ු": 1346,
      "ෙ": 1347,
      "ේ": 1348,
      "ො": 1349,
      "ෝ": 1350,
      "෠": 1351,
      "෤": 1352,
      "෥": 1353,
      "෬": 1354,
      "෰": 1355,
      "ก": 1356,
      "ข": 1357,
      "ฃ": 1358,
      "ค": 1359,
      "ฅ": 1360,
      "ฆ": 1361,
      "ง": 1362,
      "จ": 1363,
      "ฉ": 1364,
      "ช": 1365,
      "ซ": 1366,
      "ญ": 1367,
      "ฐ": 1368,
      "ฒ": 1369,
      "ณ": 1370,
      "ด": 1371,
      "ต": 1372,
      "ถ": 1373,
      "ท": 1374,
      "ธ": 1375,
      "น": 1376,
      "บ": 1377,
      "ป": 1378,
      "ผ": 1379,
      "ฝ": 1380,
      "พ": 1381,
      "ฟ": 1382,
      "ภ": 1383,
      "ม": 1384,
      "ย": 1385,
      "ร": 1386,
      "ล": 1387,
      "ว": 1388,
      "ศ": 1389,
      "ษ": 1390,
      "ส": 1391,
      "ห": 1392,
      "ฬ": 1393,
      "อ": 1394,
      "ฮ": 1395,
      "ฯ": 1396,
      "ะ": 1397,
      "ั": 1398,
      "า": 1399,
      "ำ": 1400,
      "ิ": 1401,
      "ี": 1402,
      "ื": 1403,
      "ุ": 1404,
      "ู": 1405,
      "ฺ": 1406,
      "เ": 1407,
      "แ": 1408,
      "โ": 1409,
      "ใ": 1410,
      "ไ": 1411,
      "ๆ": 1412,
      "็": 1413,
      "่": 1414,
      "้": 1415,
      "๋": 1416,
      "์": 1417,
      "ํ": 1418,
      "๑": 1419,
      "་": 1420,
      "།": 1421,
      "ཁ": 1422,
      "ག": 1423,
      "ང": 1424,
      "ཆ": 1425,
      "ཎ": 1426,
      "ཏ": 1427,
      "ཐ": 1428,
      "ད": 1429,
      "ན": 1430,
      "པ": 1431,
      "བ": 1432,
      "མ": 1433,
      "ཙ": 1434,
      "ཝ": 1435,
      "ཡ": 1436,
      "ར": 1437,
      "ཤ": 1438,
      "ཥ": 1439,
      "ས": 1440,
      "ཧ": 1441,
      "ཨ": 1442,
      "ཱ": 1443,
      "ི": 1444,
      "ུ": 1445,
      "ེ": 1446,
      "ོ": 1447,
      "ཾ": 1448,
      "ྒ": 1449,
      "ྔ": 1450,
      "ྗ": 1451,
      "ྟ": 1452,
      "ྤ": 1453,
      "ྨ": 1454,
      "ྭ": 1455,
      "ྱ": 1456,
      "ྲ": 1457,
      "ྴ": 1458,
      "ྷ": 1459,
      "က": 1460,
      "ခ": 1461,
      "င": 1462,
      "တ": 1463,
      "ထ": 1464,
      "ပ": 1465,
      "ဗ": 1466,
      "မ": 1467,
      "ရ": 1468,
      "ဨ": 1469,
      "ိ": 1470,
      "ီ": 1471,
      "ု": 1472,
      "ေ": 1473,
      "ဲ": 1474,
      "ံ": 1475,
      "း": 1476,
      "်": 1477,
      "ြ": 1478,
      "ွ": 1479,
      "ှ": 1480,
      "ၵ": 1481,
      "ၶ": 1482,
      "ႆ": 1483,
      "ႈ": 1484,
      "ა": 1485,
      "ბ": 1486,
      "გ": 1487,
      "დ": 1488,
      "ე": 1489,
      "ვ": 1490,
      "ზ": 1491,
      "თ": 1492,
      "ი": 1493,
      "კ": 1494,
      "ლ": 1495,
      "მ": 1496,
      "ნ": 1497,
      "ო": 1498,
      "პ": 1499,
      "ჟ": 1500,
      "რ": 1501,
      "ს": 1502,
      "ტ": 1503,
      "უ": 1504,
      "ფ": 1505,
      "ქ": 1506,
      "ღ": 1507,
      "ყ": 1508,
      "შ": 1509,
      "ჩ": 1510,
      "ც": 1511,
      "ძ": 1512,
      "წ": 1513,
      "ჭ": 1514,
      "ხ": 1515,
      "ჯ": 1516,
      "ჰ": 1517,
      "ჱ": 1518,
      "ჲ": 1519,
      "ჳ": 1520,
      "ჴ": 1521,
      "ᇱ": 1522,
      "ሁ": 1523,
      "ሃ": 1524,
      "ሄ": 1525,
      "ሆ": 1526,
      "ለ": 1527,
      "ሊ": 1528,
      "ላ": 1529,
      "ሌ": 1530,
      "ል": 1531,
      "ሎ": 1532,
      "ሐ": 1533,
      "ሓ": 1534,
      "ሔ": 1535,
      "ሕ": 1536,
      "መ": 1537,
      "ሙ": 1538,
      "ሚ": 1539,
      "ማ": 1540,
      "ሜ": 1541,
      "ም": 1542,
      "ሞ": 1543,
      "ሟ": 1544,
      "ሠ": 1545,
      "ሣ": 1546,
      "ሥ": 1547,
      "ረ": 1548,
      "ሩ": 1549,
      "ሪ": 1550,
      "ራ": 1551,
      "ር": 1552,
      "ሮ": 1553,
      "ሰ": 1554,
      "ሱ": 1555,
      "ሲ": 1556,
      "ሳ": 1557,
      "ሴ": 1558,
      "ስ": 1559,
      "ቀ": 1560,
      "ቁ": 1561,
      "ቂ": 1562,
      "ቃ": 1563,
      "ቅ": 1564,
      "ቆ": 1565,
      "ቇ": 1566,
      "ቈ": 1567,
      "ቊ": 1568,
      "በ": 1569,
      "ቡ": 1570,
      "ባ": 1571,
      "ቤ": 1572,
      "ብ": 1573,
      "ቦ": 1574,
      "ተ": 1575,
      "ቱ": 1576,
      "ቲ": 1577,
      "ታ": 1578,
      "ቴ": 1579,
      "ት": 1580,
      "ቶ": 1581,
      "ኀ": 1582,
      "ኁ": 1583,
      "ኃ": 1584,
      "ኅ": 1585,
      "ነ": 1586,
      "ኑ": 1587,
      "ኒ": 1588,
      "ና": 1589,
      "ን": 1590,
      "ኖ": 1591,
      "አ": 1592,
      "ኢ": 1593,
      "ኤ": 1594,
      "እ": 1595,
      "ኦ": 1596,
      "ከ": 1597,
      "ኪ": 1598,
      "ካ": 1599,
      "ኬ": 1600,
      "ክ": 1601,
      "ኮ": 1602,
      "ኵ": 1603,
      "ወ": 1604,
      "ዊ": 1605,
      "ዋ": 1606,
      "ዌ": 1607,
      "ው": 1608,
      "ዎ": 1609,
      "ዑ": 1610,
      "ዓ": 1611,
      "ዕ": 1612,
      "ዖ": 1613,
      "ዘ": 1614,
      "ዚ": 1615,
      "ዝ": 1616,
      "የ": 1617,
      "ዩ": 1618,
      "ያ": 1619,
      "ይ": 1620,
      "ዮ": 1621,
      "ደ": 1622,
      "ዱ": 1623,
      "ዲ": 1624,
      "ዳ": 1625,
      "ድ": 1626,
      "ገ": 1627,
      "ጉ": 1628,
      "ጊ": 1629,
      "ጋ": 1630,
      "ግ": 1631,
      "ጓ": 1632,
      "ጠ": 1633,
      "ጢ": 1634,
      "ጣ": 1635,
      "ጥ": 1636,
      "ጦ": 1637,
      "ጰ": 1638,
      "ጳ": 1639,
      "ጵ": 1640,
      "ጸ": 1641,
      "ጻ": 1642,
      "ጼ": 1643,
      "ጽ": 1644,
      "ጾ": 1645,
      "ፀ": 1646,
      "ፈ": 1647,
      "ፊ": 1648,
      "ፍ": 1649,
      "ፐ": 1650,
      "ፙ": 1651,
      "፡": 1652,
      "።": 1653,
      "፣": 1654,
      "፰": 1655,
      "ᐊ": 1656,
      "ᐋ": 1657,
      "ᒃ": 1658,
      "ᓄ": 1659,
      "ᓐ": 1660,
      "ᓯ": 1661,
      "ᔪ": 1662,
      "ᕙ": 1663,
      "ᕿ": 1664,
      "ᖅ": 1665,
      "ᚢ": 1666,
      "ᚣ": 1667,
      "ᚤ": 1668,
      "ᚥ": 1669,
      "ᚹ": 1670,
      "ᚺ": 1671,
      "ᚻ": 1672,
      "ᚼ": 1673,
      "ᛋ": 1674,
      "ᛏ": 1675,
      "ᛡ": 1676,
      "ᝀ": 1677,
      "ᝁ": 1678,
      "ᝂ": 1679,
      "ᝃ": 1680,
      "ᝄ": 1681,
      "ᝅ": 1682,
      "ᝆ": 1683,
      "ᝇ": 1684,
      "ᝈ": 1685,
      "ᝉ": 1686,
      "ᝊ": 1687,
      "ᝋ": 1688,
      "ᝌ": 1689,
      "ᝍ": 1690,
      "ᝎ": 1691,
      "ᝏ": 1692,
      "ᝐ": 1693,
      "ᝑ": 1694,
      "ᝒ": 1695,
      "ᝓ": 1696,
      "ក": 1697,
      "គ": 1698,
      "ង": 1699,
      "ជ": 1700,
      "ដ": 1701,
      "ណ": 1702,
      "ត": 1703,
      "ទ": 1704,
      "ន": 1705,
      "ប": 1706,
      "ម": 1707,
      "រ": 1708,
      "ល": 1709,
      "ស": 1710,
      "ា": 1711,
      "ិ": 1712,
      "ី": 1713,
      "ុ": 1714,
      "ួ": 1715,
      "ោ": 1716,
      "ំ": 1717,
      "ះ": 1718,
      "់": 1719,
      "្": 1720,
      "៛": 1721,
      "᠎": 1722,
      "ᠠ": 1723,
      "ᠤ": 1724,
      "ᠬ": 1725,
      "ᠭ": 1726,
      "ᠯ": 1727,
      "ᠰ": 1728,
      "ᠲ": 1729,
      "ᠷ": 1730,
      "ᴀ": 1731,
      "ᴰ": 1732,
      "ᵀ": 1733,
      "ᵂ": 1734,
      "ᵊ": 1735,
      "ᵗ": 1736,
      "ᵛ": 1737,
      "ᵝ": 1738,
      "ᵞ": 1739,
      "ᵢ": 1740,
      "ᶻ": 1741,
      "᷃": 1742,
      "ḇ": 1743,
      "ḋ": 1744,
      "ḍ": 1745,
      "ḏ": 1746,
      "ḑ": 1747,
      "ḗ": 1748,
      "ḟ": 1749,
      "ḡ": 1750,
      "ḣ": 1751,
      "ḥ": 1752,
      "ḫ": 1753,
      "ḭ": 1754,
      "ḱ": 1755,
      "ḳ": 1756,
      "ḵ": 1757,
      "ḷ": 1758,
      "ḿ": 1759,
      "ṁ": 1760,
      "ṃ": 1761,
      "ṅ": 1762,
      "ṇ": 1763,
      "ṍ": 1764,
      "ṑ": 1765,
      "ṓ": 1766,
      "ṕ": 1767,
      "ṙ": 1768,
      "ṛ": 1769,
      "ṡ": 1770,
      "ṣ": 1771,
      "ṩ": 1772,
      "ṫ": 1773,
      "ṭ": 1774,
      "ṯ": 1775,
      "ṷ": 1776,
      "ṹ": 1777,
      "ṽ": 1778,
      "ṿ": 1779,
      "ẋ": 1780,
      "ẑ": 1781,
      "ẓ": 1782,
      "ẕ": 1783,
      "ẖ": 1784,
      "ẗ": 1785,
      "ẟ": 1786,
      "ạ": 1787,
      "ả": 1788,
      "ấ": 1789,
      "ầ": 1790,
      "ậ": 1791,
      "ắ": 1792,
      "ẹ": 1793,
      "ẻ": 1794,
      "ẽ": 1795,
      "ế": 1796,
      "ề": 1797,
      "ể": 1798,
      "ễ": 1799,
      "ệ": 1800,
      "ỉ": 1801,
      "ị": 1802,
      "ọ": 1803,
      "ỏ": 1804,
      "ố": 1805,
      "ồ": 1806,
      "ổ": 1807,
      "ộ": 1808,
      "ớ": 1809,
      "ờ": 1810,
      "ợ": 1811,
      "ụ": 1812,
      "ủ": 1813,
      "ứ": 1814,
      "ừ": 1815,
      "ử": 1816,
      "ữ": 1817,
      "ự": 1818,
      "ỳ": 1819,
      "ỷ": 1820,
      "ỹ": 1821,
      "ἀ": 1822,
      "ἁ": 1823,
      "ἂ": 1824,
      "ἃ": 1825,
      "ἄ": 1826,
      "ἅ": 1827,
      "ἐ": 1828,
      "ἑ": 1829,
      "ἔ": 1830,
      "ἕ": 1831,
      "ἠ": 1832,
      "ἡ": 1833,
      "ἢ": 1834,
      "ἤ": 1835,
      "ἥ": 1836,
      "ἦ": 1837,
      "ἰ": 1838,
      "ἱ": 1839,
      "ἲ": 1840,
      "ἴ": 1841,
      "ἵ": 1842,
      "ἶ": 1843,
      "ἷ": 1844,
      "ὀ": 1845,
      "ὁ": 1846,
      "ὃ": 1847,
      "ὄ": 1848,
      "ὅ": 1849,
      "ὐ": 1850,
      "ὑ": 1851,
      "ὓ": 1852,
      "ὔ": 1853,
      "ὕ": 1854,
      "ὖ": 1855,
      "ὗ": 1856,
      "ὠ": 1857,
      "ὡ": 1858,
      "ὢ": 1859,
      "ὤ": 1860,
      "ὥ": 1861,
      "ὦ": 1862,
      "ὧ": 1863,
      "ὰ": 1864,
      "ά": 1865,
      "ὲ": 1866,
      "έ": 1867,
      "ὴ": 1868,
      "ή": 1869,
      "ὶ": 1870,
      "ί": 1871,
      "ὸ": 1872,
      "ό": 1873,
      "ὺ": 1874,
      "ύ": 1875,
      "ὼ": 1876,
      "ώ": 1877,
      "ᾀ": 1878,
      "ᾆ": 1879,
      "ᾔ": 1880,
      "ᾠ": 1881,
      "ᾤ": 1882,
      "ᾰ": 1883,
      "ᾱ": 1884,
      "ᾳ": 1885,
      "ᾶ": 1886,
      "ᾷ": 1887,
      "᾽": 1888,
      "᾿": 1889,
      "ῃ": 1890,
      "ῄ": 1891,
      "ῆ": 1892,
      "ῇ": 1893,
      "ῑ": 1894,
      "ΐ": 1895,
      "ῖ": 1896,
      "῝": 1897,
      "῞": 1898,
      "ΰ": 1899,
      "ῤ": 1900,
      "ῥ": 1901,
      "ῦ": 1902,
      "ῳ": 1903,
      "ῴ": 1904,
      "ῶ": 1905,
      "ῷ": 1906,
      "´": 1907,
      "῾": 1908,
      "​": 1909,
      "‌": 1910,
      "‍": 1911,
      "‎": 1912,
      "‏": 1913,
      "‐": 1914,
      "‑": 1915,
      "‒": 1916,
      "–": 1917,
      "—": 1918,
      "―": 1919,
      "‖": 1920,
      "‗": 1921,
      "‘": 1922,
      "’": 1923,
      "‚": 1924,
      "‛": 1925,
      "“": 1926,
      "”": 1927,
      "„": 1928,
      "‟": 1929,
      "†": 1930,
      "‡": 1931,
      "•": 1932,
      "․": 1933,
      "‥": 1934,
      "…": 1935,
      "‧": 1936,
      "‪": 1937,
      "‬": 1938,
      "‭": 1939,
      "‰": 1940,
      "′": 1941,
      "″": 1942,
      "‹": 1943,
      "›": 1944,
      "‼": 1945,
      "‿": 1946,
      "⁂": 1947,
      "⁄": 1948,
      "⁈": 1949,
      "⁎": 1950,
      "⁠": 1951,
      "⁡": 1952,
      "⁣": 1953,
      "⁰": 1954,
      "ⁱ": 1955,
      "⁴": 1956,
      "⁵": 1957,
      "⁶": 1958,
      "⁷": 1959,
      "⁸": 1960,
      "⁹": 1961,
      "⁺": 1962,
      "⁻": 1963,
      "ⁿ": 1964,
      "₀": 1965,
      "₁": 1966,
      "₂": 1967,
      "₃": 1968,
      "₄": 1969,
      "₅": 1970,
      "₆": 1971,
      "₇": 1972,
      "₈": 1973,
      "₉": 1974,
      "₋": 1975,
      "₌": 1976,
      "ₐ": 1977,
      "ₖ": 1978,
      "₤": 1979,
      "₪": 1980,
      "€": 1981,
      "₰": 1982,
      "₴": 1983,
      "₷": 1984,
      "₹": 1985,
      "₺": 1986,
      "₽": 1987,
      "⃒": 1988,
      "⃗": 1989,
      "⃘": 1990,
      "⃛": 1991,
      "⃝": 1992,
      "⃦": 1993,
      "ℂ": 1994,
      "℃": 1995,
      "℉": 1996,
      "ℋ": 1997,
      "ℍ": 1998,
      "ℎ": 1999,
      "ℏ": 2000,
      "ℐ": 2001,
      "ℑ": 2002,
      "ℒ": 2003,
      "ℓ": 2004,
      "℔": 2005,
      "ℕ": 2006,
      "№": 2007,
      "℗": 2008,
      "ℙ": 2009,
      "ℚ": 2010,
      "ℛ": 2011,
      "ℜ": 2012,
      "ℝ": 2013,
      "℠": 2014,
      "™": 2015,
      "ℤ": 2016,
      "ℬ": 2017,
      "ℭ": 2018,
      "ℰ": 2019,
      "ℱ": 2020,
      "ℳ": 2021,
      "ℵ": 2022,
      "⅓": 2023,
      "⅔": 2024,
      "⅛": 2025,
      "ⅰ": 2026,
      "ⅱ": 2027,
      "ⅲ": 2028,
      "ⅳ": 2029,
      "ⅴ": 2030,
      "ⅵ": 2031,
      "ⅶ": 2032,
      "ⅷ": 2033,
      "ⅸ": 2034,
      "ⅹ": 2035,
      "ⅺ": 2036,
      "ⅻ": 2037,
      "ↄ": 2038,
      "←": 2039,
      "↑": 2040,
      "→": 2041,
      "↓": 2042,
      "↔": 2043,
      "↖": 2044,
      "↗": 2045,
      "↘": 2046,
      "↙": 2047,
      "↛": 2048,
      "↠": 2049,
      "↦": 2050,
      "⇌": 2051,
      "⇐": 2052,
      "⇑": 2053,
      "⇒": 2054,
      "⇔": 2055,
      "⇠": 2056,
      "⇡": 2057,
      "⇢": 2058,
      "⇣": 2059,
      "⇤": 2060,
      "⇥": 2061,
      "⇧": 2062,
      "∀": 2063,
      "∂": 2064,
      "∃": 2065,
      "∄": 2066,
      "∅": 2067,
      "∆": 2068,
      "∇": 2069,
      "∈": 2070,
      "∉": 2071,
      "∊": 2072,
      "∎": 2073,
      "∏": 2074,
      "∑": 2075,
      "−": 2076,
      "∓": 2077,
      "∕": 2078,
      "∖": 2079,
      "∗": 2080,
      "∘": 2081,
      "∙": 2082,
      "√": 2083,
      "∝": 2084,
      "∞": 2085,
      "∠": 2086,
      "∣": 2087,
      "∥": 2088,
      "∧": 2089,
      "∨": 2090,
      "∩": 2091,
      "∪": 2092,
      "∫": 2093,
      "∬": 2094,
      "∮": 2095,
      "∴": 2096,
      "∶": 2097,
      "∼": 2098,
      "≃": 2099,
      "≅": 2100,
      "≈": 2101,
      "≔": 2102,
      "≜": 2103,
      "≠": 2104,
      "≡": 2105,
      "≤": 2106,
      "≥": 2107,
      "≪": 2108,
      "≫": 2109,
      "≲": 2110,
      "≳": 2111,
      "≺": 2112,
      "≻": 2113,
      "⊂": 2114,
      "⊃": 2115,
      "⊆": 2116,
      "⊇": 2117,
      "⊔": 2118,
      "⊕": 2119,
      "⊗": 2120,
      "⊙": 2121,
      "⊤": 2122,
      "⊥": 2123,
      "⊺": 2124,
      "⋀": 2125,
      "⋂": 2126,
      "⋃": 2127,
      "⋅": 2128,
      "⋆": 2129,
      "⋊": 2130,
      "⋮": 2131,
      "⋯": 2132,
      "⋱": 2133,
      "⌀": 2134,
      "⌈": 2135,
      "⌉": 2136,
      "⌊": 2137,
      "⌋": 2138,
      "⌘": 2139,
      "⌢": 2140,
      "⌦": 2141,
      "〈": 2142,
      "〉": 2143,
      "⌶": 2144,
      "⍘": 2145,
      "⍺": 2146,
      "⎛": 2147,
      "⎜": 2148,
      "⎝": 2149,
      "⎞": 2150,
      "⎟": 2151,
      "⎠": 2152,
      "⎡": 2153,
      "⎢": 2154,
      "⎣": 2155,
      "⎤": 2156,
      "⎥": 2157,
      "⎦": 2158,
      "⎧": 2159,
      "⎨": 2160,
      "⎩": 2161,
      "⎪": 2162,
      "⎫": 2163,
      "⎬": 2164,
      "⎭": 2165,
      "⎯": 2166,
      "⎵": 2167,
      "⎷": 2168,
      "⎸": 2169,
      "⏛": 2170,
      "⏞": 2171,
      "⏟": 2172,
      "①": 2173,
      "③": 2174,
      "ⓐ": 2175,
      "ⓤ": 2176,
      "⓪": 2177,
      "─": 2178,
      "│": 2179,
      "┌": 2180,
      "┐": 2181,
      "└": 2182,
      "┘": 2183,
      "├": 2184,
      "┤": 2185,
      "┬": 2186,
      "┴": 2187,
      "┼": 2188,
      "▁": 2189,
      "█": 2190,
      "■": 2191,
      "□": 2192,
      "▪": 2193,
      "△": 2194,
      "▶": 2195,
      "◆": 2196,
      "○": 2197,
      "◌": 2198,
      "●": 2199,
      "◦": 2200,
      "◯": 2201,
      "◻": 2202,
      "☂": 2203,
      "★": 2204,
      "☆": 2205,
      "☉": 2206,
      "☊": 2207,
      "☋": 2208,
      "☑": 2209,
      "☕": 2210,
      "☝": 2211,
      "☮": 2212,
      "☵": 2213,
      "☺": 2214,
      "♀": 2215,
      "♁": 2216,
      "♂": 2217,
      "♃": 2218,
      "♈": 2219,
      "♠": 2220,
      "♥": 2221,
      "♦": 2222,
      "♪": 2223,
      "♭": 2224,
      "♯": 2225,
      "⚡": 2226,
      "⚢": 2227,
      "⚣": 2228,
      "⚭": 2229,
      "⚽": 2230,
      "⛤": 2231,
      "⛥": 2232,
      "⛦": 2233,
      "⛧": 2234,
      "✈": 2235,
      "✌": 2236,
      "✓": 2237,
      "✚": 2238,
      "✝": 2239,
      "✦": 2240,
      "✨": 2241,
      "✩": 2242,
      "✶": 2243,
      "❀": 2244,
      "❙": 2245,
      "❣": 2246,
      "❤": 2247,
      "❬": 2248,
      "❭": 2249,
      "❸": 2250,
      "❺": 2251,
      "➖": 2252,
      "➢": 2253,
      "⟦": 2254,
      "⟧": 2255,
      "⟨": 2256,
      "⟩": 2257,
      "⟹": 2258,
      "⠀": 2259,
      "⠅": 2260,
      "⠛": 2261,
      "⠩": 2262,
      "⠮": 2263,
      "⠱": 2264,
      "⠵": 2265,
      "⦁": 2266,
      "⧸": 2267,
      "⨂": 2268,
      "⨿": 2269,
      "⩽": 2270,
      "⩾": 2271,
      "⪅": 2272,
      "⬆": 2273,
      "⭐": 2274,
      "ⰵ": 2275,
      "ⰶ": 2276,
      "ⰿ": 2277,
      "ⱁ": 2278,
      "ⱂ": 2279,
      "ⱄ": 2280,
      "ⱅ": 2281,
      "ⱆ": 2282,
      "ⱌ": 2283,
      "ⱏ": 2284,
      "ⱗ": 2285,
      "ⱥ": 2286,
      "ⱦ": 2287,
      "ⱨ": 2288,
      "ⱪ": 2289,
      "ⱬ": 2290,
      "ⱼ": 2291,
      "ⲁ": 2292,
      "ⲃ": 2293,
      "ⲅ": 2294,
      "ⲇ": 2295,
      "ⲉ": 2296,
      "ⲏ": 2297,
      "ⲓ": 2298,
      "ⲕ": 2299,
      "ⲗ": 2300,
      "ⲙ": 2301,
      "ⲛ": 2302,
      "ⲟ": 2303,
      "ⲡ": 2304,
      "ⲣ": 2305,
      "ⲥ": 2306,
      "ⲧ": 2307,
      "ⲩ": 2308,
      "ⲫ": 2309,
      "ⲭ": 2310,
      "ⲱ": 2311,
      "ⴀ": 2312,
      "ⴁ": 2313,
      "ⴂ": 2314,
      "ⴃ": 2315,
      "ⴄ": 2316,
      "ⴅ": 2317,
      "ⴆ": 2318,
      "ⴇ": 2319,
      "ⴈ": 2320,
      "ⴉ": 2321,
      "ⴊ": 2322,
      "ⴋ": 2323,
      "ⴌ": 2324,
      "ⴍ": 2325,
      "ⴎ": 2326,
      "ⴏ": 2327,
      "ⴐ": 2328,
      "ⴑ": 2329,
      "ⴒ": 2330,
      "ⴓ": 2331,
      "ⴔ": 2332,
      "ⴕ": 2333,
      "ⴖ": 2334,
      "ⴗ": 2335,
      "ⴘ": 2336,
      "ⴙ": 2337,
      "ⴚ": 2338,
      "ⴛ": 2339,
      "ⴜ": 2340,
      "ⴝ": 2341,
      "ⴞ": 2342,
      "ⴟ": 2343,
      "ⴠ": 2344,
      "ⴡ": 2345,
      "ⴢ": 2346,
      "ⴣ": 2347,
      "ⴤ": 2348,
      "ⴥ": 2349,
      "ⴧ": 2350,
      "ⴭ": 2351,
      "ⴰ": 2352,
      "ⴼ": 2353,
      "ⴽ": 2354,
      "ⵉ": 2355,
      "ⵏ": 2356,
      "ⵙ": 2357,
      "ⵜ": 2358,
      "ⵢ": 2359,
      "ⵣ": 2360,
      "ⷠ": 2361,
      "ⷣ": 2362,
      "ⷤ": 2363,
      "ⷧ": 2364,
      "ⷨ": 2365,
      "ⷩ": 2366,
      "ⷪ": 2367,
      "ⷬ": 2368,
      "ⷭ": 2369,
      "ⷮ": 2370,
      "ⷯ": 2371,
      "ⷲ": 2372,
      "ⸯ": 2373,
      "⻱": 2374,
      "⿟": 2375,
      "、": 2376,
      "。": 2377,
      "〃": 2378,
      "々": 2379,
      "〇": 2380,
      "〈": 2381,
      "〉": 2382,
      "《": 2383,
      "》": 2384,
      "「": 2385,
      "」": 2386,
      "『": 2387,
      "』": 2388,
      "【": 2389,
      "】": 2390,
      "〜": 2391,
      "〱": 2392,
      "〲": 2393,
      "〳": 2394,
      "〴": 2395,
      "〵": 2396,
      "〻": 2397,
      "〽": 2398,
      "あ": 2399,
      "い": 2400,
      "う": 2401,
      "え": 2402,
      "お": 2403,
      "か": 2404,
      "が": 2405,
      "き": 2406,
      "ぎ": 2407,
      "く": 2408,
      "ぐ": 2409,
      "け": 2410,
      "げ": 2411,
      "こ": 2412,
      "ご": 2413,
      "さ": 2414,
      "ざ": 2415,
      "し": 2416,
      "じ": 2417,
      "す": 2418,
      "ず": 2419,
      "せ": 2420,
      "ぜ": 2421,
      "そ": 2422,
      "ぞ": 2423,
      "た": 2424,
      "だ": 2425,
      "ち": 2426,
      "ぢ": 2427,
      "っ": 2428,
      "つ": 2429,
      "づ": 2430,
      "て": 2431,
      "で": 2432,
      "と": 2433,
      "ど": 2434,
      "な": 2435,
      "に": 2436,
      "ぬ": 2437,
      "ね": 2438,
      "の": 2439,
      "は": 2440,
      "ば": 2441,
      "ひ": 2442,
      "び": 2443,
      "ぴ": 2444,
      "ふ": 2445,
      "ぶ": 2446,
      "へ": 2447,
      "べ": 2448,
      "ほ": 2449,
      "ぼ": 2450,
      "ぽ": 2451,
      "ま": 2452,
      "み": 2453,
      "む": 2454,
      "め": 2455,
      "も": 2456,
      "ゃ": 2457,
      "や": 2458,
      "ゅ": 2459,
      "ゆ": 2460,
      "ょ": 2461,
      "よ": 2462,
      "ら": 2463,
      "り": 2464,
      "る": 2465,
      "れ": 2466,
      "ろ": 2467,
      "わ": 2468,
      "ゐ": 2469,
      "ゑ": 2470,
      "を": 2471,
      "ん": 2472,
      "ゝ": 2473,
      "ゞ": 2474,
      "ァ": 2475,
      "ア": 2476,
      "ィ": 2477,
      "イ": 2478,
      "ゥ": 2479,
      "ウ": 2480,
      "ェ": 2481,
      "エ": 2482,
      "ォ": 2483,
      "オ": 2484,
      "カ": 2485,
      "ガ": 2486,
      "キ": 2487,
      "ギ": 2488,
      "ク": 2489,
      "グ": 2490,
      "ケ": 2491,
      "ゲ": 2492,
      "コ": 2493,
      "ゴ": 2494,
      "サ": 2495,
      "ザ": 2496,
      "シ": 2497,
      "ジ": 2498,
      "ス": 2499,
      "ズ": 2500,
      "セ": 2501,
      "ゼ": 2502,
      "ソ": 2503,
      "ゾ": 2504,
      "タ": 2505,
      "ダ": 2506,
      "チ": 2507,
      "ヂ": 2508,
      "ッ": 2509,
      "ツ": 2510,
      "ヅ": 2511,
      "テ": 2512,
      "デ": 2513,
      "ト": 2514,
      "ド": 2515,
      "ナ": 2516,
      "ニ": 2517,
      "ネ": 2518,
      "ノ": 2519,
      "ハ": 2520,
      "バ": 2521,
      "パ": 2522,
      "ヒ": 2523,
      "ビ": 2524,
      "ピ": 2525,
      "フ": 2526,
      "ブ": 2527,
      "プ": 2528,
      "ヘ": 2529,
      "ベ": 2530,
      "ペ": 2531,
      "ホ": 2532,
      "ボ": 2533,
      "ポ": 2534,
      "マ": 2535,
      "ミ": 2536,
      "ム": 2537,
      "メ": 2538,
      "モ": 2539,
      "ャ": 2540,
      "ヤ": 2541,
      "ュ": 2542,
      "ユ": 2543,
      "ョ": 2544,
      "ヨ": 2545,
      "ラ": 2546,
      "リ": 2547,
      "ル": 2548,
      "レ": 2549,
      "ロ": 2550,
      "ワ": 2551,
      "ヰ": 2552,
      "ヱ": 2553,
      "ヲ": 2554,
      "ン": 2555,
      "ヴ": 2556,
      "ヶ": 2557,
      "・": 2558,
      "ー": 2559,
      "ヽ": 2560,
      "ㅂ": 2561,
      "ㅇ": 2562,
      "ㅐ": 2563,
      "㲼": 2564,
      "䨺": 2565,
      "一": 2566,
      "丁": 2567,
      "七": 2568,
      "万": 2569,
      "丈": 2570,
      "三": 2571,
      "上": 2572,
      "下": 2573,
      "不": 2574,
      "与": 2575,
      "专": 2576,
      "世": 2577,
      "丘": 2578,
      "丙": 2579,
      "业": 2580,
      "丛": 2581,
      "东": 2582,
      "丝": 2583,
      "両": 2584,
      "两": 2585,
      "严": 2586,
      "並": 2587,
      "个": 2588,
      "中": 2589,
      "丰": 2590,
      "临": 2591,
      "丸": 2592,
      "丹": 2593,
      "为": 2594,
      "主": 2595,
      "举": 2596,
      "久": 2597,
      "么": 2598,
      "义": 2599,
      "之": 2600,
      "乌": 2601,
      "乎": 2602,
      "乐": 2603,
      "乔": 2604,
      "乙": 2605,
      "九": 2606,
      "也": 2607,
      "习": 2608,
      "乡": 2609,
      "书": 2610,
      "乱": 2611,
      "乾": 2612,
      "亀": 2613,
      "亂": 2614,
      "了": 2615,
      "予": 2616,
      "争": 2617,
      "事": 2618,
      "二": 2619,
      "于": 2620,
      "云": 2621,
      "互": 2622,
      "五": 2623,
      "井": 2624,
      "亚": 2625,
      "些": 2626,
      "亜": 2627,
      "亞": 2628,
      "亡": 2629,
      "交": 2630,
      "亥": 2631,
      "亦": 2632,
      "京": 2633,
      "亭": 2634,
      "亮": 2635,
      "亳": 2636,
      "人": 2637,
      "亿": 2638,
      "什": 2639,
      "仁": 2640,
      "仅": 2641,
      "仆": 2642,
      "仇": 2643,
      "今": 2644,
      "介": 2645,
      "仍": 2646,
      "从": 2647,
      "仏": 2648,
      "仓": 2649,
      "仔": 2650,
      "仕": 2651,
      "他": 2652,
      "付": 2653,
      "仙": 2654,
      "仝": 2655,
      "仡": 2656,
      "代": 2657,
      "令": 2658,
      "以": 2659,
      "仫": 2660,
      "们": 2661,
      "仮": 2662,
      "仲": 2663,
      "件": 2664,
      "任": 2665,
      "份": 2666,
      "企": 2667,
      "伊": 2668,
      "伍": 2669,
      "伎": 2670,
      "伏": 2671,
      "伐": 2672,
      "休": 2673,
      "伕": 2674,
      "众": 2675,
      "会": 2676,
      "伝": 2677,
      "传": 2678,
      "伤": 2679,
      "伦": 2680,
      "伪": 2681,
      "伯": 2682,
      "估": 2683,
      "伴": 2684,
      "伷": 2685,
      "伸": 2686,
      "似": 2687,
      "伽": 2688,
      "但": 2689,
      "位": 2690,
      "住": 2691,
      "佐": 2692,
      "佑": 2693,
      "体": 2694,
      "何": 2695,
      "余": 2696,
      "佛": 2697,
      "作": 2698,
      "你": 2699,
      "佩": 2700,
      "佬": 2701,
      "佳": 2702,
      "佾": 2703,
      "使": 2704,
      "來": 2705,
      "例": 2706,
      "侍": 2707,
      "供": 2708,
      "依": 2709,
      "価": 2710,
      "侯": 2711,
      "便": 2712,
      "係": 2713,
      "促": 2714,
      "俄": 2715,
      "俊": 2716,
      "保": 2717,
      "俞": 2718,
      "俟": 2719,
      "俠": 2720,
      "信": 2721,
      "修": 2722,
      "俱": 2723,
      "俳": 2724,
      "俺": 2725,
      "倉": 2726,
      "個": 2727,
      "們": 2728,
      "倒": 2729,
      "候": 2730,
      "借": 2731,
      "倡": 2732,
      "倫": 2733,
      "倭": 2734,
      "倶": 2735,
      "假": 2736,
      "偏": 2737,
      "偓": 2738,
      "做": 2739,
      "健": 2740,
      "側": 2741,
      "偶": 2742,
      "偽": 2743,
      "傑": 2744,
      "傘": 2745,
      "備": 2746,
      "傣": 2747,
      "催": 2748,
      "傳": 2749,
      "働": 2750,
      "像": 2751,
      "僕": 2752,
      "僖": 2753,
      "僧": 2754,
      "僮": 2755,
      "儋": 2756,
      "儒": 2757,
      "優": 2758,
      "儺": 2759,
      "儿": 2760,
      "允": 2761,
      "元": 2762,
      "兄": 2763,
      "充": 2764,
      "兆": 2765,
      "先": 2766,
      "光": 2767,
      "克": 2768,
      "免": 2769,
      "児": 2770,
      "兒": 2771,
      "兖": 2772,
      "党": 2773,
      "兜": 2774,
      "入": 2775,
      "內": 2776,
      "全": 2777,
      "兪": 2778,
      "八": 2779,
      "公": 2780,
      "六": 2781,
      "兰": 2782,
      "共": 2783,
      "关": 2784,
      "兴": 2785,
      "兵": 2786,
      "其": 2787,
      "具": 2788,
      "典": 2789,
      "冀": 2790,
      "内": 2791,
      "円": 2792,
      "冈": 2793,
      "冊": 2794,
      "册": 2795,
      "再": 2796,
      "冑": 2797,
      "写": 2798,
      "军": 2799,
      "农": 2800,
      "冠": 2801,
      "冥": 2802,
      "冫": 2803,
      "冬": 2804,
      "冯": 2805,
      "决": 2806,
      "冶": 2807,
      "冷": 2808,
      "凉": 2809,
      "凍": 2810,
      "凝": 2811,
      "几": 2812,
      "凤": 2813,
      "凭": 2814,
      "凯": 2815,
      "凰": 2816,
      "凱": 2817,
      "出": 2818,
      "击": 2819,
      "函": 2820,
      "刀": 2821,
      "刁": 2822,
      "分": 2823,
      "切": 2824,
      "刊": 2825,
      "刑": 2826,
      "列": 2827,
      "刘": 2828,
      "则": 2829,
      "刚": 2830,
      "创": 2831,
      "初": 2832,
      "判": 2833,
      "別": 2834,
      "利": 2835,
      "别": 2836,
      "到": 2837,
      "制": 2838,
      "刷": 2839,
      "刹": 2840,
      "刺": 2841,
      "刻": 2842,
      "則": 2843,
      "剌": 2844,
      "前": 2845,
      "剑": 2846,
      "剛": 2847,
      "剣": 2848,
      "剧": 2849,
      "副": 2850,
      "創": 2851,
      "劃": 2852,
      "劇": 2853,
      "劉": 2854,
      "劍": 2855,
      "力": 2856,
      "功": 2857,
      "加": 2858,
      "务": 2859,
      "动": 2860,
      "助": 2861,
      "努": 2862,
      "劭": 2863,
      "劲": 2864,
      "劳": 2865,
      "効": 2866,
      "势": 2867,
      "勅": 2868,
      "勇": 2869,
      "勉": 2870,
      "勒": 2871,
      "動": 2872,
      "勘": 2873,
      "務": 2874,
      "勝": 2875,
      "勢": 2876,
      "勤": 2877,
      "勧": 2878,
      "勲": 2879,
      "勸": 2880,
      "勿": 2881,
      "匀": 2882,
      "包": 2883,
      "匈": 2884,
      "匐": 2885,
      "化": 2886,
      "北": 2887,
      "匹": 2888,
      "区": 2889,
      "医": 2890,
      "區": 2891,
      "十": 2892,
      "千": 2893,
      "午": 2894,
      "半": 2895,
      "华": 2896,
      "协": 2897,
      "卑": 2898,
      "卒": 2899,
      "卓": 2900,
      "協": 2901,
      "单": 2902,
      "卖": 2903,
      "南": 2904,
      "単": 2905,
      "博": 2906,
      "卜": 2907,
      "卟": 2908,
      "占": 2909,
      "卡": 2910,
      "卢": 2911,
      "卫": 2912,
      "印": 2913,
      "危": 2914,
      "即": 2915,
      "却": 2916,
      "卷": 2917,
      "卿": 2918,
      "厅": 2919,
      "历": 2920,
      "压": 2921,
      "厖": 2922,
      "厚": 2923,
      "原": 2924,
      "厢": 2925,
      "厥": 2926,
      "厦": 2927,
      "厳": 2928,
      "去": 2929,
      "县": 2930,
      "参": 2931,
      "又": 2932,
      "叉": 2933,
      "及": 2934,
      "友": 2935,
      "双": 2936,
      "反": 2937,
      "収": 2938,
      "发": 2939,
      "叔": 2940,
      "取": 2941,
      "受": 2942,
      "变": 2943,
      "叙": 2944,
      "叛": 2945,
      "叡": 2946,
      "叢": 2947,
      "口": 2948,
      "古": 2949,
      "句": 2950,
      "另": 2951,
      "只": 2952,
      "召": 2953,
      "可": 2954,
      "台": 2955,
      "史": 2956,
      "右": 2957,
      "叶": 2958,
      "号": 2959,
      "司": 2960,
      "吃": 2961,
      "各": 2962,
      "合": 2963,
      "吉": 2964,
      "同": 2965,
      "名": 2966,
      "后": 2967,
      "吐": 2968,
      "向": 2969,
      "吒": 2970,
      "吕": 2971,
      "吗": 2972,
      "君": 2973,
      "吟": 2974,
      "吠": 2975,
      "否": 2976,
      "含": 2977,
      "启": 2978,
      "吳": 2979,
      "吴": 2980,
      "吵": 2981,
      "吸": 2982,
      "吻": 2983,
      "吾": 2984,
      "呂": 2985,
      "呉": 2986,
      "告": 2987,
      "员": 2988,
      "呢": 2989,
      "周": 2990,
      "味": 2991,
      "呼": 2992,
      "命": 2993,
      "咄": 2994,
      "和": 2995,
      "咏": 2996,
      "咥": 2997,
      "咲": 2998,
      "咸": 2999,
      "哀": 3000,
      "品": 3001,
      "哈": 3002,
      "哉": 3003,
      "响": 3004,
      "員": 3005,
      "哥": 3006,
      "哦": 3007,
      "哩": 3008,
      "哪": 3009,
      "哲": 3010,
      "唄": 3011,
      "唇": 3012,
      "唐": 3013,
      "唔": 3014,
      "唯": 3015,
      "商": 3016,
      "啉": 3017,
      "啊": 3018,
      "問": 3019,
      "啓": 3020,
      "啜": 3021,
      "啟": 3022,
      "喀": 3023,
      "善": 3024,
      "喆": 3025,
      "喇": 3026,
      "喜": 3027,
      "喦": 3028,
      "喧": 3029,
      "営": 3030,
      "喷": 3031,
      "喻": 3032,
      "嗢": 3033,
      "嗣": 3034,
      "嗨": 3035,
      "嘉": 3036,
      "嘎": 3037,
      "嘘": 3038,
      "嘩": 3039,
      "噐": 3040,
      "噢": 3041,
      "器": 3042,
      "噶": 3043,
      "囊": 3044,
      "囚": 3045,
      "四": 3046,
      "回": 3047,
      "因": 3048,
      "团": 3049,
      "団": 3050,
      "园": 3051,
      "囱": 3052,
      "図": 3053,
      "围": 3054,
      "囷": 3055,
      "固": 3056,
      "国": 3057,
      "图": 3058,
      "圆": 3059,
      "國": 3060,
      "圍": 3061,
      "園": 3062,
      "圖": 3063,
      "團": 3064,
      "土": 3065,
      "圣": 3066,
      "在": 3067,
      "地": 3068,
      "圳": 3069,
      "场": 3070,
      "坂": 3071,
      "均": 3072,
      "坊": 3073,
      "坎": 3074,
      "坝": 3075,
      "坟": 3076,
      "坤": 3077,
      "坩": 3078,
      "坪": 3079,
      "垂": 3080,
      "型": 3081,
      "垦": 3082,
      "埃": 3083,
      "埋": 3084,
      "城": 3085,
      "埔": 3086,
      "埚": 3087,
      "域": 3088,
      "培": 3089,
      "基": 3090,
      "埼": 3091,
      "堂": 3092,
      "堡": 3093,
      "堤": 3094,
      "堪": 3095,
      "堯": 3096,
      "報": 3097,
      "場": 3098,
      "塁": 3099,
      "塔": 3100,
      "塘": 3101,
      "塚": 3102,
      "塞": 3103,
      "填": 3104,
      "塵": 3105,
      "墓": 3106,
      "増": 3107,
      "墜": 3108,
      "墨": 3109,
      "墳": 3110,
      "壁": 3111,
      "壞": 3112,
      "士": 3113,
      "壬": 3114,
      "壮": 3115,
      "声": 3116,
      "壽": 3117,
      "处": 3118,
      "备": 3119,
      "変": 3120,
      "复": 3121,
      "夏": 3122,
      "夔": 3123,
      "夕": 3124,
      "外": 3125,
      "多": 3126,
      "夜": 3127,
      "夢": 3128,
      "大": 3129,
      "天": 3130,
      "太": 3131,
      "夫": 3132,
      "央": 3133,
      "失": 3134,
      "头": 3135,
      "夷": 3136,
      "夹": 3137,
      "夾": 3138,
      "奄": 3139,
      "奇": 3140,
      "奈": 3141,
      "奉": 3142,
      "奋": 3143,
      "奏": 3144,
      "契": 3145,
      "奔": 3146,
      "套": 3147,
      "奚": 3148,
      "奥": 3149,
      "奧": 3150,
      "奪": 3151,
      "奮": 3152,
      "女": 3153,
      "奴": 3154,
      "好": 3155,
      "如": 3156,
      "妃": 3157,
      "妄": 3158,
      "妇": 3159,
      "妓": 3160,
      "妖": 3161,
      "妙": 3162,
      "妥": 3163,
      "妮": 3164,
      "妹": 3165,
      "妻": 3166,
      "姉": 3167,
      "始": 3168,
      "姐": 3169,
      "姑": 3170,
      "姓": 3171,
      "委": 3172,
      "姚": 3173,
      "姝": 3174,
      "姫": 3175,
      "姬": 3176,
      "姿": 3177,
      "威": 3178,
      "娇": 3179,
      "娑": 3180,
      "娘": 3181,
      "娛": 3182,
      "娱": 3183,
      "婁": 3184,
      "婆": 3185,
      "婚": 3186,
      "婦": 3187,
      "媒": 3188,
      "媛": 3189,
      "媽": 3190,
      "嫡": 3191,
      "嫩": 3192,
      "嬢": 3193,
      "嬴": 3194,
      "子": 3195,
      "孔": 3196,
      "字": 3197,
      "存": 3198,
      "孙": 3199,
      "孚": 3200,
      "孝": 3201,
      "孟": 3202,
      "季": 3203,
      "孤": 3204,
      "学": 3205,
      "孩": 3206,
      "孫": 3207,
      "學": 3208,
      "宁": 3209,
      "它": 3210,
      "宅": 3211,
      "宇": 3212,
      "守": 3213,
      "安": 3214,
      "宋": 3215,
      "完": 3216,
      "宍": 3217,
      "宏": 3218,
      "宗": 3219,
      "官": 3220,
      "宙": 3221,
      "定": 3222,
      "宜": 3223,
      "宝": 3224,
      "实": 3225,
      "実": 3226,
      "客": 3227,
      "宣": 3228,
      "室": 3229,
      "宫": 3230,
      "宮": 3231,
      "宰": 3232,
      "害": 3233,
      "宴": 3234,
      "宵": 3235,
      "家": 3236,
      "容": 3237,
      "宾": 3238,
      "宿": 3239,
      "寂": 3240,
      "寄": 3241,
      "寅": 3242,
      "密": 3243,
      "寇": 3244,
      "富": 3245,
      "寒": 3246,
      "寘": 3247,
      "寛": 3248,
      "寝": 3249,
      "寞": 3250,
      "察": 3251,
      "寡": 3252,
      "實": 3253,
      "寧": 3254,
      "寨": 3255,
      "寶": 3256,
      "寸": 3257,
      "对": 3258,
      "寺": 3259,
      "寻": 3260,
      "导": 3261,
      "対": 3262,
      "寿": 3263,
      "封": 3264,
      "射": 3265,
      "将": 3266,
      "將": 3267,
      "尉": 3268,
      "尊": 3269,
      "導": 3270,
      "小": 3271,
      "少": 3272,
      "尔": 3273,
      "尚": 3274,
      "尤": 3275,
      "尹": 3276,
      "尼": 3277,
      "尽": 3278,
      "尾": 3279,
      "局": 3280,
      "层": 3281,
      "居": 3282,
      "屈": 3283,
      "屋": 3284,
      "屍": 3285,
      "展": 3286,
      "属": 3287,
      "屮": 3288,
      "屯": 3289,
      "山": 3290,
      "岐": 3291,
      "岑": 3292,
      "岗": 3293,
      "岛": 3294,
      "岡": 3295,
      "岩": 3296,
      "岭": 3297,
      "岳": 3298,
      "峒": 3299,
      "峠": 3300,
      "峡": 3301,
      "峨": 3302,
      "峩": 3303,
      "峭": 3304,
      "峰": 3305,
      "島": 3306,
      "峻": 3307,
      "崇": 3308,
      "崎": 3309,
      "崖": 3310,
      "崛": 3311,
      "崧": 3312,
      "崩": 3313,
      "嵊": 3314,
      "嵋": 3315,
      "嵌": 3316,
      "嵐": 3317,
      "嵩": 3318,
      "巋": 3319,
      "川": 3320,
      "州": 3321,
      "巡": 3322,
      "巢": 3323,
      "工": 3324,
      "左": 3325,
      "巨": 3326,
      "差": 3327,
      "己": 3328,
      "已": 3329,
      "巳": 3330,
      "巴": 3331,
      "巷": 3332,
      "巻": 3333,
      "巽": 3334,
      "巾": 3335,
      "市": 3336,
      "布": 3337,
      "师": 3338,
      "帋": 3339,
      "希": 3340,
      "帖": 3341,
      "帚": 3342,
      "帝": 3343,
      "帥": 3344,
      "带": 3345,
      "師": 3346,
      "帮": 3347,
      "帯": 3348,
      "帰": 3349,
      "帳": 3350,
      "常": 3351,
      "帼": 3352,
      "幅": 3353,
      "幕": 3354,
      "干": 3355,
      "平": 3356,
      "年": 3357,
      "并": 3358,
      "幸": 3359,
      "幹": 3360,
      "幻": 3361,
      "幼": 3362,
      "幽": 3363,
      "广": 3364,
      "庁": 3365,
      "広": 3366,
      "庄": 3367,
      "庆": 3368,
      "床": 3369,
      "序": 3370,
      "庐": 3371,
      "库": 3372,
      "应": 3373,
      "底": 3374,
      "店": 3375,
      "庙": 3376,
      "庚": 3377,
      "府": 3378,
      "度": 3379,
      "座": 3380,
      "庫": 3381,
      "庭": 3382,
      "庵": 3383,
      "庶": 3384,
      "康": 3385,
      "庾": 3386,
      "廂": 3387,
      "廃": 3388,
      "廉": 3389,
      "廊": 3390,
      "廓": 3391,
      "廖": 3392,
      "廠": 3393,
      "廣": 3394,
      "廬": 3395,
      "延": 3396,
      "建": 3397,
      "廻": 3398,
      "廾": 3399,
      "开": 3400,
      "弁": 3401,
      "弊": 3402,
      "式": 3403,
      "弓": 3404,
      "引": 3405,
      "弗": 3406,
      "弘": 3407,
      "弟": 3408,
      "张": 3409,
      "弥": 3410,
      "弱": 3411,
      "張": 3412,
      "強": 3413,
      "弼": 3414,
      "弾": 3415,
      "彈": 3416,
      "彌": 3417,
      "归": 3418,
      "当": 3419,
      "录": 3420,
      "彘": 3421,
      "彙": 3422,
      "彝": 3423,
      "形": 3424,
      "彦": 3425,
      "彩": 3426,
      "彪": 3427,
      "彬": 3428,
      "彭": 3429,
      "影": 3430,
      "彳": 3431,
      "役": 3432,
      "彼": 3433,
      "往": 3434,
      "征": 3435,
      "径": 3436,
      "待": 3437,
      "很": 3438,
      "律": 3439,
      "後": 3440,
      "徐": 3441,
      "徒": 3442,
      "従": 3443,
      "徕": 3444,
      "得": 3445,
      "從": 3446,
      "御": 3447,
      "循": 3448,
      "微": 3449,
      "徳": 3450,
      "徵": 3451,
      "德": 3452,
      "徽": 3453,
      "心": 3454,
      "必": 3455,
      "忌": 3456,
      "忍": 3457,
      "志": 3458,
      "忘": 3459,
      "応": 3460,
      "忞": 3461,
      "忠": 3462,
      "快": 3463,
      "念": 3464,
      "忻": 3465,
      "怀": 3466,
      "态": 3467,
      "怒": 3468,
      "思": 3469,
      "怡": 3470,
      "急": 3471,
      "性": 3472,
      "怪": 3473,
      "总": 3474,
      "恋": 3475,
      "恒": 3476,
      "恢": 3477,
      "恥": 3478,
      "恩": 3479,
      "恭": 3480,
      "息": 3481,
      "恰": 3482,
      "恵": 3483,
      "悄": 3484,
      "悉": 3485,
      "悌": 3486,
      "悔": 3487,
      "悟": 3488,
      "患": 3489,
      "悦": 3490,
      "您": 3491,
      "悪": 3492,
      "悬": 3493,
      "悲": 3494,
      "悴": 3495,
      "情": 3496,
      "惑": 3497,
      "惟": 3498,
      "惠": 3499,
      "惱": 3500,
      "想": 3501,
      "愁": 3502,
      "愈": 3503,
      "愉": 3504,
      "愍": 3505,
      "意": 3506,
      "愛": 3507,
      "感": 3508,
      "愷": 3509,
      "慈": 3510,
      "慎": 3511,
      "慕": 3512,
      "慢": 3513,
      "慧": 3514,
      "慰": 3515,
      "慶": 3516,
      "憔": 3517,
      "憲": 3518,
      "憾": 3519,
      "應": 3520,
      "懋": 3521,
      "懐": 3522,
      "懷": 3523,
      "懺": 3524,
      "懿": 3525,
      "戌": 3526,
      "戍": 3527,
      "戏": 3528,
      "成": 3529,
      "我": 3530,
      "或": 3531,
      "战": 3532,
      "戦": 3533,
      "戰": 3534,
      "戲": 3535,
      "戴": 3536,
      "戶": 3537,
      "户": 3538,
      "戸": 3539,
      "戻": 3540,
      "房": 3541,
      "所": 3542,
      "手": 3543,
      "才": 3544,
      "扎": 3545,
      "扒": 3546,
      "扩": 3547,
      "扱": 3548,
      "找": 3549,
      "承": 3550,
      "技": 3551,
      "抄": 3552,
      "把": 3553,
      "抑": 3554,
      "抓": 3555,
      "投": 3556,
      "抗": 3557,
      "折": 3558,
      "抚": 3559,
      "抜": 3560,
      "护": 3561,
      "报": 3562,
      "披": 3563,
      "抱": 3564,
      "抹": 3565,
      "抽": 3566,
      "拉": 3567,
      "拍": 3568,
      "拓": 3569,
      "拔": 3570,
      "拙": 3571,
      "招": 3572,
      "拜": 3573,
      "拡": 3574,
      "拥": 3575,
      "括": 3576,
      "拶": 3577,
      "拷": 3578,
      "拾": 3579,
      "持": 3580,
      "指": 3581,
      "挑": 3582,
      "挣": 3583,
      "挤": 3584,
      "挥": 3585,
      "挨": 3586,
      "振": 3587,
      "挿": 3588,
      "捕": 3589,
      "损": 3590,
      "换": 3591,
      "捨": 3592,
      "据": 3593,
      "捷": 3594,
      "授": 3595,
      "排": 3596,
      "掘": 3597,
      "掛": 3598,
      "探": 3599,
      "接": 3600,
      "控": 3601,
      "推": 3602,
      "掲": 3603,
      "揆": 3604,
      "揉": 3605,
      "提": 3606,
      "插": 3607,
      "揭": 3608,
      "揺": 3609,
      "搔": 3610,
      "搶": 3611,
      "携": 3612,
      "摄": 3613,
      "摘": 3614,
      "摩": 3615,
      "摹": 3616,
      "撃": 3617,
      "撒": 3618,
      "撥": 3619,
      "撫": 3620,
      "播": 3621,
      "撰": 3622,
      "撲": 3623,
      "擊": 3624,
      "操": 3625,
      "據": 3626,
      "支": 3627,
      "收": 3628,
      "攸": 3629,
      "改": 3630,
      "放": 3631,
      "政": 3632,
      "故": 3633,
      "效": 3634,
      "敏": 3635,
      "救": 3636,
      "敖": 3637,
      "教": 3638,
      "散": 3639,
      "敬": 3640,
      "数": 3641,
      "整": 3642,
      "敷": 3643,
      "文": 3644,
      "斉": 3645,
      "斋": 3646,
      "斌": 3647,
      "斎": 3648,
      "斗": 3649,
      "料": 3650,
      "斛": 3651,
      "斜": 3652,
      "斟": 3653,
      "斤": 3654,
      "断": 3655,
      "斯": 3656,
      "新": 3657,
      "斷": 3658,
      "方": 3659,
      "於": 3660,
      "施": 3661,
      "旅": 3662,
      "旋": 3663,
      "族": 3664,
      "旗": 3665,
      "无": 3666,
      "旡": 3667,
      "既": 3668,
      "日": 3669,
      "旦": 3670,
      "旧": 3671,
      "旨": 3672,
      "早": 3673,
      "旭": 3674,
      "时": 3675,
      "昀": 3676,
      "昆": 3677,
      "昌": 3678,
      "明": 3679,
      "昏": 3680,
      "昐": 3681,
      "易": 3682,
      "星": 3683,
      "映": 3684,
      "春": 3685,
      "昫": 3686,
      "昭": 3687,
      "是": 3688,
      "昱": 3689,
      "昴": 3690,
      "昼": 3691,
      "显": 3692,
      "時": 3693,
      "晉": 3694,
      "晋": 3695,
      "晓": 3696,
      "晚": 3697,
      "晝": 3698,
      "晟": 3699,
      "晨": 3700,
      "晩": 3701,
      "普": 3702,
      "景": 3703,
      "晴": 3704,
      "晶": 3705,
      "智": 3706,
      "暁": 3707,
      "暉": 3708,
      "暑": 3709,
      "暖": 3710,
      "暗": 3711,
      "暦": 3712,
      "暨": 3713,
      "暮": 3714,
      "暴": 3715,
      "曄": 3716,
      "曆": 3717,
      "曙": 3718,
      "曜": 3719,
      "曰": 3720,
      "曲": 3721,
      "曳": 3722,
      "更": 3723,
      "書": 3724,
      "曹": 3725,
      "曼": 3726,
      "曽": 3727,
      "曾": 3728,
      "替": 3729,
      "最": 3730,
      "會": 3731,
      "月": 3732,
      "有": 3733,
      "朋": 3734,
      "服": 3735,
      "朔": 3736,
      "朗": 3737,
      "望": 3738,
      "朝": 3739,
      "期": 3740,
      "木": 3741,
      "未": 3742,
      "末": 3743,
      "本": 3744,
      "术": 3745,
      "朱": 3746,
      "朵": 3747,
      "机": 3748,
      "杀": 3749,
      "杂": 3750,
      "权": 3751,
      "杉": 3752,
      "李": 3753,
      "杏": 3754,
      "材": 3755,
      "村": 3756,
      "杓": 3757,
      "杜": 3758,
      "杞": 3759,
      "束": 3760,
      "条": 3761,
      "来": 3762,
      "杨": 3763,
      "杰": 3764,
      "東": 3765,
      "松": 3766,
      "板": 3767,
      "极": 3768,
      "构": 3769,
      "析": 3770,
      "枕": 3771,
      "林": 3772,
      "枚": 3773,
      "果": 3774,
      "枝": 3775,
      "枠": 3776,
      "枢": 3777,
      "枯": 3778,
      "架": 3779,
      "枹": 3780,
      "柊": 3781,
      "柏": 3782,
      "某": 3783,
      "染": 3784,
      "柢": 3785,
      "查": 3786,
      "柯": 3787,
      "柱": 3788,
      "柳": 3789,
      "柴": 3790,
      "柵": 3791,
      "査": 3792,
      "栃": 3793,
      "栄": 3794,
      "标": 3795,
      "树": 3796,
      "栗": 3797,
      "校": 3798,
      "株": 3799,
      "样": 3800,
      "核": 3801,
      "根": 3802,
      "格": 3803,
      "桀": 3804,
      "桂": 3805,
      "案": 3806,
      "桌": 3807,
      "桐": 3808,
      "桑": 3809,
      "桓": 3810,
      "桔": 3811,
      "桜": 3812,
      "桥": 3813,
      "桶": 3814,
      "梁": 3815,
      "梅": 3816,
      "梦": 3817,
      "梧": 3818,
      "梨": 3819,
      "梯": 3820,
      "棋": 3821,
      "棒": 3822,
      "棘": 3823,
      "棠": 3824,
      "森": 3825,
      "棻": 3826,
      "椅": 3827,
      "植": 3828,
      "検": 3829,
      "椿": 3830,
      "楀": 3831,
      "楊": 3832,
      "楚": 3833,
      "楞": 3834,
      "業": 3835,
      "楯": 3836,
      "極": 3837,
      "楷": 3838,
      "楼": 3839,
      "楽": 3840,
      "概": 3841,
      "榆": 3842,
      "榊": 3843,
      "榕": 3844,
      "榮": 3845,
      "構": 3846,
      "様": 3847,
      "樂": 3848,
      "樊": 3849,
      "標": 3850,
      "模": 3851,
      "樣": 3852,
      "権": 3853,
      "横": 3854,
      "樱": 3855,
      "樹": 3856,
      "樽": 3857,
      "橋": 3858,
      "機": 3859,
      "檀": 3860,
      "檻": 3861,
      "櫛": 3862,
      "權": 3863,
      "欠": 3864,
      "次": 3865,
      "欣": 3866,
      "欧": 3867,
      "欲": 3868,
      "欽": 3869,
      "歌": 3870,
      "歐": 3871,
      "歙": 3872,
      "歡": 3873,
      "止": 3874,
      "正": 3875,
      "此": 3876,
      "步": 3877,
      "武": 3878,
      "歩": 3879,
      "歳": 3880,
      "歴": 3881,
      "歸": 3882,
      "死": 3883,
      "残": 3884,
      "殴": 3885,
      "段": 3886,
      "殷": 3887,
      "殻": 3888,
      "殿": 3889,
      "毁": 3890,
      "毅": 3891,
      "母": 3892,
      "每": 3893,
      "毒": 3894,
      "比": 3895,
      "毕": 3896,
      "毗": 3897,
      "毛": 3898,
      "氏": 3899,
      "氐": 3900,
      "民": 3901,
      "气": 3902,
      "気": 3903,
      "氢": 3904,
      "氣": 3905,
      "氧": 3906,
      "氨": 3907,
      "水": 3908,
      "氵": 3909,
      "氷": 3910,
      "永": 3911,
      "氺": 3912,
      "汀": 3913,
      "求": 3914,
      "汉": 3915,
      "汐": 3916,
      "汕": 3917,
      "汗": 3918,
      "汝": 3919,
      "江": 3920,
      "池": 3921,
      "汤": 3922,
      "汨": 3923,
      "汪": 3924,
      "汲": 3925,
      "汶": 3926,
      "決": 3927,
      "汽": 3928,
      "汾": 3929,
      "沁": 3930,
      "沂": 3931,
      "沃": 3932,
      "沅": 3933,
      "沈": 3934,
      "沉": 3935,
      "沌": 3936,
      "沒": 3937,
      "沔": 3938,
      "沖": 3939,
      "沙": 3940,
      "沛": 3941,
      "没": 3942,
      "沢": 3943,
      "沧": 3944,
      "沫": 3945,
      "沮": 3946,
      "河": 3947,
      "油": 3948,
      "治": 3949,
      "沼": 3950,
      "沽": 3951,
      "沾": 3952,
      "沿": 3953,
      "況": 3954,
      "泃": 3955,
      "泉": 3956,
      "法": 3957,
      "泗": 3958,
      "泡": 3959,
      "波": 3960,
      "泣": 3961,
      "泥": 3962,
      "注": 3963,
      "泫": 3964,
      "泰": 3965,
      "泳": 3966,
      "泵": 3967,
      "泺": 3968,
      "泾": 3969,
      "洋": 3970,
      "洗": 3971,
      "洛": 3972,
      "洞": 3973,
      "津": 3974,
      "洪": 3975,
      "洮": 3976,
      "洲": 3977,
      "洸": 3978,
      "活": 3979,
      "派": 3980,
      "流": 3981,
      "浅": 3982,
      "测": 3983,
      "浍": 3984,
      "济": 3985,
      "浑": 3986,
      "浓": 3987,
      "浔": 3988,
      "浙": 3989,
      "浚": 3990,
      "浦": 3991,
      "浩": 3992,
      "浪": 3993,
      "浮": 3994,
      "海": 3995,
      "浿": 3996,
      "涂": 3997,
      "消": 3998,
      "涉": 3999,
      "涌": 4000,
      "涙": 4001,
      "涞": 4002,
      "涯": 4003,
      "液": 4004,
      "涼": 4005,
      "涿": 4006,
      "淀": 4007,
      "淄": 4008,
      "淇": 4009,
      "淑": 4010,
      "淙": 4011,
      "淮": 4012,
      "深": 4013,
      "淳": 4014,
      "淵": 4015,
      "混": 4016,
      "淺": 4017,
      "清": 4018,
      "渓": 4019,
      "渔": 4020,
      "渠": 4021,
      "渡": 4022,
      "温": 4023,
      "渭": 4024,
      "港": 4025,
      "游": 4026,
      "渾": 4027,
      "湖": 4028,
      "湘": 4029,
      "湯": 4030,
      "湾": 4031,
      "満": 4032,
      "源": 4033,
      "準": 4034,
      "溝": 4035,
      "溪": 4036,
      "溫": 4037,
      "溶": 4038,
      "溺": 4039,
      "滃": 4040,
      "滅": 4041,
      "滕": 4042,
      "滚": 4043,
      "滝": 4044,
      "满": 4045,
      "滨": 4046,
      "滴": 4047,
      "滸": 4048,
      "滿": 4049,
      "漁": 4050,
      "漓": 4051,
      "漠": 4052,
      "漢": 4053,
      "漫": 4054,
      "漳": 4055,
      "潍": 4056,
      "潔": 4057,
      "潘": 4058,
      "潜": 4059,
      "潞": 4060,
      "潢": 4061,
      "潭": 4062,
      "潮": 4063,
      "澂": 4064,
      "澄": 4065,
      "澤": 4066,
      "澧": 4067,
      "激": 4068,
      "濟": 4069,
      "濡": 4070,
      "濫": 4071,
      "濬": 4072,
      "瀑": 4073,
      "瀚": 4074,
      "瀬": 4075,
      "灣": 4076,
      "火": 4077,
      "灭": 4078,
      "灯": 4079,
      "灵": 4080,
      "炊": 4081,
      "炎": 4082,
      "炤": 4083,
      "炳": 4084,
      "炸": 4085,
      "点": 4086,
      "為": 4087,
      "烁": 4088,
      "烈": 4089,
      "烏": 4090,
      "烟": 4091,
      "热": 4092,
      "烷": 4093,
      "烽": 4094,
      "焉": 4095,
      "無": 4096,
      "焦": 4097,
      "焯": 4098,
      "然": 4099,
      "煎": 4100,
      "煙": 4101,
      "照": 4102,
      "煩": 4103,
      "熄": 4104,
      "熊": 4105,
      "熙": 4106,
      "熟": 4107,
      "熱": 4108,
      "熵": 4109,
      "熾": 4110,
      "燃": 4111,
      "燕": 4112,
      "營": 4113,
      "燦": 4114,
      "爟": 4115,
      "爱": 4116,
      "爵": 4117,
      "父": 4118,
      "爸": 4119,
      "爺": 4120,
      "爽": 4121,
      "爾": 4122,
      "片": 4123,
      "版": 4124,
      "牘": 4125,
      "牙": 4126,
      "牛": 4127,
      "牟": 4128,
      "牡": 4129,
      "牧": 4130,
      "物": 4131,
      "特": 4132,
      "犬": 4133,
      "状": 4134,
      "狂": 4135,
      "狐": 4136,
      "狗": 4137,
      "狩": 4138,
      "独": 4139,
      "狮": 4140,
      "狼": 4141,
      "猎": 4142,
      "猗": 4143,
      "猛": 4144,
      "猜": 4145,
      "猫": 4146,
      "献": 4147,
      "獅": 4148,
      "獣": 4149,
      "獨": 4150,
      "獲": 4151,
      "玄": 4152,
      "率": 4153,
      "玉": 4154,
      "王": 4155,
      "玛": 4156,
      "环": 4157,
      "现": 4158,
      "珍": 4159,
      "珠": 4160,
      "珪": 4161,
      "班": 4162,
      "現": 4163,
      "球": 4164,
      "琅": 4165,
      "理": 4166,
      "琉": 4167,
      "琪": 4168,
      "琮": 4169,
      "琴": 4170,
      "琼": 4171,
      "瑊": 4172,
      "瑕": 4173,
      "瑞": 4174,
      "瑟": 4175,
      "瑶": 4176,
      "璁": 4177,
      "璐": 4178,
      "璝": 4179,
      "璞": 4180,
      "環": 4181,
      "瓊": 4182,
      "瓜": 4183,
      "瓦": 4184,
      "瓯": 4185,
      "瓶": 4186,
      "甘": 4187,
      "甚": 4188,
      "生": 4189,
      "産": 4190,
      "用": 4191,
      "甫": 4192,
      "田": 4193,
      "由": 4194,
      "甲": 4195,
      "申": 4196,
      "电": 4197,
      "男": 4198,
      "町": 4199,
      "画": 4200,
      "界": 4201,
      "畑": 4202,
      "留": 4203,
      "略": 4204,
      "番": 4205,
      "畫": 4206,
      "異": 4207,
      "疆": 4208,
      "疏": 4209,
      "疑": 4210,
      "疗": 4211,
      "疫": 4212,
      "疲": 4213,
      "疾": 4214,
      "病": 4215,
      "痛": 4216,
      "痹": 4217,
      "瘍": 4218,
      "療": 4219,
      "発": 4220,
      "登": 4221,
      "發": 4222,
      "白": 4223,
      "百": 4224,
      "的": 4225,
      "皇": 4226,
      "皋": 4227,
      "皖": 4228,
      "皝": 4229,
      "盆": 4230,
      "益": 4231,
      "盐": 4232,
      "盘": 4233,
      "盛": 4234,
      "盟": 4235,
      "盡": 4236,
      "監": 4237,
      "盤": 4238,
      "目": 4239,
      "盱": 4240,
      "直": 4241,
      "相": 4242,
      "省": 4243,
      "眉": 4244,
      "看": 4245,
      "県": 4246,
      "眞": 4247,
      "真": 4248,
      "眠": 4249,
      "眩": 4250,
      "着": 4251,
      "督": 4252,
      "睿": 4253,
      "瞳": 4254,
      "瞻": 4255,
      "瞿": 4256,
      "矢": 4257,
      "矣": 4258,
      "知": 4259,
      "短": 4260,
      "石": 4261,
      "矿": 4262,
      "砀": 4263,
      "码": 4264,
      "砂": 4265,
      "研": 4266,
      "砦": 4267,
      "破": 4268,
      "砷": 4269,
      "础": 4270,
      "硅": 4271,
      "硏": 4272,
      "硤": 4273,
      "硫": 4274,
      "确": 4275,
      "碧": 4276,
      "碱": 4277,
      "碳": 4278,
      "確": 4279,
      "碼": 4280,
      "磨": 4281,
      "磬": 4282,
      "磷": 4283,
      "示": 4284,
      "礼": 4285,
      "社": 4286,
      "祉": 4287,
      "祖": 4288,
      "祗": 4289,
      "祝": 4290,
      "神": 4291,
      "祥": 4292,
      "祭": 4293,
      "祴": 4294,
      "祿": 4295,
      "禁": 4296,
      "禄": 4297,
      "禅": 4298,
      "禍": 4299,
      "福": 4300,
      "禛": 4301,
      "禮": 4302,
      "禹": 4303,
      "离": 4304,
      "秀": 4305,
      "私": 4306,
      "秋": 4307,
      "种": 4308,
      "科": 4309,
      "秘": 4310,
      "秦": 4311,
      "秩": 4312,
      "积": 4313,
      "移": 4314,
      "程": 4315,
      "稚": 4316,
      "種": 4317,
      "稳": 4318,
      "稷": 4319,
      "稽": 4320,
      "稿": 4321,
      "穂": 4322,
      "積": 4323,
      "穎": 4324,
      "穗": 4325,
      "穣": 4326,
      "穴": 4327,
      "究": 4328,
      "空": 4329,
      "突": 4330,
      "窄": 4331,
      "窓": 4332,
      "窗": 4333,
      "窟": 4334,
      "窪": 4335,
      "窺": 4336,
      "立": 4337,
      "站": 4338,
      "竜": 4339,
      "章": 4340,
      "童": 4341,
      "端": 4342,
      "競": 4343,
      "竹": 4344,
      "笈": 4345,
      "笑": 4346,
      "笔": 4347,
      "笥": 4348,
      "笨": 4349,
      "第": 4350,
      "笹": 4351,
      "筆": 4352,
      "等": 4353,
      "筑": 4354,
      "答": 4355,
      "策": 4356,
      "筠": 4357,
      "筧": 4358,
      "简": 4359,
      "箇": 4360,
      "算": 4361,
      "管": 4362,
      "箭": 4363,
      "箱": 4364,
      "節": 4365,
      "範": 4366,
      "篆": 4367,
      "篇": 4368,
      "築": 4369,
      "篷": 4370,
      "簇": 4371,
      "簡": 4372,
      "簪": 4373,
      "籍": 4374,
      "籔": 4375,
      "籠": 4376,
      "米": 4377,
      "类": 4378,
      "粉": 4379,
      "粒": 4380,
      "粤": 4381,
      "粥": 4382,
      "粧": 4383,
      "粵": 4384,
      "精": 4385,
      "糒": 4386,
      "糖": 4387,
      "糸": 4388,
      "系": 4389,
      "紀": 4390,
      "約": 4391,
      "紅": 4392,
      "紇": 4393,
      "納": 4394,
      "紐": 4395,
      "紓": 4396,
      "純": 4397,
      "紙": 4398,
      "素": 4399,
      "索": 4400,
      "紫": 4401,
      "累": 4402,
      "細": 4403,
      "終": 4404,
      "絃": 4405,
      "組": 4406,
      "経": 4407,
      "結": 4408,
      "絕": 4409,
      "絡": 4410,
      "統": 4411,
      "絵": 4412,
      "絶": 4413,
      "經": 4414,
      "継": 4415,
      "続": 4416,
      "維": 4417,
      "網": 4418,
      "綽": 4419,
      "綿": 4420,
      "総": 4421,
      "緑": 4422,
      "緒": 4423,
      "線": 4424,
      "緞": 4425,
      "編": 4426,
      "緯": 4427,
      "練": 4428,
      "縁": 4429,
      "縄": 4430,
      "縊": 4431,
      "縫": 4432,
      "縮": 4433,
      "總": 4434,
      "繁": 4435,
      "繪": 4436,
      "繼": 4437,
      "纂": 4438,
      "續": 4439,
      "红": 4440,
      "约": 4441,
      "级": 4442,
      "纪": 4443,
      "纳": 4444,
      "纸": 4445,
      "线": 4446,
      "组": 4447,
      "绅": 4448,
      "细": 4449,
      "织": 4450,
      "终": 4451,
      "绍": 4452,
      "经": 4453,
      "结": 4454,
      "绘": 4455,
      "给": 4456,
      "络": 4457,
      "统": 4458,
      "绥": 4459,
      "绪": 4460,
      "续": 4461,
      "维": 4462,
      "绵": 4463,
      "综": 4464,
      "缓": 4465,
      "缘": 4466,
      "缩": 4467,
      "缺": 4468,
      "网": 4469,
      "罕": 4470,
      "罗": 4471,
      "罘": 4472,
      "罢": 4473,
      "罪": 4474,
      "置": 4475,
      "罰": 4476,
      "署": 4477,
      "羅": 4478,
      "羊": 4479,
      "羌": 4480,
      "美": 4481,
      "羟": 4482,
      "羡": 4483,
      "群": 4484,
      "義": 4485,
      "羯": 4486,
      "羲": 4487,
      "羽": 4488,
      "翁": 4489,
      "翊": 4490,
      "翌": 4491,
      "翎": 4492,
      "習": 4493,
      "翔": 4494,
      "翠": 4495,
      "翬": 4496,
      "翰": 4497,
      "翻": 4498,
      "翼": 4499,
      "翽": 4500,
      "老": 4501,
      "考": 4502,
      "者": 4503,
      "耆": 4504,
      "而": 4505,
      "耏": 4506,
      "耐": 4507,
      "耒": 4508,
      "耗": 4509,
      "耶": 4510,
      "聂": 4511,
      "聊": 4512,
      "联": 4513,
      "聖": 4514,
      "聚": 4515,
      "聞": 4516,
      "聯": 4517,
      "聲": 4518,
      "聽": 4519,
      "肃": 4520,
      "肅": 4521,
      "肇": 4522,
      "肉": 4523,
      "肌": 4524,
      "肖": 4525,
      "肥": 4526,
      "育": 4527,
      "肽": 4528,
      "肾": 4529,
      "背": 4530,
      "胜": 4531,
      "胞": 4532,
      "胡": 4533,
      "胤": 4534,
      "胶": 4535,
      "能": 4536,
      "脂": 4537,
      "脇": 4538,
      "脫": 4539,
      "腆": 4540,
      "腊": 4541,
      "腫": 4542,
      "腰": 4543,
      "腺": 4544,
      "膏": 4545,
      "膜": 4546,
      "膳": 4547,
      "臘": 4548,
      "臣": 4549,
      "臨": 4550,
      "自": 4551,
      "臯": 4552,
      "至": 4553,
      "致": 4554,
      "臺": 4555,
      "與": 4556,
      "興": 4557,
      "舉": 4558,
      "舍": 4559,
      "舒": 4560,
      "舜": 4561,
      "舞": 4562,
      "舟": 4563,
      "航": 4564,
      "般": 4565,
      "舰": 4566,
      "船": 4567,
      "艇": 4568,
      "艚": 4569,
      "艦": 4570,
      "良": 4571,
      "色": 4572,
      "艶": 4573,
      "艺": 4574,
      "艾": 4575,
      "节": 4576,
      "芒": 4577,
      "芙": 4578,
      "芜": 4579,
      "芦": 4580,
      "芬": 4581,
      "芮": 4582,
      "花": 4583,
      "芳": 4584,
      "芷": 4585,
      "芸": 4586,
      "苏": 4587,
      "苗": 4588,
      "苞": 4589,
      "若": 4590,
      "苦": 4591,
      "英": 4592,
      "苷": 4593,
      "茂": 4594,
      "范": 4595,
      "茨": 4596,
      "茶": 4597,
      "茹": 4598,
      "荃": 4599,
      "荆": 4600,
      "草": 4601,
      "荏": 4602,
      "荒": 4603,
      "荖": 4604,
      "荘": 4605,
      "荣": 4606,
      "荧": 4607,
      "荫": 4608,
      "药": 4609,
      "荷": 4610,
      "莆": 4611,
      "莊": 4612,
      "莎": 4613,
      "莒": 4614,
      "莨": 4615,
      "莫": 4616,
      "莱": 4617,
      "莲": 4618,
      "获": 4619,
      "莽": 4620,
      "菅": 4621,
      "菊": 4622,
      "菓": 4623,
      "菜": 4624,
      "菩": 4625,
      "華": 4626,
      "萁": 4627,
      "萊": 4628,
      "萌": 4629,
      "萍": 4630,
      "营": 4631,
      "萨": 4632,
      "萩": 4633,
      "萬": 4634,
      "落": 4635,
      "葉": 4636,
      "著": 4637,
      "葛": 4638,
      "葭": 4639,
      "葱": 4640,
      "葵": 4641,
      "蒋": 4642,
      "蒙": 4643,
      "蒨": 4644,
      "蒼": 4645,
      "蓄": 4646,
      "蓉": 4647,
      "蓋": 4648,
      "蓟": 4649,
      "蓮": 4650,
      "蓼": 4651,
      "蔑": 4652,
      "蔡": 4653,
      "蔣": 4654,
      "蔵": 4655,
      "蕙": 4656,
      "蕤": 4657,
      "蕭": 4658,
      "薄": 4659,
      "薇": 4660,
      "薔": 4661,
      "薙": 4662,
      "薛": 4663,
      "薦": 4664,
      "薩": 4665,
      "薰": 4666,
      "藍": 4667,
      "藏": 4668,
      "藝": 4669,
      "藤": 4670,
      "藥": 4671,
      "藩": 4672,
      "藻": 4673,
      "蘆": 4674,
      "蘇": 4675,
      "蘭": 4676,
      "虎": 4677,
      "虏": 4678,
      "虐": 4679,
      "處": 4680,
      "虛": 4681,
      "虞": 4682,
      "號": 4683,
      "虫": 4684,
      "虹": 4685,
      "蛇": 4686,
      "蛉": 4687,
      "蛙": 4688,
      "蛛": 4689,
      "蛮": 4690,
      "蜘": 4691,
      "蜜": 4692,
      "蜻": 4693,
      "蝶": 4694,
      "融": 4695,
      "螺": 4696,
      "蠕": 4697,
      "蠶": 4698,
      "血": 4699,
      "衆": 4700,
      "行": 4701,
      "術": 4702,
      "街": 4703,
      "衙": 4704,
      "衛": 4705,
      "衝": 4706,
      "衞": 4707,
      "衡": 4708,
      "衢": 4709,
      "衣": 4710,
      "补": 4711,
      "表": 4712,
      "衰": 4713,
      "袁": 4714,
      "袋": 4715,
      "袖": 4716,
      "被": 4717,
      "裂": 4718,
      "装": 4719,
      "裏": 4720,
      "裕": 4721,
      "裴": 4722,
      "製": 4723,
      "褐": 4724,
      "褒": 4725,
      "褚": 4726,
      "襄": 4727,
      "西": 4728,
      "要": 4729,
      "覇": 4730,
      "見": 4731,
      "規": 4732,
      "視": 4733,
      "覚": 4734,
      "覧": 4735,
      "親": 4736,
      "観": 4737,
      "覺": 4738,
      "覽": 4739,
      "见": 4740,
      "观": 4741,
      "规": 4742,
      "览": 4743,
      "角": 4744,
      "解": 4745,
      "言": 4746,
      "計": 4747,
      "訊": 4748,
      "討": 4749,
      "訓": 4750,
      "訖": 4751,
      "託": 4752,
      "記": 4753,
      "訥": 4754,
      "設": 4755,
      "許": 4756,
      "訳": 4757,
      "訶": 4758,
      "註": 4759,
      "証": 4760,
      "評": 4761,
      "詞": 4762,
      "詠": 4763,
      "詣": 4764,
      "試": 4765,
      "詧": 4766,
      "詩": 4767,
      "話": 4768,
      "詳": 4769,
      "詹": 4770,
      "誉": 4771,
      "誌": 4772,
      "認": 4773,
      "誓": 4774,
      "誘": 4775,
      "語": 4776,
      "誠": 4777,
      "說": 4778,
      "説": 4779,
      "読": 4780,
      "課": 4781,
      "誹": 4782,
      "調": 4783,
      "談": 4784,
      "論": 4785,
      "諧": 4786,
      "諸": 4787,
      "謀": 4788,
      "謎": 4789,
      "謙": 4790,
      "講": 4791,
      "謝": 4792,
      "證": 4793,
      "識": 4794,
      "譚": 4795,
      "譜": 4796,
      "警": 4797,
      "譯": 4798,
      "議": 4799,
      "譲": 4800,
      "護": 4801,
      "變": 4802,
      "计": 4803,
      "认": 4804,
      "讨": 4805,
      "议": 4806,
      "记": 4807,
      "许": 4808,
      "论": 4809,
      "设": 4810,
      "访": 4811,
      "诀": 4812,
      "证": 4813,
      "评": 4814,
      "识": 4815,
      "诉": 4816,
      "试": 4817,
      "诗": 4818,
      "诚": 4819,
      "话": 4820,
      "诞": 4821,
      "询": 4822,
      "详": 4823,
      "语": 4824,
      "说": 4825,
      "请": 4826,
      "诺": 4827,
      "读": 4828,
      "课": 4829,
      "谈": 4830,
      "谊": 4831,
      "谢": 4832,
      "谣": 4833,
      "谱": 4834,
      "谷": 4835,
      "豆": 4836,
      "豊": 4837,
      "象": 4838,
      "豪": 4839,
      "豫": 4840,
      "豬": 4841,
      "貌": 4842,
      "貝": 4843,
      "貞": 4844,
      "財": 4845,
      "貪": 4846,
      "貫": 4847,
      "責": 4848,
      "貯": 4849,
      "貴": 4850,
      "貿": 4851,
      "賀": 4852,
      "賁": 4853,
      "資": 4854,
      "賊": 4855,
      "賓": 4856,
      "賞": 4857,
      "賢": 4858,
      "質": 4859,
      "賴": 4860,
      "贈": 4861,
      "贝": 4862,
      "贡": 4863,
      "财": 4864,
      "贤": 4865,
      "货": 4866,
      "质": 4867,
      "贵": 4868,
      "贸": 4869,
      "费": 4870,
      "贺": 4871,
      "资": 4872,
      "赋": 4873,
      "赏": 4874,
      "赐": 4875,
      "赛": 4876,
      "赞": 4877,
      "赤": 4878,
      "赫": 4879,
      "走": 4880,
      "赵": 4881,
      "起": 4882,
      "超": 4883,
      "越": 4884,
      "趋": 4885,
      "趙": 4886,
      "趣": 4887,
      "足": 4888,
      "跋": 4889,
      "跌": 4890,
      "距": 4891,
      "跡": 4892,
      "跨": 4893,
      "路": 4894,
      "跳": 4895,
      "踊": 4896,
      "踏": 4897,
      "身": 4898,
      "躬": 4899,
      "車": 4900,
      "軌": 4901,
      "軍": 4902,
      "軒": 4903,
      "転": 4904,
      "軽": 4905,
      "載": 4906,
      "輝": 4907,
      "輪": 4908,
      "輸": 4909,
      "轄": 4910,
      "轉": 4911,
      "车": 4912,
      "轩": 4913,
      "转": 4914,
      "载": 4915,
      "较": 4916,
      "辇": 4917,
      "辉": 4918,
      "辖": 4919,
      "辛": 4920,
      "辞": 4921,
      "辭": 4922,
      "辰": 4923,
      "辱": 4924,
      "農": 4925,
      "边": 4926,
      "辺": 4927,
      "辻": 4928,
      "辽": 4929,
      "达": 4930,
      "迁": 4931,
      "过": 4932,
      "迎": 4933,
      "运": 4934,
      "近": 4935,
      "返": 4936,
      "还": 4937,
      "这": 4938,
      "进": 4939,
      "远": 4940,
      "连": 4941,
      "迟": 4942,
      "迢": 4943,
      "述": 4944,
      "迷": 4945,
      "迹": 4946,
      "追": 4947,
      "退": 4948,
      "送": 4949,
      "适": 4950,
      "逃": 4951,
      "选": 4952,
      "透": 4953,
      "逐": 4954,
      "递": 4955,
      "途": 4956,
      "通": 4957,
      "逝": 4958,
      "速": 4959,
      "造": 4960,
      "逢": 4961,
      "連": 4962,
      "週": 4963,
      "進": 4964,
      "逸": 4965,
      "逾": 4966,
      "遂": 4967,
      "遇": 4968,
      "遊": 4969,
      "運": 4970,
      "過": 4971,
      "遏": 4972,
      "道": 4973,
      "達": 4974,
      "遗": 4975,
      "遜": 4976,
      "遠": 4977,
      "遥": 4978,
      "適": 4979,
      "遵": 4980,
      "遷": 4981,
      "選": 4982,
      "遺": 4983,
      "遼": 4984,
      "遽": 4985,
      "避": 4986,
      "還": 4987,
      "邇": 4988,
      "邏": 4989,
      "邑": 4990,
      "邓": 4991,
      "邕": 4992,
      "邢": 4993,
      "那": 4994,
      "邦": 4995,
      "邪": 4996,
      "邮": 4997,
      "邯": 4998,
      "邱": 4999,
      "邵": 5000,
      "邶": 5001,
      "邹": 5002,
      "邾": 5003,
      "郁": 5004,
      "郊": 5005,
      "郎": 5006,
      "郑": 5007,
      "郗": 5008,
      "郡": 5009,
      "郧": 5010,
      "部": 5011,
      "郭": 5012,
      "郴": 5013,
      "郵": 5014,
      "郷": 5015,
      "郸": 5016,
      "都": 5017,
      "鄂": 5018,
      "鄉": 5019,
      "鄒": 5020,
      "鄚": 5021,
      "鄞": 5022,
      "鄧": 5023,
      "鄩": 5024,
      "鄭": 5025,
      "酉": 5026,
      "酋": 5027,
      "配": 5028,
      "酒": 5029,
      "酓": 5030,
      "酔": 5031,
      "酷": 5032,
      "酸": 5033,
      "酺": 5034,
      "醇": 5035,
      "醉": 5036,
      "醒": 5037,
      "醛": 5038,
      "采": 5039,
      "釋": 5040,
      "里": 5041,
      "重": 5042,
      "野": 5043,
      "量": 5044,
      "釐": 5045,
      "金": 5046,
      "釧": 5047,
      "釵": 5048,
      "鈴": 5049,
      "鉄": 5050,
      "鉞": 5051,
      "銀": 5052,
      "銃": 5053,
      "銑": 5054,
      "銘": 5055,
      "銭": 5056,
      "鋒": 5057,
      "錄": 5058,
      "錚": 5059,
      "錦": 5060,
      "錫": 5061,
      "録": 5062,
      "鍵": 5063,
      "鍾": 5064,
      "鎮": 5065,
      "鏡": 5066,
      "鐘": 5067,
      "鐵": 5068,
      "鑑": 5069,
      "鑫": 5070,
      "钟": 5071,
      "钨": 5072,
      "钱": 5073,
      "钼": 5074,
      "铁": 5075,
      "铃": 5076,
      "铎": 5077,
      "铜": 5078,
      "铝": 5079,
      "银": 5080,
      "链": 5081,
      "锌": 5082,
      "锏": 5083,
      "锡": 5084,
      "锦": 5085,
      "键": 5086,
      "锰": 5087,
      "镁": 5088,
      "镇": 5089,
      "镛": 5090,
      "長": 5091,
      "长": 5092,
      "門": 5093,
      "閃": 5094,
      "閉": 5095,
      "開": 5096,
      "閑": 5097,
      "間": 5098,
      "閔": 5099,
      "関": 5100,
      "閨": 5101,
      "閭": 5102,
      "闕": 5103,
      "闘": 5104,
      "關": 5105,
      "门": 5106,
      "闪": 5107,
      "问": 5108,
      "间": 5109,
      "闻": 5110,
      "闽": 5111,
      "阁": 5112,
      "阅": 5113,
      "阎": 5114,
      "阜": 5115,
      "队": 5116,
      "阪": 5117,
      "阮": 5118,
      "防": 5119,
      "阳": 5120,
      "阴": 5121,
      "阵": 5122,
      "阶": 5123,
      "阻": 5124,
      "阿": 5125,
      "陀": 5126,
      "附": 5127,
      "际": 5128,
      "陆": 5129,
      "陇": 5130,
      "陈": 5131,
      "降": 5132,
      "限": 5133,
      "陕": 5134,
      "陘": 5135,
      "院": 5136,
      "除": 5137,
      "险": 5138,
      "陰": 5139,
      "陳": 5140,
      "陵": 5141,
      "陶": 5142,
      "陸": 5143,
      "陽": 5144,
      "隅": 5145,
      "隆": 5146,
      "隊": 5147,
      "隋": 5148,
      "階": 5149,
      "隐": 5150,
      "隔": 5151,
      "隘": 5152,
      "隙": 5153,
      "際": 5154,
      "隠": 5155,
      "隣": 5156,
      "隨": 5157,
      "隱": 5158,
      "隶": 5159,
      "隸": 5160,
      "隹": 5161,
      "隼": 5162,
      "难": 5163,
      "雀": 5164,
      "雁": 5165,
      "雄": 5166,
      "雅": 5167,
      "集": 5168,
      "雏": 5169,
      "雑": 5170,
      "雒": 5171,
      "雕": 5172,
      "雙": 5173,
      "雜": 5174,
      "雞": 5175,
      "離": 5176,
      "難": 5177,
      "雨": 5178,
      "雪": 5179,
      "雲": 5180,
      "零": 5181,
      "雷": 5182,
      "電": 5183,
      "需": 5184,
      "霄": 5185,
      "霊": 5186,
      "霏": 5187,
      "霓": 5188,
      "霜": 5189,
      "霞": 5190,
      "霧": 5191,
      "霫": 5192,
      "露": 5193,
      "霸": 5194,
      "靈": 5195,
      "青": 5196,
      "靖": 5197,
      "静": 5198,
      "靜": 5199,
      "非": 5200,
      "面": 5201,
      "革": 5202,
      "靺": 5203,
      "靼": 5204,
      "鞋": 5205,
      "鞍": 5206,
      "鞑": 5207,
      "鞠": 5208,
      "鞨": 5209,
      "韋": 5210,
      "韓": 5211,
      "韧": 5212,
      "韩": 5213,
      "韭": 5214,
      "音": 5215,
      "韶": 5216,
      "韻": 5217,
      "響": 5218,
      "頁": 5219,
      "頂": 5220,
      "頃": 5221,
      "順": 5222,
      "須": 5223,
      "頓": 5224,
      "領": 5225,
      "頡": 5226,
      "頬": 5227,
      "頭": 5228,
      "頼": 5229,
      "題": 5230,
      "顏": 5231,
      "顔": 5232,
      "類": 5233,
      "顧": 5234,
      "顯": 5235,
      "页": 5236,
      "顶": 5237,
      "项": 5238,
      "顺": 5239,
      "预": 5240,
      "领": 5241,
      "颇": 5242,
      "颍": 5243,
      "颗": 5244,
      "题": 5245,
      "额": 5246,
      "風": 5247,
      "风": 5248,
      "飛": 5249,
      "食": 5250,
      "飯": 5251,
      "餅": 5252,
      "養": 5253,
      "餓": 5254,
      "餘": 5255,
      "館": 5256,
      "饥": 5257,
      "饱": 5258,
      "饶": 5259,
      "饼": 5260,
      "饿": 5261,
      "馆": 5262,
      "首": 5263,
      "馗": 5264,
      "香": 5265,
      "馬": 5266,
      "馮": 5267,
      "馳": 5268,
      "駁": 5269,
      "駅": 5270,
      "駆": 5271,
      "駕": 5272,
      "駟": 5273,
      "駱": 5274,
      "騒": 5275,
      "験": 5276,
      "騨": 5277,
      "騭": 5278,
      "驕": 5279,
      "马": 5280,
      "驱": 5281,
      "驻": 5282,
      "骂": 5283,
      "骅": 5284,
      "验": 5285,
      "骨": 5286,
      "髏": 5287,
      "髑": 5288,
      "體": 5289,
      "高": 5290,
      "鬢": 5291,
      "鬱": 5292,
      "鬼": 5293,
      "魂": 5294,
      "魏": 5295,
      "魔": 5296,
      "魚": 5297,
      "魯": 5298,
      "鮑": 5299,
      "鮮": 5300,
      "鯉": 5301,
      "鰲": 5302,
      "鱉": 5303,
      "鱓": 5304,
      "鱗": 5305,
      "鱼": 5306,
      "鲁": 5307,
      "鲜": 5308,
      "鲸": 5309,
      "鳥": 5310,
      "鳩": 5311,
      "鳳": 5312,
      "鴉": 5313,
      "鴻": 5314,
      "鵪": 5315,
      "鶏": 5316,
      "鶯": 5317,
      "鶴": 5318,
      "鷹": 5319,
      "鷺": 5320,
      "鸟": 5321,
      "鸡": 5322,
      "鸣": 5323,
      "鸿": 5324,
      "鹏": 5325,
      "鹰": 5326,
      "鹿": 5327,
      "麓": 5328,
      "麗": 5329,
      "麞": 5330,
      "麟": 5331,
      "麩": 5332,
      "麴": 5333,
      "麻": 5334,
      "麾": 5335,
      "黃": 5336,
      "黄": 5337,
      "黎": 5338,
      "黏": 5339,
      "黑": 5340,
      "黒": 5341,
      "默": 5342,
      "黨": 5343,
      "黹": 5344,
      "鼎": 5345,
      "鼓": 5346,
      "鼠": 5347,
      "鼻": 5348,
      "齊": 5349,
      "齐": 5350,
      "齡": 5351,
      "龍": 5352,
      "龖": 5353,
      "龘": 5354,
      "龙": 5355,
      "龜": 5356,
      "龟": 5357,
      "ꙁ": 5358,
      "ꙋ": 5359,
      "ꙑ": 5360,
      "ꙗ": 5361,
      "꙯": 5362,
      "ꙿ": 5363,
      "ꜭ": 5364,
      "ꜯ": 5365,
      "ꜳ": 5366,
      "ꝗ": 5367,
      "ꞇ": 5368,
      "ꞌ": 5369,
      "ꞩ": 5370,
      "가": 5371,
      "간": 5372,
      "갈": 5373,
      "감": 5374,
      "강": 5375,
      "개": 5376,
      "거": 5377,
      "걸": 5378,
      "검": 5379,
      "게": 5380,
      "겐": 5381,
      "견": 5382,
      "결": 5383,
      "경": 5384,
      "계": 5385,
      "고": 5386,
      "곡": 5387,
      "공": 5388,
      "과": 5389,
      "관": 5390,
      "광": 5391,
      "교": 5392,
      "구": 5393,
      "국": 5394,
      "군": 5395,
      "권": 5396,
      "규": 5397,
      "균": 5398,
      "그": 5399,
      "극": 5400,
      "근": 5401,
      "금": 5402,
      "기": 5403,
      "길": 5404,
      "김": 5405,
      "깃": 5406,
      "까": 5407,
      "깨": 5408,
      "끌": 5409,
      "나": 5410,
      "낙": 5411,
      "난": 5412,
      "날": 5413,
      "남": 5414,
      "납": 5415,
      "내": 5416,
      "너": 5417,
      "넌": 5418,
      "널": 5419,
      "녀": 5420,
      "노": 5421,
      "놀": 5422,
      "놈": 5423,
      "눈": 5424,
      "눌": 5425,
      "는": 5426,
      "늘": 5427,
      "능": 5428,
      "니": 5429,
      "님": 5430,
      "다": 5431,
      "단": 5432,
      "달": 5433,
      "닮": 5434,
      "담": 5435,
      "당": 5436,
      "대": 5437,
      "댄": 5438,
      "더": 5439,
      "덕": 5440,
      "덤": 5441,
      "데": 5442,
      "뎅": 5443,
      "도": 5444,
      "돌": 5445,
      "동": 5446,
      "돯": 5447,
      "두": 5448,
      "드": 5449,
      "듭": 5450,
      "등": 5451,
      "디": 5452,
      "때": 5453,
      "또": 5454,
      "뜻": 5455,
      "띠": 5456,
      "라": 5457,
      "락": 5458,
      "란": 5459,
      "람": 5460,
      "랑": 5461,
      "래": 5462,
      "량": 5463,
      "러": 5464,
      "럼": 5465,
      "레": 5466,
      "렌": 5467,
      "려": 5468,
      "력": 5469,
      "령": 5470,
      "례": 5471,
      "로": 5472,
      "록": 5473,
      "룡": 5474,
      "루": 5475,
      "르": 5476,
      "륵": 5477,
      "른": 5478,
      "를": 5479,
      "름": 5480,
      "리": 5481,
      "린": 5482,
      "림": 5483,
      "립": 5484,
      "릿": 5485,
      "마": 5486,
      "막": 5487,
      "만": 5488,
      "말": 5489,
      "망": 5490,
      "매": 5491,
      "맥": 5492,
      "머": 5493,
      "메": 5494,
      "멤": 5495,
      "면": 5496,
      "명": 5497,
      "모": 5498,
      "몰": 5499,
      "몸": 5500,
      "몽": 5501,
      "무": 5502,
      "문": 5503,
      "물": 5504,
      "뮤": 5505,
      "믈": 5506,
      "미": 5507,
      "민": 5508,
      "믿": 5509,
      "밀": 5510,
      "밑": 5511,
      "바": 5512,
      "박": 5513,
      "반": 5514,
      "받": 5515,
      "발": 5516,
      "밤": 5517,
      "밥": 5518,
      "방": 5519,
      "배": 5520,
      "백": 5521,
      "버": 5522,
      "번": 5523,
      "벌": 5524,
      "범": 5525,
      "법": 5526,
      "벽": 5527,
      "변": 5528,
      "별": 5529,
      "병": 5530,
      "보": 5531,
      "복": 5532,
      "본": 5533,
      "볼": 5534,
      "봉": 5535,
      "봐": 5536,
      "뵈": 5537,
      "부": 5538,
      "북": 5539,
      "분": 5540,
      "불": 5541,
      "붕": 5542,
      "뷰": 5543,
      "브": 5544,
      "비": 5545,
      "빈": 5546,
      "빔": 5547,
      "빨": 5548,
      "쁜": 5549,
      "삥": 5550,
      "사": 5551,
      "산": 5552,
      "삼": 5553,
      "상": 5554,
      "색": 5555,
      "생": 5556,
      "샤": 5557,
      "서": 5558,
      "석": 5559,
      "선": 5560,
      "설": 5561,
      "성": 5562,
      "섶": 5563,
      "세": 5564,
      "섹": 5565,
      "셔": 5566,
      "소": 5567,
      "속": 5568,
      "손": 5569,
      "솔": 5570,
      "송": 5571,
      "쇼": 5572,
      "수": 5573,
      "숙": 5574,
      "순": 5575,
      "술": 5576,
      "숭": 5577,
      "쉽": 5578,
      "스": 5579,
      "슬": 5580,
      "승": 5581,
      "시": 5582,
      "신": 5583,
      "실": 5584,
      "심": 5585,
      "싶": 5586,
      "싸": 5587,
      "쌍": 5588,
      "아": 5589,
      "악": 5590,
      "안": 5591,
      "알": 5592,
      "았": 5593,
      "애": 5594,
      "앨": 5595,
      "야": 5596,
      "양": 5597,
      "어": 5598,
      "억": 5599,
      "언": 5600,
      "엄": 5601,
      "업": 5602,
      "에": 5603,
      "엔": 5604,
      "엘": 5605,
      "엠": 5606,
      "여": 5607,
      "역": 5608,
      "연": 5609,
      "열": 5610,
      "영": 5611,
      "예": 5612,
      "오": 5613,
      "올": 5614,
      "옷": 5615,
      "옹": 5616,
      "와": 5617,
      "왕": 5618,
      "왜": 5619,
      "요": 5620,
      "용": 5621,
      "우": 5622,
      "욱": 5623,
      "운": 5624,
      "울": 5625,
      "웅": 5626,
      "원": 5627,
      "월": 5628,
      "웨": 5629,
      "위": 5630,
      "유": 5631,
      "육": 5632,
      "윤": 5633,
      "율": 5634,
      "으": 5635,
      "은": 5636,
      "을": 5637,
      "음": 5638,
      "읍": 5639,
      "의": 5640,
      "이": 5641,
      "인": 5642,
      "일": 5643,
      "임": 5644,
      "입": 5645,
      "자": 5646,
      "작": 5647,
      "잖": 5648,
      "잠": 5649,
      "잡": 5650,
      "장": 5651,
      "쟁": 5652,
      "쟝": 5653,
      "저": 5654,
      "적": 5655,
      "전": 5656,
      "정": 5657,
      "제": 5658,
      "조": 5659,
      "족": 5660,
      "종": 5661,
      "좋": 5662,
      "좌": 5663,
      "주": 5664,
      "준": 5665,
      "중": 5666,
      "줘": 5667,
      "즈": 5668,
      "증": 5669,
      "지": 5670,
      "직": 5671,
      "진": 5672,
      "집": 5673,
      "짓": 5674,
      "짜": 5675,
      "차": 5676,
      "참": 5677,
      "창": 5678,
      "찾": 5679,
      "채": 5680,
      "처": 5681,
      "천": 5682,
      "철": 5683,
      "첨": 5684,
      "첫": 5685,
      "청": 5686,
      "쳐": 5687,
      "최": 5688,
      "추": 5689,
      "축": 5690,
      "출": 5691,
      "취": 5692,
      "치": 5693,
      "친": 5694,
      "칠": 5695,
      "카": 5696,
      "커": 5697,
      "컵": 5698,
      "코": 5699,
      "쿠": 5700,
      "쿤": 5701,
      "쿨": 5702,
      "퀸": 5703,
      "큐": 5704,
      "크": 5705,
      "키": 5706,
      "타": 5707,
      "탈": 5708,
      "탕": 5709,
      "태": 5710,
      "터": 5711,
      "테": 5712,
      "토": 5713,
      "통": 5714,
      "투": 5715,
      "튜": 5716,
      "트": 5717,
      "특": 5718,
      "틈": 5719,
      "팅": 5720,
      "파": 5721,
      "편": 5722,
      "평": 5723,
      "폰": 5724,
      "폴": 5725,
      "표": 5726,
      "품": 5727,
      "퓨": 5728,
      "프": 5729,
      "픈": 5730,
      "피": 5731,
      "픽": 5732,
      "하": 5733,
      "학": 5734,
      "한": 5735,
      "할": 5736,
      "함": 5737,
      "항": 5738,
      "해": 5739,
      "핸": 5740,
      "했": 5741,
      "행": 5742,
      "허": 5743,
      "헌": 5744,
      "험": 5745,
      "혀": 5746,
      "혁": 5747,
      "현": 5748,
      "혜": 5749,
      "호": 5750,
      "혼": 5751,
      "홀": 5752,
      "홍": 5753,
      "화": 5754,
      "환": 5755,
      "황": 5756,
      "회": 5757,
      "효": 5758,
      "후": 5759,
      "훈": 5760,
      "휘": 5761,
      "휴": 5762,
      "흐": 5763,
      "흔": 5764,
      "흘": 5765,
      "흥": 5766,
      "희": 5767,
      "히": 5768,
      "": 5769,
      "": 5770,
      "": 5771,
      "": 5772,
      "": 5773,
      "": 5774,
      "": 5775,
      "": 5776,
      "": 5777,
      "": 5778,
      "": 5779,
      "": 5780,
      "": 5781,
      "": 5782,
      "": 5783,
      "": 5784,
      "": 5785,
      "": 5786,
      "": 5787,
      "": 5788,
      "": 5789,
      "": 5790,
      "": 5791,
      "": 5792,
      "": 5793,
      "": 5794,
      "": 5795,
      "": 5796,
      "": 5797,
      "": 5798,
      "": 5799,
      "": 5800,
      "": 5801,
      "": 5802,
      "": 5803,
      "": 5804,
      "": 5805,
      "": 5806,
      "": 5807,
      "": 5808,
      "": 5809,
      "": 5810,
      "": 5811,
      "": 5812,
      "": 5813,
      "": 5814,
      "": 5815,
      "": 5816,
      "": 5817,
      "": 5818,
      "": 5819,
      "": 5820,
      "": 5821,
      "": 5822,
      "": 5823,
      "": 5824,
      "": 5825,
      "": 5826,
      "": 5827,
      "": 5828,
      "": 5829,
      "": 5830,
      "": 5831,
      "": 5832,
      "": 5833,
      "": 5834,
      "": 5835,
      "": 5836,
      "": 5837,
      "": 5838,
      "": 5839,
      "": 5840,
      "": 5841,
      "": 5842,
      "": 5843,
      "": 5844,
      "": 5845,
      "": 5846,
      "": 5847,
      "": 5848,
      "": 5849,
      "": 5850,
      "": 5851,
      "": 5852,
      "": 5853,
      "": 5854,
      "": 5855,
      "": 5856,
      "": 5857,
      "": 5858,
      "": 5859,
      "": 5860,
      "": 5861,
      "": 5862,
      "": 5863,
      "": 5864,
      "": 5865,
      "": 5866,
      "": 5867,
      "": 5868,
      "": 5869,
      "": 5870,
      "": 5871,
      "": 5872,
      "": 5873,
      "": 5874,
      "": 5875,
      "": 5876,
      "": 5877,
      "": 5878,
      "": 5879,
      "": 5880,
      "": 5881,
      "": 5882,
      "": 5883,
      "": 5884,
      "": 5885,
      "": 5886,
      "": 5887,
      "": 5888,
      "": 5889,
      "": 5890,
      "": 5891,
      "": 5892,
      "": 5893,
      "": 5894,
      "": 5895,
      "": 5896,
      "": 5897,
      "": 5898,
      "": 5899,
      "": 5900,
      "": 5901,
      "": 5902,
      "": 5903,
      "": 5904,
      "": 5905,
      "": 5906,
      "": 5907,
      "": 5908,
      "": 5909,
      "": 5910,
      "": 5911,
      "": 5912,
      "": 5913,
      "": 5914,
      "": 5915,
      "": 5916,
      "": 5917,
      "": 5918,
      "": 5919,
      "": 5920,
      "": 5921,
      "": 5922,
      "": 5923,
      "": 5924,
      "": 5925,
      "": 5926,
      "": 5927,
      "": 5928,
      "": 5929,
      "": 5930,
      "": 5931,
      "": 5932,
      "": 5933,
      "": 5934,
      "": 5935,
      "": 5936,
      "ﬀ": 5937,
      "ﬁ": 5938,
      "ﬂ": 5939,
      "ﬃ": 5940,
      "ﬄ": 5941,
      "שׁ": 5942,
      "אַ": 5943,
      "אָ": 5944,
      "בּ": 5945,
      "דּ": 5946,
      "וּ": 5947,
      "כּ": 5948,
      "לּ": 5949,
      "פּ": 5950,
      "תּ": 5951,
      "וֹ": 5952,
      "ﭏ": 5953,
      "ﮐ": 5954,
      "ﮫ": 5955,
      "ﮭ": 5956,
      "ﯨ": 5957,
      "ﯩ": 5958,
      "ﯾ": 5959,
      "ﯿ": 5960,
      "ﰲ": 5961,
      "ﱂ": 5962,
      "ﱃ": 5963,
      "ﱒ": 5964,
      "ﱘ": 5965,
      "ﲆ": 5966,
      "ﲑ": 5967,
      "ﲔ": 5968,
      "ﲟ": 5969,
      "ﲢ": 5970,
      "ﲬ": 5971,
      "ﲱ": 5972,
      "ﳊ": 5973,
      "ﳌ": 5974,
      "ﳝ": 5975,
      "ﳤ": 5976,
      "ﳯ": 5977,
      "ﳰ": 5978,
      "ﳾ": 5979,
      "ﴪ": 5980,
      "ﷲ": 5981,
      "ﷺ": 5982,
      "︀": 5983,
      "︁": 5984,
      "︂": 5985,
      "︃": 5986,
      "︎": 5987,
      "️": 5988,
      "︠": 5989,
      "︡": 5990,
      "ﺄ": 5991,
      "ﺌ": 5992,
      "ﺎ": 5993,
      "ﺐ": 5994,
      "ﺑ": 5995,
      "ﺒ": 5996,
      "ﺔ": 5997,
      "ﺖ": 5998,
      "ﺗ": 5999,
      "ﺘ": 6000,
      "ﺛ": 6001,
      "ﺜ": 6002,
      "ﺞ": 6003,
      "ﺟ": 6004,
      "ﺠ": 6005,
      "ﺢ": 6006,
      "ﺣ": 6007,
      "ﺤ": 6008,
      "ﺧ": 6009,
      "ﺨ": 6010,
      "ﺪ": 6011,
      "ﺬ": 6012,
      "ﺮ": 6013,
      "ﺰ": 6014,
      "ﺲ": 6015,
      "ﺳ": 6016,
      "ﺴ": 6017,
      "ﺷ": 6018,
      "ﺸ": 6019,
      "ﺻ": 6020,
      "ﺼ": 6021,
      "ﺿ": 6022,
      "ﻀ": 6023,
      "ﻂ": 6024,
      "ﻄ": 6025,
      "ﻋ": 6026,
      "ﻌ": 6027,
      "ﻏ": 6028,
      "ﻐ": 6029,
      "ﻒ": 6030,
      "ﻓ": 6031,
      "ﻔ": 6032,
      "ﻕ": 6033,
      "ﻖ": 6034,
      "ﻗ": 6035,
      "ﻘ": 6036,
      "ﻚ": 6037,
      "ﻛ": 6038,
      "ﻜ": 6039,
      "ﻞ": 6040,
      "ﻟ": 6041,
      "ﻠ": 6042,
      "ﻢ": 6043,
      "ﻣ": 6044,
      "ﻤ": 6045,
      "ﻥ": 6046,
      "ﻦ": 6047,
      "ﻧ": 6048,
      "ﻨ": 6049,
      "ﻫ": 6050,
      "ﻬ": 6051,
      "ﻮ": 6052,
      "ﻰ": 6053,
      "ﻲ": 6054,
      "ﻵ": 6055,
      "ﻶ": 6056,
      "ﻷ": 6057,
      "ﻹ": 6058,
      "ﻻ": 6059,
      "ﻼ": 6060,
      "﻿": 6061,
      "！": 6062,
      "＆": 6063,
      "（": 6064,
      "）": 6065,
      "＋": 6066,
      "，": 6067,
      "－": 6068,
      "．": 6069,
      "／": 6070,
      "０": 6071,
      "１": 6072,
      "３": 6073,
      "６": 6074,
      "８": 6075,
      "９": 6076,
      "：": 6077,
      "；": 6078,
      "＜": 6079,
      "＝": 6080,
      "＞": 6081,
      "？": 6082,
      "ａ": 6083,
      "ｄ": 6084,
      "ｅ": 6085,
      "ｆ": 6086,
      "ｈ": 6087,
      "ｍ": 6088,
      "ｎ": 6089,
      "ｏ": 6090,
      "ｐ": 6091,
      "ｓ": 6092,
      "ｔ": 6093,
      "ｕ": 6094,
      "ｚ": 6095,
      "｜": 6096,
      "～": 6097,
      "･": 6098,
      "￼": 6099,
      "�": 6100,
      "￿": 6101,
      "𐀂": 6102,
      "𐀏": 6103,
      "𐀘": 6104,
      "𐀙": 6105,
      "𐌚": 6106,
      "𐎠": 6107,
      "𐎡": 6108,
      "𐎹": 6109,
      "𐎼": 6110,
      "𐓘": 6111,
      "𐠀": 6112,
      "𐠁": 6113,
      "𐠂": 6114,
      "𐠃": 6115,
      "𐠄": 6116,
      "𐠅": 6117,
      "𐠊": 6118,
      "𐠋": 6119,
      "𐠌": 6120,
      "𐠍": 6121,
      "𐠎": 6122,
      "𐠐": 6123,
      "𐠑": 6124,
      "𐠒": 6125,
      "𐠔": 6126,
      "𐠕": 6127,
      "𐠖": 6128,
      "𐠚": 6129,
      "𐠛": 6130,
      "𐠜": 6131,
      "𐠞": 6132,
      "𐠡": 6133,
      "𐠣": 6134,
      "𐠥": 6135,
      "𐠦": 6136,
      "𐠨": 6137,
      "𐠩": 6138,
      "𐠪": 6139,
      "𐠭": 6140,
      "𐠮": 6141,
      "𐠯": 6142,
      "𐠰": 6143,
      "𐠱": 6144,
      "𐠲": 6145,
      "𐡄": 6146,
      "𐤂": 6147,
      "𐤄": 6148,
      "𐤌": 6149,
      "𐤍": 6150,
      "𐭣": 6151,
      "𐭪": 6152,
      "𐰀": 6153,
      "𐰂": 6154,
      "𐰄": 6155,
      "𐰅": 6156,
      "𐰆": 6157,
      "𐰈": 6158,
      "𐰉": 6159,
      "𐰋": 6160,
      "𐰏": 6161,
      "𐰚": 6162,
      "𐰠": 6163,
      "𐰣": 6164,
      "𐰤": 6165,
      "𐰱": 6166,
      "𐰲": 6167,
      "𐰴": 6168,
      "𐰺": 6169,
      "𐰼": 6170,
      "𐰽": 6171,
      "𐰾": 6172,
      "𐱁": 6173,
      "𑀓": 6174,
      "𑘎": 6175,
      "𒀭": 6176,
      "𒄖": 6177,
      "𒆷": 6178,
      "𒇽": 6179,
      "𛀁": 6180,
      "𝐂": 6181,
      "𝐄": 6182,
      "𝐅": 6183,
      "𝐇": 6184,
      "𝐈": 6185,
      "𝐍": 6186,
      "𝐎": 6187,
      "𝐏": 6188,
      "𝐑": 6189,
      "𝐒": 6190,
      "𝐓": 6191,
      "𝐞": 6192,
      "𝐡": 6193,
      "𝐢": 6194,
      "𝐣": 6195,
      "𝐦": 6196,
      "𝐧": 6197,
      "𝐬": 6198,
      "𝐴": 6199,
      "𝐵": 6200,
      "𝐶": 6201,
      "𝐷": 6202,
      "𝐸": 6203,
      "𝐹": 6204,
      "𝐺": 6205,
      "𝐻": 6206,
      "𝐼": 6207,
      "𝐽": 6208,
      "𝐾": 6209,
      "𝐿": 6210,
      "𝑀": 6211,
      "𝑁": 6212,
      "𝑂": 6213,
      "𝑃": 6214,
      "𝑄": 6215,
      "𝑅": 6216,
      "𝑆": 6217,
      "𝑇": 6218,
      "𝑈": 6219,
      "𝑉": 6220,
      "𝑊": 6221,
      "𝑋": 6222,
      "𝑌": 6223,
      "𝑍": 6224,
      "𝑎": 6225,
      "𝑏": 6226,
      "𝑐": 6227,
      "𝑑": 6228,
      "𝑒": 6229,
      "𝑓": 6230,
      "𝑔": 6231,
      "𝑖": 6232,
      "𝑗": 6233,
      "𝑘": 6234,
      "𝑙": 6235,
      "𝑚": 6236,
      "𝑛": 6237,
      "𝑜": 6238,
      "𝑝": 6239,
      "𝑞": 6240,
      "𝑟": 6241,
      "𝑠": 6242,
      "𝑡": 6243,
      "𝑢": 6244,
      "𝑣": 6245,
      "𝑤": 6246,
      "𝑥": 6247,
      "𝑦": 6248,
      "𝑧": 6249,
      "𝑪": 6250,
      "𝑬": 6251,
      "𝑭": 6252,
      "𝑳": 6253,
      "𝑴": 6254,
      "𝑶": 6255,
      "𝑷": 6256,
      "𝑹": 6257,
      "𝑺": 6258,
      "𝑿": 6259,
      "𝒁": 6260,
      "𝒂": 6261,
      "𝒄": 6262,
      "𝒅": 6263,
      "𝒆": 6264,
      "𝒇": 6265,
      "𝒈": 6266,
      "𝒊": 6267,
      "𝒋": 6268,
      "𝒌": 6269,
      "𝒍": 6270,
      "𝒎": 6271,
      "𝒏": 6272,
      "𝒐": 6273,
      "𝒑": 6274,
      "𝒓": 6275,
      "𝒔": 6276,
      "𝒕": 6277,
      "𝒖": 6278,
      "𝒗": 6279,
      "𝒙": 6280,
      "𝒚": 6281,
      "𝒛": 6282,
      "𝒜": 6283,
      "𝒞": 6284,
      "𝒟": 6285,
      "𝒢": 6286,
      "𝒦": 6287,
      "𝒩": 6288,
      "𝒪": 6289,
      "𝒬": 6290,
      "𝒮": 6291,
      "𝒯": 6292,
      "𝒱": 6293,
      "𝒲": 6294,
      "𝒳": 6295,
      "𝔻": 6296,
      "𝔼": 6297,
      "𝔽": 6298,
      "𝕊": 6299,
      "𝕏": 6300,
      "𝘈": 6301,
      "𝘎": 6302,
      "𝘒": 6303,
      "𝘓": 6304,
      "𝘖": 6305,
      "𝘛": 6306,
      "𝘢": 6307,
      "𝘨": 6308,
      "𝘭": 6309,
      "𝘮": 6310,
      "𝛤": 6311,
      "𝛥": 6312,
      "𝛩": 6313,
      "𝛱": 6314,
      "𝛷": 6315,
      "𝛼": 6316,
      "𝛽": 6317,
      "𝛾": 6318,
      "𝛿": 6319,
      "𝜀": 6320,
      "𝜁": 6321,
      "𝜂": 6322,
      "𝜃": 6323,
      "𝜅": 6324,
      "𝜆": 6325,
      "𝜇": 6326,
      "𝜈": 6327,
      "𝜉": 6328,
      "𝜋": 6329,
      "𝜌": 6330,
      "𝜍": 6331,
      "𝜎": 6332,
      "𝜏": 6333,
      "𝜐": 6334,
      "𝜑": 6335,
      "𝜒": 6336,
      "𝜓": 6337,
      "𝜔": 6338,
      "𝜕": 6339,
      "𝜖": 6340,
      "𝜗": 6341,
      "𝜙": 6342,
      "𝜚": 6343,
      "𝜛": 6344,
      "𝜭": 6345,
      "𝜷": 6346,
      "𝜸": 6347,
      "𝜺": 6348,
      "𝜽": 6349,
      "𝝀": 6350,
      "𝝁": 6351,
      "𝝆": 6352,
      "𝝈": 6353,
      "𝟎": 6354,
      "𝟏": 6355,
      "𝟐": 6356,
      "𝟑": 6357,
      "𝟒": 6358,
      "🃏": 6359,
      "🇦": 6360,
      "🇪": 6361,
      "🇬": 6362,
      "🇮": 6363,
      "🇲": 6364,
      "🇷": 6365,
      "🇹": 6366,
      "🇺": 6367,
      "🇽": 6368,
      "🇿": 6369,
      "🌈": 6370,
      "🌎": 6371,
      "🌔": 6372,
      "🌟": 6373,
      "🌴": 6374,
      "🌷": 6375,
      "🌹": 6376,
      "🌿": 6377,
      "🍉": 6378,
      "🍊": 6379,
      "🍍": 6380,
      "🍑": 6381,
      "🍒": 6382,
      "🍡": 6383,
      "🍥": 6384,
      "🍬": 6385,
      "🍱": 6386,
      "🍳": 6387,
      "🎉": 6388,
      "🎥": 6389,
      "🎶": 6390,
      "🏂": 6391,
      "🏃": 6392,
      "🏄": 6393,
      "🏆": 6394,
      "🏊": 6395,
      "🏻": 6396,
      "🏼": 6397,
      "🏽": 6398,
      "🏾": 6399,
      "🏿": 6400,
      "🐇": 6401,
      "🐙": 6402,
      "🐱": 6403,
      "🐴": 6404,
      "🐶": 6405,
      "👀": 6406,
      "👇": 6407,
      "👊": 6408,
      "👌": 6409,
      "👍": 6410,
      "👏": 6411,
      "👑": 6412,
      "👗": 6413,
      "👙": 6414,
      "👨": 6415,
      "👮": 6416,
      "👴": 6417,
      "💃": 6418,
      "💋": 6419,
      "💌": 6420,
      "💎": 6421,
      "💓": 6422,
      "💕": 6423,
      "💖": 6424,
      "💗": 6425,
      "💘": 6426,
      "💙": 6427,
      "💛": 6428,
      "💜": 6429,
      "💥": 6430,
      "💦": 6431,
      "💩": 6432,
      "💪": 6433,
      "💫": 6434,
      "📍": 6435,
      "📣": 6436,
      "📷": 6437,
      "📸": 6438,
      "🔊": 6439,
      "🔝": 6440,
      "🔥": 6441,
      "🔫": 6442,
      "🔮": 6443,
      "🔻": 6444,
      "😀": 6445,
      "😁": 6446,
      "😂": 6447,
      "😃": 6448,
      "😆": 6449,
      "😉": 6450,
      "😊": 6451,
      "😌": 6452,
      "😍": 6453,
      "😎": 6454,
      "😐": 6455,
      "😒": 6456,
      "😓": 6457,
      "😘": 6458,
      "😜": 6459,
      "😡": 6460,
      "😥": 6461,
      "😱": 6462,
      "😻": 6463,
      "🙄": 6464,
      "🙅": 6465,
      "🙆": 6466,
      "🙈": 6467,
      "🙊": 6468,
      "🙌": 6469,
      "🙏": 6470,
      "🚀": 6471,
      "🛵": 6472,
      "🤣": 6473,
      "🤦": 6474,
      "🤨": 6475,
      "🤷": 6476,
      "🥈": 6477,
      "🦁": 6478,
      "🦋": 6479,
      "𩇔": 6480,
      "𪚥": 6481,
      "󾌧": 6482,
      "ст": 6483,
      "но": 6484,
      "ни": 6485,
      "на": 6486,
      "ра": 6487,
      "ко": 6488,
      "ро": 6489,
      "по": 6490,
      "то": 6491,
      "го": 6492,
      "ре": 6493,
      "ли": 6494,
      "не": 6495,
      "ка": 6496,
      "ва": 6497,
      "во": 6498,
      "ле": 6499,
      "ль": 6500,
      "ри": 6501,
      "ны": 6502,
      "те": 6503,
      "ла": 6504,
      "де": 6505,
      "ве": 6506,
      "да": 6507,
      "ло": 6508,
      "ме": 6509,
      "та": 6510,
      "за": 6511,
      "ки": 6512,
      "со": 6513,
      "че": 6514,
      "ми": 6515,
      "до": 6516,
      "ти": 6517,
      "мо": 6518,
      "ма": 6519,
      "ви": 6520,
      "ся": 6521,
      "се": 6522,
      "ть": 6523,
      "про": 6524,
      "же": 6525,
      "ди": 6526,
      "ру": 6527,
      "бо": 6528,
      "ци": 6529,
      "пе": 6530,
      "ско": 6531,
      "ста": 6532,
      "си": 6533,
      "вы": 6534,
      "об": 6535,
      "ния": 6536,
      "от": 6537,
      "ля": 6538,
      "при": 6539,
      "ча": 6540,
      "ет": 6541,
      "бы": 6542,
      "па": 6543,
      "сти": 6544,
      "из": 6545,
      "са": 6546,
      "ние": 6547,
      "сто": 6548,
      "ду": 6549,
      "чи": 6550,
      "ски": 6551,
      "ку": 6552,
      "пре": 6553,
      "хо": 6554,
      "нно": 6555,
      "ры": 6556,
      "что": 6557,
      "ну": 6558,
      "ше": 6559,
      "му": 6560,
      "сь": 6561,
      "нны": 6562,
      "га": 6563,
      "бе": 6564,
      "19": 6565,
      "ще": 6566,
      "це": 6567,
      "раз": 6568,
      "ту": 6569,
      "ги": 6570,
      "20": 6571,
      "ты": 6572,
      "лу": 6573,
      "пи": 6574,
      "льно": 6575,
      "ши": 6576,
      "ня": 6577,
      "су": 6578,
      "ба": 6579,
      "это": 6580,
      "жи": 6581,
      "сле": 6582,
      "сть": 6583,
      "ря": 6584,
      "фи": 6585,
      "щи": 6586,
      "он": 6587,
      "ной": 6588,
      "мы": 6589,
      "би": 6590,
      "ных": 6591,
      "лю": 6592,
      "пу": 6593,
      "пра": 6594,
      "гра": 6595,
      "кото": 6596,
      "вер": 6597,
      "ге": 6598,
      "под": 6599,
      "ции": 6600,
      "ор": 6601,
      "ин": 6602,
      "ска": 6603,
      "как": 6604,
      "жа": 6605,
      "года": 6606,
      "ке": 6607,
      "ской": 6608,
      "бу": 6609,
      "сте": 6610,
      "ют": 6611,
      "она": 6612,
      "кон": 6613,
      "спо": 6614,
      "стве": 6615,
      "ского": 6616,
      "тель": 6617,
      "зи": 6618,
      "ного": 6619,
      "так": 6620,
      "ные": 6621,
      "нии": 6622,
      "ву": 6623,
      "ком": 6624,
      "ется": 6625,
      "ный": 6626,
      "пере": 6627,
      "его": 6628,
      "сси": 6629,
      "лся": 6630,
      "ша": 6631,
      "ство": 6632,
      "все": 6633,
      "вле": 6634,
      "нт": 6635,
      "зна": 6636,
      "нь": 6637,
      "ха": 6638,
      "стра": 6639,
      "сво": 6640,
      "рова": 6641,
      "ров": 6642,
      "гу": 6643,
      "ды": 6644,
      "пер": 6645,
      "ский": 6646,
      "зо": 6647,
      "ная": 6648,
      "er": 6649,
      "сс": 6650,
      "пред": 6651,
      "in": 6652,
      "фе": 6653,
      "гла": 6654,
      "для": 6655,
      "ков": 6656,
      "од": 6657,
      "an": 6658,
      "зы": 6659,
      "вля": 6660,
      "кра": 6661,
      "on": 6662,
      "вой": 6663,
      "нов": 6664,
      "201": 6665,
      "которы": 6666,
      "сло": 6667,
      "ства": 6668,
      "тов": 6669,
      "воз": 6670,
      "ис": 6671,
      "тре": 6672,
      "вре": 6673,
      "ща": 6674,
      "лы": 6675,
      "ний": 6676,
      "200": 6677,
      "тив": 6678,
      "ца": 6679,
      "году": 6680,
      "рабо": 6681,
      "том": 6682,
      "тер": 6683,
      "зе": 6684,
      "мя": 6685,
      "после": 6686,
      "сту": 6687,
      "тельно": 6688,
      "нных": 6689,
      "ских": 6690,
      "росси": 6691,
      "th": 6692,
      "en": 6693,
      "тра": 6694,
      "жно": 6695,
      "был": 6696,
      "ск": 6697,
      "ться": 6698,
      "тся": 6699,
      "фор": 6700,
      "ным": 6701,
      "сно": 6702,
      "ак": 6703,
      "дол": 6704,
      "al": 6705,
      "ходи": 6706,
      "гда": 6707,
      "ющи": 6708,
      "слу": 6709,
      "нные": 6710,
      "ti": 6711,
      "кой": 6712,
      "мен": 6713,
      "es": 6714,
      "ар": 6715,
      "вя": 6716,
      "вто": 6717,
      "вет": 6718,
      "дру": 6719,
      "лько": 6720,
      "дер": 6721,
      "ан": 6722,
      "18": 6723,
      "стро": 6724,
      "or": 6725,
      "бли": 6726,
      "лась": 6727,
      "род": 6728,
      "спе": 6729,
      "зу": 6730,
      "рас": 6731,
      "ar": 6732,
      "три": 6733,
      "пол": 6734,
      "чно": 6735,
      "нной": 6736,
      "ция": 6737,
      "лей": 6738,
      "ную": 6739,
      "каза": 6740,
      "боль": 6741,
      "также": 6742,
      "лись": 6743,
      "хи": 6744,
      "ром": 6745,
      "пла": 6746,
      "ей": 6747,
      "стоя": 6748,
      "мер": 6749,
      "нный": 6750,
      "ник": 6751,
      "пы": 6752,
      "их": 6753,
      "циа": 6754,
      "нию": 6755,
      "нима": 6756,
      "лось": 6757,
      "ном": 6758,
      "стви": 6759,
      "ев": 6760,
      "вши": 6761,
      "име": 6762,
      "ская": 6763,
      "нача": 6764,
      "было": 6765,
      "тиче": 6766,
      "ней": 6767,
      "дова": 6768,
      "или": 6769,
      "нного": 6770,
      "кт": 6771,
      "ские": 6772,
      "сы": 6773,
      "сре": 6774,
      "дей": 6775,
      "рии": 6776,
      "полу": 6777,
      "ман": 6778,
      "ника": 6779,
      "гру": 6780,
      "исто": 6781,
      "бра": 6782,
      "жде": 6783,
      "чу": 6784,
      "кры": 6785,
      "нием": 6786,
      "свя": 6787,
      "10": 6788,
      "лет": 6789,
      "рь": 6790,
      "шь": 6791,
      "кто": 6792,
      "the": 6793,
      "чем": 6794,
      "соста": 6795,
      "кре": 6796,
      "st": 6797,
      "сли": 6798,
      "обще": 6799,
      "логи": 6800,
      "образ": 6801,
      "пар": 6802,
      "гово": 6803,
      "клю": 6804,
      "ются": 6805,
      "вать": 6806,
      "уча": 6807,
      "нее": 6808,
      "смо": 6809,
      "кла": 6810,
      "дар": 6811,
      "дела": 6812,
      "ству": 6813,
      "кру": 6814,
      "дя": 6815,
      "они": 6816,
      "боле": 6817,
      "199": 6818,
      "испо": 6819,
      "время": 6820,
      "дет": 6821,
      "лове": 6822,
      "бря": 6823,
      "вое": 6824,
      "ском": 6825,
      "тем": 6826,
      "re": 6827,
      "ch": 6828,
      "меж": 6829,
      "явля": 6830,
      "зда": 6831,
      "пле": 6832,
      "стре": 6833,
      "оста": 6834,
      "нк": 6835,
      "когда": 6836,
      "тру": 6837,
      "им": 6838,
      "мне": 6839,
      "меня": 6840,
      "жда": 6841,
      "поли": 6842,
      "уже": 6843,
      "фа": 6844,
      "обла": 6845,
      "только": 6846,
      "ран": 6847,
      "рай": 6848,
      "дом": 6849,
      "ное": 6850,
      "ем": 6851,
      "дь": 6852,
      "сла": 6853,
      "были": 6854,
      "нта": 6855,
      "зыва": 6856,
      "вз": 6857,
      "мар": 6858,
      "того": 6859,
      "объ": 6860,
      "кар": 6861,
      "челове": 6862,
      "цио": 6863,
      "нд": 6864,
      "была": 6865,
      "дов": 6866,
      "вра": 6867,
      "00": 6868,
      "вых": 6869,
      "вла": 6870,
      "is": 6871,
      "ниче": 6872,
      "этом": 6873,
      "жет": 6874,
      "веде": 6875,
      "меча": 6876,
      "бя": 6877,
      "ложе": 6878,
      "вые": 6879,
      "сов": 6880,
      "голо": 6881,
      "рой": 6882,
      "произ": 6883,
      "предста": 6884,
      "писа": 6885,
      "мини": 6886,
      "само": 6887,
      "нным": 6888,
      "между": 6889,
      "ro": 6890,
      "можно": 6891,
      "at": 6892,
      "вал": 6893,
      "ности": 6894,
      "дин": 6895,
      "вод": 6896,
      "цы": 6897,
      "кан": 6898,
      "вая": 6899,
      "орга": 6900,
      "прави": 6901,
      "деле": 6902,
      "аль": 6903,
      "авто": 6904,
      "ic": 6905,
      "более": 6906,
      "следова": 6907,
      "сооб": 6908,
      "тур": 6909,
      "вания": 6910,
      "17": 6911,
      "15": 6912,
      "селе": 6913,
      "рия": 6914,
      "жу": 6915,
      "of": 6916,
      "год": 6917,
      "le": 6918,
      "ники": 6919,
      "нако": 6920,
      "сер": 6921,
      "которые": 6922,
      "ными": 6923,
      "россии": 6924,
      "россий": 6925,
      "лек": 6926,
      "нет": 6927,
      "рт": 6928,
      "пло": 6929,
      "проце": 6930,
      "чере": 6931,
      "вый": 6932,
      "12": 6933,
      "эк": 6934,
      "льной": 6935,
      "тро": 6936,
      "фо": 6937,
      "лли": 6938,
      "яви": 6939,
      "юще": 6940,
      "ску": 6941,
      "тор": 6942,
      "ность": 6943,
      "фу": 6944,
      "стру": 6945,
      "време": 6946,
      "где": 6947,
      "образо": 6948,
      "цию": 6949,
      "цент": 6950,
      "жен": 6951,
      "шо": 6952,
      "виде": 6953,
      "над": 6954,
      "работа": 6955,
      "it": 6956,
      "лё": 6957,
      "tion": 6958,
      "теле": 6959,
      "горо": 6960,
      "тия": 6961,
      "соб": 6962,
      "иг": 6963,
      "кро": 6964,
      "графи": 6965,
      "может": 6966,
      "них": 6967,
      "льного": 6968,
      "ников": 6969,
      "бор": 6970,
      "него": 6971,
      "ol": 6972,
      "таки": 6973,
      "ственно": 6974,
      "вели": 6975,
      "and": 6976,
      "форма": 6977,
      "16": 6978,
      "госу": 6979,
      "поз": 6980,
      "кри": 6981,
      "сказа": 6982,
      "сред": 6983,
      "вно": 6984,
      "нали": 6985,
      "который": 6986,
      "отно": 6987,
      "эти": 6988,
      "хра": 6989,
      "тя": 6990,
      "сты": 6991,
      "правле": 6992,
      "обра": 6993,
      "води": 6994,
      "телей": 6995,
      "государ": 6996,
      "сторо": 6997,
      "груп": 6998,
      "теля": 6999,
      "el": 7000,
      "ября": 7001,
      "публи": 7002,
      "ян": 7003,
      "вого": 7004,
      "ское": 7005,
      "обо": 7006,
      "14": 7007,
      "198": 7008,
      "исполь": 7009,
      "чё": 7010,
      "as": 7011,
      "вали": 7012,
      "194": 7013,
      "тери": 7014,
      "ек": 7015,
      "чер": 7016,
      "чтобы": 7017,
      "право": 7018,
      "пера": 7019,
      "вание": 7020,
      "вс": 7021,
      "льта": 7022,
      "13": 7023,
      "ed": 7024,
      "нау": 7025,
      "тели": 7026,
      "бле": 7027,
      "нем": 7028,
      "нения": 7029,
      "компа": 7030,
      "если": 7031,
      "коно": 7032,
      "лки": 7033,
      "без": 7034,
      "ос": 7035,
      "тех": 7036,
      "уче": 7037,
      "ответ": 7038,
      "бер": 7039,
      "лов": 7040,
      "други": 7041,
      "льных": 7042,
      "систе": 7043,
      "ссы": 7044,
      "кор": 7045,
      "жиз": 7046,
      "ху": 7047,
      "нка": 7048,
      "спи": 7049,
      "ним": 7050,
      "тера": 7051,
      "цу": 7052,
      "us": 7053,
      "шу": 7054,
      "органи": 7055,
      "однако": 7056,
      "действи": 7057,
      "коман": 7058,
      "ii": 7059,
      "стано": 7060,
      "ден": 7061,
      "льный": 7062,
      "держа": 7063,
      "кого": 7064,
      "получи": 7065,
      "чь": 7066,
      "ing": 7067,
      "ему": 7068,
      "вест": 7069,
      "ию": 7070,
      "будет": 7071,
      "пя": 7072,
      "созда": 7073,
      "еди": 7074,
      "ur": 7075,
      "ским": 7076,
      "сей": 7077,
      "вич": 7078,
      "сообща": 7079,
      "мента": 7080,
      "суще": 7081,
      "послед": 7082,
      "примеча": 7083,
      "укра": 7084,
      "мой": 7085,
      "вне": 7086,
      "является": 7087,
      "коло": 7088,
      "циона": 7089,
      "стан": 7090,
      "исследова": 7091,
      "om": 7092,
      "ций": 7093,
      "чита": 7094,
      "бой": 7095,
      "ван": 7096,
      "ад": 7097,
      "бри": 7098,
      "рус": 7099,
      "обе": 7100,
      "резу": 7101,
      "un": 7102,
      "её": 7103,
      "рак": 7104,
      "рен": 7105,
      "слова": 7106,
      "вает": 7107,
      "ках": 7108,
      "am": 7109,
      "ее": 7110,
      "этого": 7111,
      "результа": 7112,
      "197": 7113,
      "дви": 7114,
      "ac": 7115,
      "твер": 7116,
      "лен": 7117,
      "осно": 7118,
      "там": 7119,
      "области": 7120,
      "куль": 7121,
      "шения": 7122,
      "подо": 7123,
      "филь": 7124,
      "помо": 7125,
      "дея": 7126,
      "бро": 7127,
      "цо": 7128,
      "de": 7129,
      "неско": 7130,
      "гля": 7131,
      "мест": 7132,
      "которо": 7133,
      "верси": 7134,
      "нер": 7135,
      "ent": 7136,
      "примечания": 7137,
      "лия": 7138,
      "труд": 7139,
      "мь": 7140,
      "22": 7141,
      "реги": 7142,
      "лом": 7143,
      "вопро": 7144,
      "нул": 7145,
      "196": 7146,
      "пор": 7147,
      "тно": 7148,
      "просто": 7149,
      "наз": 7150,
      "et": 7151,
      "поль": 7152,
      "мери": 7153,
      "струк": 7154,
      "еще": 7155,
      "откры": 7156,
      "жения": 7157,
      "город": 7158,
      "30": 7159,
      "сша": 7160,
      "совет": 7161,
      "гре": 7162,
      "сса": 7163,
      "быть": 7164,
      "вше": 7165,
      "рая": 7166,
      "гер": 7167,
      "тура": 7168,
      "сме": 7169,
      "точ": 7170,
      "доро": 7171,
      "сни": 7172,
      "народ": 7173,
      "дра": 7174,
      "мина": 7175,
      "11": 7176,
      "даже": 7177,
      "стал": 7178,
      "зова": 7179,
      "кли": 7180,
      "согла": 7181,
      "зации": 7182,
      "ав": 7183,
      "уни": 7184,
      "il": 7185,
      "ющих": 7186,
      "инте": 7187,
      "два": 7188,
      "нная": 7189,
      "ал": 7190,
      "миче": 7191,
      "офи": 7192,
      "населе": 7193,
      "извест": 7194,
      "дера": 7195,
      "прези": 7196,
      "игра": 7197,
      "через": 7198,
      "дж": 7199,
      "говори": 7200,
      "вым": 7201,
      "льные": 7202,
      "поло": 7203,
      "дели": 7204,
      "человек": 7205,
      "тил": 7206,
      "тво": 7207,
      "ход": 7208,
      "мет": 7209,
      "тан": 7210,
      "фран": 7211,
      "нару": 7212,
      "буду": 7213,
      "день": 7214,
      "25": 7215,
      "ation": 7216,
      "евро": 7217,
      "лич": 7218,
      "ств": 7219,
      "нное": 7220,
      "шение": 7221,
      "амери": 7222,
      "коро": 7223,
      "той": 7224,
      "рей": 7225,
      "алек": 7226,
      "осо": 7227,
      "значе": 7228,
      "дере": 7229,
      "ссо": 7230,
      "приня": 7231,
      "много": 7232,
      "разви": 7233,
      "возможно": 7234,
      "вар": 7235,
      "реа": 7236,
      "случа": 7237,
      "нг": 7238,
      "против": 7239,
      "ходя": 7240,
      "состоя": 7241,
      "шко": 7242,
      "высо": 7243,
      "емы": 7244,
      "место": 7245,
      "чемпи": 7246,
      "которых": 7247,
      "информа": 7248,
      "ью": 7249,
      "стью": 7250,
      "честве": 7251,
      "язы": 7252,
      "доста": 7253,
      "себя": 7254,
      "этот": 7255,
      "ново": 7256,
      "рий": 7257,
      "кий": 7258,
      "рес": 7259,
      "пока": 7260,
      "моск": 7261,
      "ками": 7262,
      "работ": 7263,
      "щё": 7264,
      "лага": 7265,
      "ющие": 7266,
      "фина": 7267,
      "тек": 7268,
      "оче": 7269,
      "милли": 7270,
      "скую": 7271,
      "один": 7272,
      "больше": 7273,
      "195": 7274,
      "нера": 7275,
      "опре": 7276,
      "ях": 7277,
      "мно": 7278,
      "част": 7279,
      "глав": 7280,
      "явле": 7281,
      "мат": 7282,
      "ходит": 7283,
      "запа": 7284,
      "вот": 7285,
      "мира": 7286,
      "числе": 7287,
      "вета": 7288,
      "представи": 7289,
      "ких": 7290,
      "пря": 7291,
      "фак": 7292,
      "сель": 7293,
      "ститу": 7294,
      "есть": 7295,
      "хот": 7296,
      "рито": 7297,
      "мая": 7298,
      "мир": 7299,
      "эта": 7300,
      "интер": 7301,
      "ig": 7302,
      "глаза": 7303,
      "дже": 7304,
      "заме": 7305,
      "усло": 7306,
      "мент": 7307,
      "мии": 7308,
      "дву": 7309,
      "ющий": 7310,
      "уда": 7311,
      "сай": 7312,
      "распо": 7313,
      "месте": 7314,
      "логиче": 7315,
      "тен": 7316,
      "луч": 7317,
      "нности": 7318,
      "кол": 7319,
      "следу": 7320,
      "бур": 7321,
      "бре": 7322,
      "ключе": 7323,
      "эконо": 7324,
      "находи": 7325,
      "пози": 7326,
      "зя": 7327,
      "могу": 7328,
      "сам": 7329,
      "сотруд": 7330,
      "пыта": 7331,
      "эле": 7332,
      "бла": 7333,
      "роди": 7334,
      "гли": 7335,
      "всё": 7336,
      "расс": 7337,
      "основ": 7338,
      "пара": 7339,
      "пери": 7340,
      "зем": 7341,
      "государстве": 7342,
      "значи": 7343,
      "23": 7344,
      "террито": 7345,
      "вос": 7346,
      "восто": 7347,
      "побе": 7348,
      "дли": 7349,
      "туры": 7350,
      "опера": 7351,
      "био": 7352,
      "коми": 7353,
      "продол": 7354,
      "шел": 7355,
      "to": 7356,
      "сков": 7357,
      "национа": 7358,
      "21": 7359,
      "ёл": 7360,
      "24": 7361,
      "ср": 7362,
      "грам": 7363,
      "дума": 7364,
      "встре": 7365,
      "хоро": 7366,
      "позво": 7367,
      "министра": 7368,
      "цев": 7369,
      "хе": 7370,
      "каж": 7371,
      "сообщает": 7372,
      "кие": 7373,
      "тин": 7374,
      "стер": 7375,
      "города": 7376,
      "шта": 7377,
      "несколько": 7378,
      "высту": 7379,
      "изме": 7380,
      "тран": 7381,
      "заяви": 7382,
      "прав": 7383,
      "риа": 7384,
      "шка": 7385,
      "ряд": 7386,
      "конце": 7387,
      "федера": 7388,
      "кси": 7389,
      "ra": 7390,
      "жение": 7391,
      "став": 7392,
      "спа": 7393,
      "вший": 7394,
      "прия": 7395,
      "час": 7396,
      "оне": 7397,
      "очень": 7398,
      "счита": 7399,
      "стей": 7400,
      "нами": 7401,
      "ством": 7402,
      "участ": 7403,
      "тебя": 7404,
      "литера": 7405,
      "руко": 7406,
      "ёр": 7407,
      "части": 7408,
      "поч": 7409,
      "вну": 7410,
      "чет": 7411,
      "ключа": 7412,
      "социа": 7413,
      "защи": 7414,
      "окру": 7415,
      "ссылки": 7416,
      "193": 7417,
      "американ": 7418,
      "ору": 7419,
      "чной": 7420,
      "центра": 7421,
      "пример": 7422,
      "хва": 7423,
      "кое": 7424,
      "тий": 7425,
      "даль": 7426,
      "всего": 7427,
      "сдела": 7428,
      "свобо": 7429,
      "тирова": 7430,
      "одно": 7431,
      "дель": 7432,
      "изда": 7433,
      "нтов": 7434,
      "ri": 7435,
      "туа": 7436,
      "кая": 7437,
      "стои": 7438,
      "выпу": 7439,
      "стов": 7440,
      "около": 7441,
      "бира": 7442,
      "строи": 7443,
      "di": 7444,
      "президе": 7445,
      "которая": 7446,
      "вляет": 7447,
      "харак": 7448,
      "нулся": 7449,
      "чув": 7450,
      "вается": 7451,
      "ter": 7452,
      "кова": 7453,
      "ждения": 7454,
      "лан": 7455,
      "ec": 7456,
      "тельства": 7457,
      "гражда": 7458,
      "призна": 7459,
      "тии": 7460,
      "рам": 7461,
      "нными": 7462,
      "нского": 7463,
      "вид": 7464,
      "учи": 7465,
      "дё": 7466,
      "щая": 7467,
      "специа": 7468,
      "si": 7469,
      "деву": 7470,
      "показа": 7471,
      "необ": 7472,
      "пода": 7473,
      "истори": 7474,
      "нор": 7475,
      "зави": 7476,
      "своей": 7477,
      "рье": 7478,
      "смотре": 7479,
      "щу": 7480,
      "муж": 7481,
      "лишь": 7482,
      "тыся": 7483,
      "нение": 7484,
      "услови": 7485,
      "кур": 7486,
      "тие": 7487,
      "отме": 7488,
      "26": 7489,
      "района": 7490,
      "la": 7491,
      "поня": 7492,
      "нской": 7493,
      "украи": 7494,
      "окт": 7495,
      "шла": 7496,
      "семь": 7497,
      "ших": 7498,
      "друго": 7499,
      "шая": 7500,
      "дека": 7501,
      "участи": 7502,
      "кам": 7503,
      "переда": 7504,
      "сан": 7505,
      "официа": 7506,
      "свою": 7507,
      "уби": 7508,
      "ешь": 7509,
      "28": 7510,
      "оце": 7511,
      "27": 7512,
      "управле": 7513,
      "стиче": 7514,
      "блю": 7515,
      "жур": 7516,
      "занима": 7517,
      "ещё": 7518,
      "моло": 7519,
      "сил": 7520,
      "мов": 7521,
      "улы": 7522,
      "форми": 7523,
      "игро": 7524,
      "тей": 7525,
      "нном": 7526,
      "самы": 7527,
      "сент": 7528,
      "вол": 7529,
      "бан": 7530,
      "вести": 7531,
      "ню": 7532,
      "клу": 7533,
      "сейчас": 7534,
      "испол": 7535,
      "графия": 7536,
      "политиче": 7537,
      "воло": 7538,
      "соответ": 7539,
      "хов": 7540,
      "вала": 7541,
      "вил": 7542,
      "часть": 7543,
      "сня": 7544,
      "стать": 7545,
      "сбор": 7546,
      "сом": 7547,
      "тета": 7548,
      "lo": 7549,
      "жизни": 7550,
      "оте": 7551,
      "перед": 7552,
      "демо": 7553,
      "отве": 7554,
      "for": 7555,
      "гор": 7556,
      "ген": 7557,
      "мере": 7558,
      "чего": 7559,
      "нико": 7560,
      "эн": 7561,
      "глу": 7562,
      "международ": 7563,
      "ктор": 7564,
      "универси": 7565,
      "анали": 7566,
      "чина": 7567,
      "зде": 7568,
      "становле": 7569,
      "вую": 7570,
      "шли": 7571,
      "пробле": 7572,
      "ce": 7573,
      "музы": 7574,
      "кни": 7575,
      "гро": 7576,
      "всех": 7577,
      "янва": 7578,
      "этой": 7579,
      "состав": 7580,
      "матери": 7581,
      "вом": 7582,
      "администра": 7583,
      "vi": 7584,
      "ат": 7585,
      "сказал": 7586,
      "ссср": 7587,
      "програм": 7588,
      "проек": 7589,
      "среди": 7590,
      "которой": 7591,
      "диви": 7592,
      "мости": 7593,
      "нец": 7594,
      "проис": 7595,
      "29": 7596,
      "способ": 7597,
      "ma": 7598,
      "ведения": 7599,
      "спор": 7600,
      "простра": 7601,
      "источ": 7602,
      "ффе": 7603,
      "тому": 7604,
      "мор": 7605,
      "тики": 7606,
      "тай": 7607,
      "деятельно": 7608,
      "ci": 7609,
      "грани": 7610,
      "личе": 7611,
      "res": 7612,
      "совер": 7613,
      "связа": 7614,
      "ранее": 7615,
      "50": 7616,
      "дре": 7617,
      "санд": 7618,
      "этому": 7619,
      "свои": 7620,
      "бло": 7621,
      "авгу": 7622,
      "низ": 7623,
      "смер": 7624,
      "москов": 7625,
      "тить": 7626,
      "ём": 7627,
      "веро": 7628,
      "большо": 7629,
      "см": 7630,
      "меди": 7631,
      "льное": 7632,
      "хотя": 7633,
      "сою": 7634,
      "реши": 7635,
      "ули": 7636,
      "поддер": 7637,
      "цией": 7638,
      "щения": 7639,
      "необходи": 7640,
      "оказа": 7641,
      "дерев": 7642,
      "em": 7643,
      "кана": 7644,
      "стя": 7645,
      "строе": 7646,
      "чение": 7647,
      "ровать": 7648,
      "ана": 7649,
      "цер": 7650,
      "ок": 7651,
      "2010": 7652,
      "служ": 7653,
      "ul": 7654,
      "данным": 7655,
      "компании": 7656,
      "кло": 7657,
      "гов": 7658,
      "шей": 7659,
      "принима": 7660,
      "зада": 7661,
      "сут": 7662,
      "республи": 7663,
      "чемпиона": 7664,
      "апре": 7665,
      "двух": 7666,
      "мето": 7667,
      "себе": 7668,
      "джа": 7669,
      "институ": 7670,
      "режи": 7671,
      "разу": 7672,
      "кроме": 7673,
      "шло": 7674,
      "ака": 7675,
      "тон": 7676,
      "времени": 7677,
      "зависи": 7678,
      "успе": 7679,
      "профе": 7680,
      "прак": 7681,
      "чных": 7682,
      "ne": 7683,
      "фут": 7684,
      "уров": 7685,
      "рования": 7686,
      "рф": 7687,
      "кс": 7688,
      "поста": 7689,
      "тот": 7690,
      "регу": 7691,
      "долж": 7692,
      "вен": 7693,
      "александ": 7694,
      "актив": 7695,
      "ший": 7696,
      "могут": 7697,
      "история": 7698,
      "жил": 7699,
      "именно": 7700,
      "работы": 7701,
      "тео": 7702,
      "км": 7703,
      "дии": 7704,
      "взгля": 7705,
      "настоя": 7706,
      "деля": 7707,
      "льная": 7708,
      "нова": 7709,
      "круп": 7710,
      "ступ": 7711,
      "связи": 7712,
      "li": 7713,
      "меся": 7714,
      "понима": 7715,
      "обы": 7716,
      "тогда": 7717,
      "вших": 7718,
      "женщи": 7719,
      "op": 7720,
      "um": 7721,
      "две": 7722,
      "войны": 7723,
      "ver": 7724,
      "строй": 7725,
      "шки": 7726,
      "российской": 7727,
      "дел": 7728,
      "худо": 7729,
      "вместе": 7730,
      "ске": 7731,
      "ита": 7732,
      "нную": 7733,
      "тельных": 7734,
      "нам": 7735,
      "вают": 7736,
      "других": 7737,
      "прин": 7738,
      "ья": 7739,
      "зако": 7740,
      "руб": 7741,
      "онов": 7742,
      "словам": 7743,
      "щих": 7744,
      "ким": 7745,
      "влия": 7746,
      "слы": 7747,
      "кус": 7748,
      "ино": 7749,
      "человека": 7750,
      "памя": 7751,
      "экс": 7752,
      "скими": 7753,
      "окон": 7754,
      "дой": 7755,
      "люби": 7756,
      "февра": 7757,
      "нность": 7758,
      "ток": 7759,
      "точно": 7760,
      "ag": 7761,
      "начала": 7762,
      "крас": 7763,
      "нить": 7764,
      "сен": 7765,
      "ляр": 7766,
      "приме": 7767,
      "пом": 7768,
      "тора": 7769,
      "дво": 7770,
      "архи": 7771,
      "доку": 7772,
      "тельство": 7773,
      "влади": 7774,
      "вшись": 7775,
      "ступи": 7776,
      "направле": 7777,
      "финан": 7778,
      "долла": 7779,
      "вари": 7780,
      "чле": 7781,
      "бом": 7782,
      "затем": 7783,
      "образом": 7784,
      "сро": 7785,
      "ожи": 7786,
      "казыва": 7787,
      "пунк": 7788,
      "дости": 7789,
      "заявил": 7790,
      "гло": 7791,
      "стар": 7792,
      "зии": 7793,
      "хозя": 7794,
      "матри": 7795,
      "региона": 7796,
      "ствует": 7797,
      "нский": 7798,
      "ница": 7799,
      "дно": 7800,
      "генера": 7801,
      "фон": 7802,
      "включа": 7803,
      "дома": 7804,
      "свой": 7805,
      "степе": 7806,
      "te": 7807,
      "скому": 7808,
      "нах": 7809,
      "качестве": 7810,
      "перь": 7811,
      "мпи": 7812,
      "потре": 7813,
      "больши": 7814,
      "сра": 7815,
      "сим": 7816,
      "вшие": 7817,
      "всегда": 7818,
      "тебе": 7819,
      "первый": 7820,
      "проти": 7821,
      "зер": 7822,
      "которого": 7823,
      "бое": 7824,
      "ad": 7825,
      "2014": 7826,
      "теперь": 7827,
      "ческих": 7828,
      "no": 7829,
      "использо": 7830,
      "ve": 7831,
      "com": 7832,
      "бора": 7833,
      "здесь": 7834,
      "мей": 7835,
      "бело": 7836,
      "верх": 7837,
      "нин": 7838,
      "рез": 7839,
      "2012": 7840,
      "190": 7841,
      "ради": 7842,
      "совреме": 7843,
      "40": 7844,
      "ющей": 7845,
      "телем": 7846,
      "2015": 7847,
      "таким": 7848,
      "расположе": 7849,
      "co": 7850,
      "ссе": 7851,
      "стой": 7852,
      "bo": 7853,
      "нко": 7854,
      "мин": 7855,
      "первые": 7856,
      "заня": 7857,
      "мину": 7858,
      "аб": 7859,
      "ap": 7860,
      "рю": 7861,
      "след": 7862,
      "сохра": 7863,
      "дит": 7864,
      "всем": 7865,
      "бар": 7866,
      "гото": 7867,
      "чему": 7868,
      "оли": 7869,
      "se": 7870,
      "эффе": 7871,
      "станови": 7872,
      "фика": 7873,
      "чения": 7874,
      "2009": 7875,
      "второй": 7876,
      "спорт": 7877,
      "нок": 7878,
      "января": 7879,
      "логии": 7880,
      "организа": 7881,
      "верну": 7882,
      "нове": 7883,
      "2011": 7884,
      "жной": 7885,
      "своего": 7886,
      "тельной": 7887,
      "моби": 7888,
      "интере": 7889,
      "выше": 7890,
      "ситуа": 7891,
      "ничего": 7892,
      "рели": 7893,
      "декабря": 7894,
      "производ": 7895,
      "годы": 7896,
      "должно": 7897,
      "пасно": 7898,
      "лег": 7899,
      "лез": 7900,
      "дро": 7901,
      "права": 7902,
      "2008": 7903,
      "обя": 7904,
      "одной": 7905,
      "отли": 7906,
      "пада": 7907,
      "ссии": 7908,
      "потом": 7909,
      "века": 7910,
      "щение": 7911,
      "снова": 7912,
      "оп": 7913,
      "ез": 7914,
      "ющего": 7915,
      "няя": 7916,
      "различ": 7917,
      "обеспе": 7918,
      "районе": 7919,
      "стри": 7920,
      "акаде": 7921,
      "2016": 7922,
      "седа": 7923,
      "ожида": 7924,
      "so": 7925,
      "стороны": 7926,
      "мета": 7927,
      "бю": 7928,
      "нил": 7929,
      "страны": 7930,
      "вин": 7931,
      "июля": 7932,
      "марта": 7933,
      "дина": 7934,
      "называ": 7935,
      "шего": 7936,
      "ht": 7937,
      "льным": 7938,
      "ностью": 7939,
      "очере": 7940,
      "хоте": 7941,
      "сообще": 7942,
      "совета": 7943,
      "дово": 7944,
      "функ": 7945,
      "четы": 7946,
      "группы": 7947,
      "мыш": 7948,
      "нес": 7949,
      "хода": 7950,
      "футбо": 7951,
      "зре": 7952,
      "октября": 7953,
      "особе": 7954,
      "обяза": 7955,
      "2013": 7956,
      "собой": 7957,
      "пли": 7958,
      "изи": 7959,
      "мом": 7960,
      "май": 7961,
      "mo": 7962,
      "ктро": 7963,
      "ir": 7964,
      "контро": 7965,
      "миро": 7966,
      "улыб": 7967,
      "туре": 7968,
      "ил": 7969,
      "най": 7970,
      "отмеча": 7971,
      "банка": 7972,
      "друг": 7973,
      "щий": 7974,
      "тысяч": 7975,
      "льном": 7976,
      "стало": 7977,
      "ru": 7978,
      "сол": 7979,
      "банк": 7980,
      "лай": 7981,
      "стала": 7982,
      "sp": 7983,
      "гри": 7984,
      "многи": 7985,
      "помощ": 7986,
      "ер": 7987,
      "наи": 7988,
      "ческой": 7989,
      "мол": 7990,
      "почти": 7991,
      "оборо": 7992,
      "нас": 7993,
      "насе": 7994,
      "вшего": 7995,
      "сентября": 7996,
      "использу": 7997,
      "виа": 7998,
      "территории": 7999,
      "каз": 8000,
      "внима": 8001,
      "определе": 8002,
      "произо": 8003,
      "тря": 8004,
      "един": 8005,
      "отноше": 8006,
      "безо": 8007,
      "ut": 8008,
      "ред": 8009,
      "чей": 8010,
      "тут": 8011,
      "власти": 8012,
      "действия": 8013,
      "con": 8014,
      "деся": 8015,
      "ником": 8016,
      "сообщи": 8017,
      "кино": 8018,
      "гео": 8019,
      "жизнь": 8020,
      "основа": 8021,
      "стали": 8022,
      "ноября": 8023,
      "пута": 8024,
      "например": 8025,
      "пись": 8026,
      "тами": 8027,
      "согласно": 8028,
      "чный": 8029,
      "искус": 8030,
      "метров": 8031,
      "pro": 8032,
      "электро": 8033,
      "ори": 8034,
      "июня": 8035,
      "площа": 8036,
      "выпол": 8037,
      "экономиче": 8038,
      "дия": 8039,
      "дело": 8040,
      "августа": 8041,
      "взя": 8042,
      "пыт": 8043,
      "сона": 8044,
      "поте": 8045,
      "ива": 8046,
      "населения": 8047,
      "лья": 8048,
      "долларов": 8049,
      "ен": 8050,
      "исследования": 8051,
      "зву": 8052,
      "носи": 8053,
      "украины": 8054,
      "которое": 8055,
      "ходе": 8056,
      "рует": 8057,
      "муни": 8058,
      "будут": 8059,
      "тах": 8060,
      "нки": 8061,
      "мость": 8062,
      "фра": 8063,
      "тельные": 8064,
      "вза": 8065,
      "пусти": 8066,
      "тет": 8067,
      "тар": 8068,
      "юри": 8069,
      "2007": 8070,
      "эй": 8071,
      "долго": 8072,
      "апреля": 8073,
      "своих": 8074,
      "продолжа": 8075,
      "утвер": 8076,
      "ющим": 8077,
      "решение": 8078,
      "матиче": 8079,
      "истории": 8080,
      "объек": 8081,
      "ясь": 8082,
      "такой": 8083,
      "результате": 8084,
      "почему": 8085,
      "щее": 8086,
      "ступле": 8087,
      "выступа": 8088,
      "сце": 8089,
      "шёл": 8090,
      "гар": 8091,
      "све": 8092,
      "og": 8093,
      "закры": 8094,
      "период": 8095,
      "чные": 8096,
      "мень": 8097,
      "ваться": 8098,
      "сон": 8099,
      "положе": 8100,
      "север": 8101,
      "позволя": 8102,
      "количе": 8103,
      "получил": 8104,
      "лежа": 8105,
      "ог": 8106,
      "ведь": 8107,
      "клад": 8108,
      "наблю": 8109,
      "хозяй": 8110,
      "чного": 8111,
      "находится": 8112,
      "собра": 8113,
      "воро": 8114,
      "60": 8115,
      "рую": 8116,
      "жить": 8117,
      "аге": 8118,
      "фило": 8119,
      "поддерж": 8120,
      "джи": 8121,
      "сю": 8122,
      "лик": 8123,
      "случае": 8124,
      "пен": 8125,
      "ктив": 8126,
      "объя": 8127,
      "системы": 8128,
      "сере": 8129,
      "годах": 8130,
      "пита": 8131,
      "жела": 8132,
      "причи": 8133,
      "другие": 8134,
      "возра": 8135,
      "сами": 8136,
      "готов": 8137,
      "награ": 8138,
      "уро": 8139,
      "поэтому": 8140,
      "представле": 8141,
      "запад": 8142,
      "население": 8143,
      "тельного": 8144,
      "спро": 8145,
      "административ": 8146,
      "лии": 8147,
      "тр": 8148,
      "ab": 8149,
      "нула": 8150,
      "зве": 8151,
      "появи": 8152,
      "физи": 8153,
      "тика": 8154,
      "рамках": 8155,
      "тол": 8156,
      "холо": 8157,
      "бов": 8158,
      "рублей": 8159,
      "материа": 8160,
      "2006": 8161,
      "ктора": 8162,
      "пей": 8163,
      "коле": 8164,
      "участие": 8165,
      "вался": 8166,
      "обви": 8167,
      "написа": 8168,
      "удо": 8169,
      "жных": 8170,
      "нев": 8171,
      "скры": 8172,
      "ствия": 8173,
      "охра": 8174,
      "2017": 8175,
      "ph": 8176,
      "суб": 8177,
      "диа": 8178,
      "февраля": 8179,
      "неме": 8180,
      "35": 8181,
      "ключи": 8182,
      "куда": 8183,
      "пора": 8184,
      "пси": 8185,
      "маши": 8186,
      "относи": 8187,
      "вере": 8188,
      "назначе": 8189,
      "прода": 8190,
      "ческого": 8191,
      "po": 8192,
      "сум": 8193,
      "авиа": 8194,
      "составе": 8195,
      "вить": 8196,
      "техно": 8197,
      "безопасно": 8198,
      "нью": 8199,
      "sh": 8200,
      "поле": 8201,
      "село": 8202,
      "обществе": 8203,
      "щего": 8204,
      "момент": 8205,
      "треть": 8206,
      "100": 8207,
      "людей": 8208,
      "описа": 8209,
      "подоб": 8210,
      "полага": 8211,
      "президент": 8212,
      "роль": 8213,
      "тельный": 8214,
      "пой": 8215,
      "слав": 8216,
      "сегод": 8217,
      "образова": 8218,
      "нар": 8219,
      "сегодня": 8220,
      "ито": 8221,
      "сайте": 8222,
      "культур": 8223,
      "организации": 8224,
      "id": 8225,
      "пять": 8226,
      "ствие": 8227,
      "плани": 8228,
      "трен": 8229,
      "либо": 8230,
      "189": 8231,
      "муще": 8232,
      "часто": 8233,
      "юсь": 8234,
      "дире": 8235,
      "гии": 8236,
      "ia": 8237,
      "сколь": 8238,
      "стоит": 8239,
      "щие": 8240,
      "вери": 8241,
      "2018": 8242,
      "вопрос": 8243,
      "населё": 8244,
      "ект": 8245,
      "собстве": 8246,
      "анти": 8247,
      "сфе": 8248,
      "лла": 8249,
      "держи": 8250,
      "дис": 8251,
      "управления": 8252,
      "ждение": 8253,
      "девушка": 8254,
      "коне": 8255,
      "ципа": 8256,
      "петер": 8257,
      "газ": 8258,
      "кле": 8259,
      "возду": 8260,
      "надо": 8261,
      "суд": 8262,
      "музыка": 8263,
      "тяже": 8264,
      "нё": 8265,
      "писи": 8266,
      "кажды": 8267,
      "поги": 8268,
      "нуть": 8269,
      "городе": 8270,
      "обнару": 8271,
      "шие": 8272,
      "чка": 8273,
      "противо": 8274,
      "чие": 8275,
      "законо": 8276,
      "требо": 8277,
      "голов": 8278,
      "xi": 8279,
      "этих": 8280,
      "зов": 8281,
      "сне": 8282,
      "огра": 8283,
      "имеет": 8284,
      "иде": 8285,
      "распростра": 8286,
      "скоре": 8287,
      "проду": 8288,
      "отде": 8289,
      "тради": 8290,
      "деревня": 8291,
      "частности": 8292,
      "ствии": 8293,
      "ity": 8294,
      "использова": 8295,
      "имо": 8296,
      "кую": 8297,
      "рядом": 8298,
      "еха": 8299,
      "волю": 8300,
      "федерации": 8301,
      "31": 8302,
      "собы": 8303,
      "англи": 8304,
      "tic": 8305,
      "лин": 8306,
      "энер": 8307,
      "золо": 8308,
      "широ": 8309,
      "квар": 8310,
      "граждан": 8311,
      "do": 8312,
      "ган": 8313,
      "котором": 8314,
      "син": 8315,
      "лев": 8316,
      "одного": 8317,
      "потому": 8318,
      "2000": 8319,
      "закон": 8320,
      "тоже": 8321,
      "свое": 8322,
      "меха": 8323,
      "украин": 8324,
      "тный": 8325,
      "агент": 8326,
      "аре": 8327,
      "приз": 8328,
      "ческие": 8329,
      "прово": 8330,
      "литература": 8331,
      "миха": 8332,
      "реки": 8333,
      "одна": 8334,
      "бург": 8335,
      "свет": 8336,
      "игры": 8337,
      "посе": 8338,
      "чки": 8339,
      "экономи": 8340,
      "лично": 8341,
      "компания": 8342,
      "фро": 8343,
      "начале": 8344,
      "тый": 8345,
      "дней": 8346,
      "2005": 8347,
      "получа": 8348,
      "спек": 8349,
      "олимпи": 8350,
      "шую": 8351,
      "имени": 8352,
      "кора": 8353,
      "руки": 8354,
      "соеди": 8355,
      "бере": 8356,
      "выра": 8357,
      "соверше": 8358,
      "комна": 8359,
      "менты": 8360,
      "реше": 8361,
      "стр": 8362,
      "мон": 8363,
      "составляет": 8364,
      "группа": 8365,
      "2004": 8366,
      "me": 8367,
      "взаимо": 8368,
      "служи": 8369,
      "ье": 8370,
      "80": 8371,
      "журна": 8372,
      "компле": 8373,
      "мышле": 8374,
      "сили": 8375,
      "составля": 8376,
      "встреча": 8377,
      "допол": 8378,
      "печа": 8379,
      "проводи": 8380,
      "пожа": 8381,
      "per": 8382,
      "2002": 8383,
      "be": 8384,
      "правля": 8385,
      "предложе": 8386,
      "силь": 8387,
      "ступа": 8388,
      "тных": 8389,
      "смотря": 8390,
      "информации": 8391,
      "рода": 8392,
      "одним": 8393,
      "имуще": 8394,
      "места": 8395,
      "менее": 8396,
      "стана": 8397,
      "герма": 8398,
      "помина": 8399,
      "сок": 8400,
      "эр": 8401,
      "губер": 8402,
      "такие": 8403,
      "цей": 8404,
      "ческий": 8405,
      "обре": 8406,
      "поселе": 8407,
      "мед": 8408,
      "мого": 8409,
      "карье": 8410,
      "ge": 8411,
      "возвра": 8412,
      "ябре": 8413,
      "реали": 8414,
      "название": 8415,
      "ква": 8416,
      "жё": 8417,
      "университета": 8418,
      "ствовал": 8419,
      "япо": 8420,
      "эт": 8421,
      "россия": 8422,
      "man": 8423,
      "облада": 8424,
      "разме": 8425,
      "веду": 8426,
      "специали": 8427,
      "види": 8428,
      "iii": 8429,
      "оде": 8430,
      "республики": 8431,
      "являются": 8432,
      "ум": 8433,
      "рование": 8434,
      "зма": 8435,
      "благода": 8436,
      "спу": 8437,
      "70": 8438,
      "емых": 8439,
      "сила": 8440,
      "депута": 8441,
      "другой": 8442,
      "бай": 8443,
      "кали": 8444,
      "отра": 8445,
      "данных": 8446,
      "немец": 8447,
      "содержа": 8448,
      "фото": 8449,
      "начина": 8450,
      "филосо": 8451,
      "никогда": 8452,
      "щую": 8453,
      "тки": 8454,
      "характери": 8455,
      "яр": 8456,
      "должен": 8457,
      "францу": 8458,
      "внутрен": 8459,
      "указа": 8460,
      "ката": 8461,
      "вай": 8462,
      "док": 8463,
      "ts": 8464,
      "президента": 8465,
      "зирова": 8466,
      "игроки": 8467,
      "професси": 8468,
      "ост": 8469,
      "щей": 8470,
      "биография": 8471,
      "45": 8472,
      "установле": 8473,
      "первой": 8474,
      "тая": 8475,
      "постоя": 8476,
      "лле": 8477,
      "qu": 8478,
      "ницы": 8479,
      "наде": 8480,
      "новый": 8481,
      "уди": 8482,
      "комму": 8483,
      "руковод": 8484,
      "тых": 8485,
      "дня": 8486,
      "оз": 8487,
      "модели": 8488,
      "деятельности": 8489,
      "торов": 8490,
      "оди": 8491,
      "быстро": 8492,
      "бежа": 8493,
      "лицо": 8494,
      "красно": 8495,
      "финансо": 8496,
      "фри": 8497,
      "вов": 8498,
      "дале": 8499,
      "фици": 8500,
      "мог": 8501,
      "нке": 8502,
      "рассматри": 8503,
      "мало": 8504,
      "нужно": 8505,
      "процентов": 8506,
      "вало": 8507,
      "тически": 8508,
      "вода": 8509,
      "четыре": 8510,
      "увели": 8511,
      "мужчи": 8512,
      "осуще": 8513,
      "тю": 8514,
      "su": 8515,
      "лица": 8516,
      "стати": 8517,
      "худож": 8518,
      "музе": 8519,
      "техниче": 8520,
      "маль": 8521,
      "зад": 8522,
      "36": 8523,
      "таких": 8524,
      "зь": 8525,
      "подтвер": 8526,
      "хорошо": 8527,
      "нен": 8528,
      "муниципа": 8529,
      "деб": 8530,
      "каждый": 8531,
      "вед": 8532,
      "чил": 8533,
      "ментов": 8534,
      "начал": 8535,
      "экспер": 8536,
      "опубли": 8537,
      "гей": 8538,
      "этим": 8539,
      "завер": 8540,
      "da": 8541,
      "2019": 8542,
      "попу": 8543,
      "лый": 8544,
      "ному": 8545,
      "турни": 8546,
      "мах": 8547,
      "миллиар": 8548,
      "ющая": 8549,
      "скоро": 8550,
      "стол": 8551,
      "сразу": 8552,
      "ёт": 8553,
      "развития": 8554,
      "началь": 8555,
      "пала": 8556,
      "автор": 8557,
      "2003": 8558,
      "пов": 8559,
      "гг": 8560,
      "твор": 8561,
      "круг": 8562,
      "заявле": 8563,
      "фло": 8564,
      "цен": 8565,
      "особенно": 8566,
      "ber": 8567,
      "убий": 8568,
      "али": 8569,
      "выми": 8570,
      "шим": 8571,
      "годов": 8572,
      "нство": 8573,
      "стату": 8574,
      "мия": 8575,
      "данные": 8576,
      "теа": 8577,
      "новой": 8578,
      "отделе": 8579,
      "безопасности": 8580,
      "лон": 8581,
      "наблюда": 8582,
      "рок": 8583,
      "буд": 8584,
      "внеш": 8585,
      "персона": 8586,
      "принад": 8587,
      "37": 8588,
      "руководи": 8589,
      "европей": 8590,
      "премь": 8591,
      "впервые": 8592,
      "суда": 8593,
      "34": 8594,
      "большой": 8595,
      "оконча": 8596,
      "эту": 8597,
      "слыша": 8598,
      "der": 8599,
      "фильм": 8600,
      "профессиона": 8601,
      "течение": 8602,
      "рин": 8603,
      "конечно": 8604,
      "поме": 8605,
      "ограниче": 8606,
      "цов": 8607,
      "чная": 8608,
      "стран": 8609,
      "all": 8610,
      "уз": 8611,
      "рс": 8612,
      "доба": 8613,
      "уч": 8614,
      "тили": 8615,
      "назва": 8616,
      "ta": 8617,
      "тной": 8618,
      "подня": 8619,
      "образования": 8620,
      "ведение": 8621,
      "наиболее": 8622,
      "посколь": 8623,
      "нему": 8624,
      "объеди": 8625,
      "благо": 8626,
      "нена": 8627,
      "2001": 8628,
      "ex": 8629,
      "отсут": 8630,
      "кура": 8631,
      "британ": 8632,
      "француз": 8633,
      "we": 8634,
      "норма": 8635,
      "вили": 8636,
      "автомоби": 8637,
      "ваются": 8638,
      "вел": 8639,
      "доступ": 8640,
      "партии": 8641,
      "некоторые": 8642,
      "эль": 8643,
      "геро": 8644,
      "лад": 8645,
      "поскольку": 8646,
      "существо": 8647,
      "отказа": 8648,
      "льности": 8649,
      "страте": 8650,
      "вале": 8651,
      "ниях": 8652,
      "new": 8653,
      "38": 8654,
      "отношения": 8655,
      "которую": 8656,
      "39": 8657,
      "tr": 8658,
      "лета": 8659,
      "тихо": 8660,
      "тые": 8661,
      "оно": 8662,
      "исполни": 8663,
      "медици": 8664,
      "ева": 8665,
      "представля": 8666,
      "гам": 8667,
      "преду": 8668,
      "гна": 8669,
      "кса": 8670,
      "воору": 8671,
      "глава": 8672,
      "испа": 8673,
      "лит": 8674,
      "дох": 8675,
      "неф": 8676,
      "решения": 8677,
      "wi": 8678,
      "свяще": 8679,
      "тива": 8680,
      "вок": 8681,
      "град": 8682,
      "гом": 8683,
      "праз": 8684,
      "работал": 8685,
      "кви": 8686,
      "лам": 8687,
      "000": 8688,
      "догово": 8689,
      "мм": 8690,
      "председа": 8691,
      "серд": 8692,
      "торы": 8693,
      "контра": 8694,
      "карти": 8695,
      "аэ": 8696,
      "тё": 8697,
      "сове": 8698,
      "армии": 8699,
      "продук": 8700,
      "бал": 8701,
      "жды": 8702,
      "вшей": 8703,
      "количество": 8704,
      "разработ": 8705,
      "известно": 8706,
      "демон": 8707,
      "несколь": 8708,
      "близ": 8709,
      "шее": 8710,
      "никами": 8711,
      "2020": 8712,
      "пользова": 8713,
      "лок": 8714,
      "пресс": 8715,
      "смы": 8716,
      "иль": 8717,
      "задержа": 8718,
      "тила": 8719,
      "ом": 8720,
      "тка": 8721,
      "люди": 8722,
      "новые": 8723,
      "жные": 8724,
      "рию": 8725,
      "коллек": 8726,
      "вления": 8727,
      "ними": 8728,
      "кате": 8729,
      "своим": 8730,
      "полно": 8731,
      "запре": 8732,
      "кня": 8733,
      "требу": 8734,
      "макси": 8735,
      "шком": 8736,
      "миллионов": 8737,
      "секре": 8738,
      "класси": 8739,
      "пят": 8740,
      "выс": 8741,
      "олимпий": 8742,
      "голос": 8743,
      "руется": 8744,
      "имя": 8745,
      "mar": 8746,
      "съ": 8747,
      "188": 8748,
      "сми": 8749,
      "ай": 8750,
      "форму": 8751,
      "смерти": 8752,
      "министер": 8753,
      "характер": 8754,
      "эм": 8755,
      "сторон": 8756,
      "желез": 8757,
      "go": 8758,
      "ющее": 8759,
      "паль": 8760,
      "эффектив": 8761,
      "нови": 8762,
      "рами": 8763,
      "ard": 8764,
      "расска": 8765,
      "дми": 8766,
      "паде": 8767,
      "логия": 8768,
      "семей": 8769,
      "жный": 8770,
      "ап": 8771,
      "реда": 8772,
      "ходят": 8773,
      "ционных": 8774,
      "центр": 8775,
      "борь": 8776,
      "тельным": 8777,
      "проект": 8778,
      "pres": 8779,
      "подчер": 8780,
      "москве": 8781,
      "телями": 8782,
      "новых": 8783,
      "библи": 8784,
      "im": 8785,
      "умер": 8786,
      "зво": 8787,
      "работу": 8788,
      "страда": 8789,
      "кило": 8790,
      "какой": 8791,
      "сез": 8792,
      "чёт": 8793,
      "нда": 8794,
      "хри": 8795,
      "бир": 8796,
      "отечестве": 8797,
      "осущест": 8798,
      "48": 8799,
      "возмо": 8800,
      "равно": 8801,
      "должны": 8802,
      "par": 8803,
      "увиде": 8804,
      "вались": 8805,
      "жили": 8806,
      "журнали": 8807,
      "подро": 8808,
      "велико": 8809,
      "форм": 8810,
      "александр": 8811,
      "ствуют": 8812,
      "иска": 8813,
      "система": 8814,
      "построе": 8815,
      "цель": 8816,
      "мое": 8817,
      "ближа": 8818,
      "ресу": 8819,
      "рав": 8820,
      "мас": 8821,
      "конф": 8822,
      "весь": 8823,
      "выбо": 8824,
      "процента": 8825,
      "предоста": 8826,
      "зло": 8827,
      "рома": 8828,
      "предполага": 8829,
      "настоящее": 8830,
      "мона": 8831,
      "тельное": 8832,
      "победи": 8833,
      "рит": 8834,
      "обеща": 8835,
      "роли": 8836,
      "конструк": 8837,
      "шно": 8838,
      "льную": 8839,
      "давно": 8840,
      "лень": 8841,
      "паре": 8842,
      "сказать": 8843,
      "союза": 8844,
      "куп": 8845,
      "выда": 8846,
      "кин": 8847,
      "дида": 8848,
      "воды": 8849,
      "вей": 8850,
      "такое": 8851,
      "несмотря": 8852,
      "экспе": 8853,
      "государства": 8854,
      "лл": 8855,
      "нового": 8856,
      "приложе": 8857,
      "пути": 8858,
      "деньги": 8859,
      "двига": 8860,
      "тике": 8861,
      "ps": 8862,
      "вида": 8863,
      "учё": 8864,
      "юго": 8865,
      "ционного": 8866,
      "друга": 8867,
      "жестве": 8868,
      "рах": 8869,
      "поряд": 8870,
      "сп": 8871,
      "возгла": 8872,
      "ence": 8873,
      "пал": 8874,
      "взгляд": 8875,
      "северо": 8876,
      "гами": 8877,
      "чай": 8878,
      "дной": 8879,
      "фер": 8880,
      "степени": 8881,
      "стом": 8882,
      "поро": 8883,
      "мнению": 8884,
      "чуть": 8885,
      "культуры": 8886,
      "ho": 8887,
      "конститу": 8888,
      "возможность": 8889,
      "реме": 8890,
      "кандида": 8891,
      "йти": 8892,
      "слишком": 8893,
      "евич": 8894,
      "нному": 8895,
      "проте": 8896,
      "чик": 8897,
      "кнул": 8898,
      "шед": 8899,
      "вообще": 8900,
      "рыв": 8901,
      "ственности": 8902,
      "независи": 8903,
      "78": 8904,
      "двер": 8905,
      "биз": 8906,
      "дон": 8907,
      "церков": 8908,
      "похо": 8909,
      "москва": 8910,
      "законода": 8911,
      "фк": 8912,
      "край": 8913,
      "ночь": 8914,
      "входит": 8915,
      "рд": 8916,
      "станов": 8917,
      "владимир": 8918,
      "наук": 8919,
      "дю": 8920,
      "90": 8921,
      "hi": 8922,
      "os": 8923,
      "лучше": 8924,
      "дополни": 8925,
      "типа": 8926,
      "зм": 8927,
      "санкт": 8928,
      "сборной": 8929,
      "186": 8930,
      "сад": 8931,
      "находя": 8932,
      "брита": 8933,
      "одо": 8934,
      "фигу": 8935,
      "обычно": 8936,
      "du": 8937,
      "учре": 8938,
      "собира": 8939,
      "новости": 8940,
      "мимо": 8941,
      "москвы": 8942,
      "сче": 8943,
      "33": 8944,
      "самого": 8945,
      "шку": 8946,
      "вероя": 8947,
      "посмотре": 8948,
      "кредит": 8949,
      "условиях": 8950,
      "ото": 8951,
      "граф": 8952,
      "внутри": 8953,
      "условия": 8954,
      "празд": 8955,
      "бес": 8956,
      "родился": 8957,
      "производи": 8958,
      "47": 8959,
      "новь": 8960,
      "нулась": 8961,
      "результаты": 8962,
      "верхов": 8963,
      "гос": 8964,
      "ада": 8965,
      "знача": 8966,
      "заключе": 8967,
      "парла": 8968,
      "джон": 8969,
      "55": 8970,
      "шет": 8971,
      "ate": 8972,
      "предприя": 8973,
      "вшая": 8974,
      "дить": 8975,
      "сколько": 8976,
      "выпуск": 8977,
      "работе": 8978,
      "немного": 8979,
      "освобо": 8980,
      "будь": 8981,
      "уточ": 8982,
      "многие": 8983,
      "союз": 8984,
      "газе": 8985,
      "спокой": 8986,
      "нина": 8987,
      "ционной": 8988,
      "катего": 8989,
      "зоне": 8990,
      "клет": 8991,
      "руют": 8992,
      "оши": 8993,
      "четвер": 8994,
      "услу": 8995,
      "детей": 8996,
      "положи": 8997,
      "тали": 8998,
      "ёх": 8999,
      "список": 9000,
      "1999": 9001,
      "правда": 9002,
      "знаю": 9003,
      "зом": 9004,
      "лых": 9005,
      "1990": 9006,
      "получе": 9007,
      "преступле": 9008,
      "вновь": 9009,
      "внимание": 9010,
      "команды": 9011,
      "пари": 9012,
      "тик": 9013,
      "метра": 9014,
      "пункты": 9015,
      "посред": 9016,
      "jo": 9017,
      "формирова": 9018,
      "ата": 9019,
      "лые": 9020,
      "российский": 9021,
      "совсем": 9022,
      "словно": 9023,
      "религи": 9024,
      "франции": 9025,
      "мире": 9026,
      "капита": 9027,
      "прошло": 9028,
      "слуша": 9029,
      "цами": 9030,
      "ницу": 9031,
      "прожи": 9032,
      "тиви": 9033,
      "вли": 9034,
      "нений": 9035,
      "49": 9036,
      "кварти": 9037,
      "vol": 9038,
      "обеспечи": 9039,
      "дий": 9040,
      "никола": 9041,
      "полностью": 9042,
      "сделать": 9043,
      "разделе": 9044,
      "вление": 9045,
      "компози": 9046,
      "которым": 9047,
      "дене": 9048,
      "това": 9049,
      "ment": 9050,
      "bl": 9051,
      "бен": 9052,
      "ждё": 9053,
      "мых": 9054,
      "револю": 9055,
      "au": 9056,
      "хан": 9057,
      "район": 9058,
      "ww": 9059,
      "ведом": 9060,
      "второ": 9061,
      "кос": 9062,
      "минут": 9063,
      "лой": 9064,
      "46": 9065,
      "утвержда": 9066,
      "голову": 9067,
      "альбо": 9068,
      "движения": 9069,
      "клуб": 9070,
      "назад": 9071,
      "пуска": 9072,
      "лях": 9073,
      "формы": 9074,
      "достаточно": 9075,
      "ун": 9076,
      "памят": 9077,
      "устрой": 9078,
      "принци": 9079,
      "вд": 9080,
      "театра": 9081,
      "дальней": 9082,
      "единстве": 9083,
      "рассмо": 9084,
      "пост": 9085,
      "хочу": 9086,
      "изра": 9087,
      "кта": 9088,
      "нили": 9089,
      "свиде": 9090,
      "pe": 9091,
      "сова": 9092,
      "est": 9093,
      "ess": 9094,
      "совмест": 9095,
      "контек": 9096,
      "шем": 9097,
      "чным": 9098,
      "попыт": 9099,
      "wor": 9100,
      "тию": 9101,
      "кара": 9102,
      "писы": 9103,
      "sk": 9104,
      "число": 9105,
      "конкре": 9106,
      "ир": 9107,
      "sch": 9108,
      "ён": 9109,
      "ine": 9110,
      "2022": 9111,
      "позже": 9112,
      "учеб": 9113,
      "лист": 9114,
      "езда": 9115,
      "ниц": 9116,
      "микро": 9117,
      "подписа": 9118,
      "езд": 9119,
      "сама": 9120,
      "пос": 9121,
      "кер": 9122,
      "малень": 9123,
      "удалось": 9124,
      "узна": 9125,
      "обсу": 9126,
      "ion": 9127,
      "лого": 9128,
      "уголов": 9129,
      "xx": 9130,
      "деятельность": 9131,
      "судь": 9132,
      "ферен": 9133,
      "советский": 9134,
      "видео": 9135,
      "орде": 9136,
      "привле": 9137,
      "др": 9138,
      "ствовать": 9139,
      "жется": 9140,
      "повто": 9141,
      "тал": 9142,
      "бель": 9143,
      "32": 9144,
      "инстру": 9145,
      "руку": 9146,
      "школы": 9147,
      "поя": 9148,
      "ниями": 9149,
      "pl": 9150,
      "промышле": 9151,
      "очередь": 9152,
      "добро": 9153,
      "вся": 9154,
      "бел": 9155,
      "парень": 9156,
      "нику": 9157,
      "ныне": 9158,
      "судеб": 9159,
      "провер": 9160,
      "плат": 9161,
      "прекра": 9162,
      "вопросы": 9163,
      "циях": 9164,
      "жного": 9165,
      "ссыл": 9166,
      "нра": 9167,
      "предло": 9168,
      "75": 9169,
      "выз": 9170,
      "великобрита": 9171,
      "оружи": 9172,
      "жена": 9173,
      "лем": 9174,
      "препода": 9175,
      "чёр": 9176,
      "ланд": 9177,
      "позд": 9178,
      "превра": 9179,
      "общества": 9180,
      "изобра": 9181,
      "отправи": 9182,
      "расши": 9183,
      "полови": 9184,
      "cor": 9185,
      "ряда": 9186,
      "тури": 9187,
      "различных": 9188,
      "ура": 9189,
      "заста": 9190,
      "ут": 9191,
      "нескольких": 9192,
      "ственное": 9193,
      "01": 9194,
      "дмитри": 9195,
      "сказала": 9196,
      "возник": 9197,
      "щим": 9198,
      "никто": 9199,
      "механиз": 9200,
      "htt": 9201,
      "вокруг": 9202,
      "правительства": 9203,
      "включая": 9204,
      "жителей": 9205,
      "китай": 9206,
      "первого": 9207,
      "помощью": 9208,
      "нув": 9209,
      "ини": 9210,
      "рис": 9211,
      "разли": 9212,
      "основе": 9213,
      "церкви": 9214,
      "сообщил": 9215,
      "брать": 9216,
      "выбор": 9217,
      "сед": 9218,
      "поне": 9219,
      "мной": 9220,
      "колле": 9221,
      "дыха": 9222,
      "ам": 9223,
      "стандар": 9224,
      "уровне": 9225,
      "креди": 9226,
      "проекта": 9227,
      "секу": 9228,
      "зай": 9229,
      "обрати": 9230,
      "станции": 9231,
      "германии": 9232,
      "джо": 9233,
      "слов": 9234,
      "темпера": 9235,
      "корре": 9236,
      "предлага": 9237,
      "мысли": 9238,
      "живот": 9239,
      "округа": 9240,
      "изуче": 9241,
      "хро": 9242,
      "хотел": 9243,
      "ственных": 9244,
      "потеря": 9245,
      "ff": 9246,
      "важ": 9247,
      "58": 9248,
      "оказыва": 9249,
      "дил": 9250,
      "кими": 9251,
      "тельности": 9252,
      "бля": 9253,
      "пру": 9254,
      "случай": 9255,
      "важно": 9256,
      "сторону": 9257,
      "абсо": 9258,
      "чал": 9259,
      "ара": 9260,
      "ign": 9261,
      "член": 9262,
      "команди": 9263,
      "боро": 9264,
      "жей": 9265,
      "мени": 9266,
      "скри": 9267,
      "воду": 9268,
      "европы": 9269,
      "inter": 9270,
      "59": 9271,
      "населённые": 9272,
      "зия": 9273,
      "стойчи": 9274,
      "соответству": 9275,
      "44": 9276,
      "рази": 9277,
      "ly": 9278,
      "чества": 9279,
      "проблемы": 9280,
      "сайт": 9281,
      "службы": 9282,
      "жит": 9283,
      "каса": 9284,
      "импера": 9285,
      "бка": 9286,
      "профессо": 9287,
      "психо": 9288,
      "soci": 9289,
      "академии": 9290,
      "абсолю": 9291,
      "замести": 9292,
      "чия": 9293,
      "позволяет": 9294,
      "куро": 9295,
      "кому": 9296,
      "угро": 9297,
      "ровал": 9298,
      "спорта": 9299,
      "ближай": 9300,
      "наконец": 9301,
      "отметил": 9302,
      "бас": 9303,
      "пти": 9304,
      "примерно": 9305,
      "англий": 9306,
      "епи": 9307,
      "вень": 9308,
      "становится": 9309,
      "популяр": 9310,
      "жении": 9311,
      "бого": 9312,
      "министр": 9313,
      "дри": 9314,
      "будто": 9315,
      "сек": 9316,
      "лог": 9317,
      "развитие": 9318,
      "фикации": 9319,
      "вернулся": 9320,
      "1998": 9321,
      "нович": 9322,
      "тельная": 9323,
      "режисс": 9324,
      "терро": 9325,
      "пяти": 9326,
      "зин": 9327,
      "yo": 9328,
      "мигра": 9329,
      "вес": 9330,
      "бок": 9331,
      "вече": 9332,
      "мель": 9333,
      "тные": 9334,
      "мари": 9335,
      "кажется": 9336,
      "государственного": 9337,
      "cent": 9338,
      "ента": 9339,
      "мене": 9340,
      "вспо": 9341,
      "последова": 9342,
      "тного": 9343,
      "xv": 9344,
      "tu": 9345,
      "графии": 9346,
      "представители": 9347,
      "субъ": 9348,
      "еже": 9349,
      "вила": 9350,
      "реша": 9351,
      "ниже": 9352,
      "05": 9353,
      "мэ": 9354,
      "ell": 9355,
      "сын": 9356,
      "чное": 9357,
      "множе": 9358,
      "olog": 9359,
      "индиви": 9360,
      "били": 9361,
      "генерал": 9362,
      "поки": 9363,
      "ers": 9364,
      "перво": 9365,
      "тической": 9366,
      "зывает": 9367,
      "необходимо": 9368,
      "иногда": 9369,
      "бит": 9370,
      "уме": 9371,
      "тело": 9372,
      "труда": 9373,
      "сыгра": 9374,
      "военно": 9375,
      "иностра": 9376,
      "правитель": 9377,
      "определя": 9378,
      "площадь": 9379,
      "ak": 9380,
      "бол": 9381,
      "еты": 9382,
      "казах": 9383,
      "отношении": 9384,
      "благодаря": 9385,
      "погиб": 9386,
      "присут": 9387,
      "уго": 9388,
      "горя": 9389,
      "проведе": 9390,
      "ходил": 9391,
      "зам": 9392,
      "каждо": 9393,
      "подготов": 9394,
      "сокра": 9395,
      "корпу": 9396,
      "емые": 9397,
      "валась": 9398,
      "импе": 9399,
      "ссия": 9400,
      "переме": 9401,
      "стен": 9402,
      "поля": 9403,
      "некоторых": 9404,
      "убе": 9405,
      "попро": 9406,
      "сети": 9407,
      "пишет": 9408,
      "несе": 9409,
      "средства": 9410,
      "еписко": 9411,
      "зация": 9412,
      "премьер": 9413,
      "опа": 9414,
      "модель": 9415,
      "прямо": 9416,
      "концеп": 9417,
      "od": 9418,
      "нении": 9419,
      "объяви": 9420,
      "сия": 9421,
      "сельского": 9422,
      "всю": 9423,
      "самым": 9424,
      "избира": 9425,
      "вас": 9426,
      "ление": 9427,
      "распре": 9428,
      "чен": 9429,
      "шах": 9430,
      "думал": 9431,
      "средств": 9432,
      "нос": 9433,
      "такого": 9434,
      "симво": 9435,
      "1996": 9436,
      "следует": 9437,
      "яко": 9438,
      "версии": 9439,
      "парта": 9440,
      "столько": 9441,
      "мые": 9442,
      "сср": 9443,
      "маг": 9444,
      "изменения": 9445,
      "ниж": 9446,
      "поступи": 9447,
      "моно": 9448,
      "должна": 9449,
      "счет": 9450,
      "2021": 9451,
      "говоря": 9452,
      "отечественной": 9453,
      "национальной": 9454,
      "ay": 9455,
      "транспорт": 9456,
      "поселения": 9457,
      "мани": 9458,
      "захва": 9459,
      "выбора": 9460,
      "ie": 9461,
      "эко": 9462,
      "отда": 9463,
      "льность": 9464,
      "жан": 9465,
      "хар": 9466,
      "избра": 9467,
      "комен": 9468,
      "57": 9469,
      "аэро": 9470,
      "сор": 9471,
      "тым": 9472,
      "массо": 9473,
      "села": 9474,
      "мили": 9475,
      "мак": 9476,
      "последние": 9477,
      "происходит": 9478,
      "вам": 9479,
      "187": 9480,
      "трех": 9481,
      "дверь": 9482,
      "туру": 9483,
      "спра": 9484,
      "гене": 9485,
      "стратеги": 9486,
      "ленно": 9487,
      "эп": 9488,
      "террори": 9489,
      "дент": 9490,
      "сердце": 9491,
      "пет": 9492,
      "тации": 9493,
      "акции": 9494,
      "фильмы": 9495,
      "меч": 9496,
      "кров": 9497,
      "водя": 9498,
      "тела": 9499,
      "документа": 9500,
      "каме": 9501,
      "вит": 9502,
      "водо": 9503,
      "лко": 9504,
      "райо": 9505,
      "первым": 9506,
      "приобре": 9507,
      "процесс": 9508,
      "1997": 9509,
      "решил": 9510,
      "звез": 9511,
      "говорить": 9512,
      "жерт": 9513,
      "56": 9514,
      "работать": 9515,
      "радио": 9516,
      "помощи": 9517,
      "разных": 9518,
      "оба": 9519,
      "маги": 9520,
      "созна": 9521,
      "мощ": 9522,
      "позиции": 9523,
      "пью": 9524,
      "пове": 9525,
      "дор": 9526,
      "значения": 9527,
      "любов": 9528,
      "жем": 9529,
      "тических": 9530,
      "зри": 9531,
      "und": 9532,
      "повы": 9533,
      "самой": 9534,
      "rus": 9535,
      "фили": 9536,
      "последний": 9537,
      "ческая": 9538,
      "ran": 9539,
      "мана": 9540,
      "королев": 9541,
      "хом": 9542,
      "часов": 9543,
      "привы": 9544,
      "вшиеся": 9545,
      "тала": 9546,
      "область": 9547,
      "чку": 9548,
      "чемпионата": 9549,
      "стране": 9550,
      "uni": 9551,
      "1994": 9552,
      "новреме": 9553,
      "ук": 9554,
      "ио": 9555,
      "1991": 9556,
      "российских": 9557,
      "столи": 9558,
      "стно": 9559,
      "демокра": 9560,
      "перио": 9561,
      "мате": 9562,
      "расте": 9563,
      "1941": 9564,
      "заслу": 9565,
      "шен": 9566,
      "регули": 9567,
      "рим": 9568,
      "конца": 9569,
      "ваясь": 9570,
      "коммер": 9571,
      "by": 9572,
      "фир": 9573,
      "играл": 9574,
      "ленин": 9575,
      "валось": 9576,
      "разно": 9577,
      "навер": 9578,
      "устойчи": 9579,
      "тивной": 9580,
      "какие": 9581,
      "экспери": 9582,
      "клуба": 9583,
      "джей": 9584,
      "tive": 9585,
      "ощу": 9586,
      "тику": 9587,
      "вшим": 9588,
      "he": 9589,
      "влияние": 9590,
      "ствен": 9591,
      "юриди": 9592,
      "мать": 9593,
      "остро": 9594,
      "миллиона": 9595,
      "мои": 9596,
      "зан": 9597,
      "опубликова": 9598,
      "института": 9599,
      "расстоя": 9600,
      "спон": 9601,
      "досто": 9602,
      "леку": 9603,
      "самых": 9604,
      "зав": 9605,
      "цар": 9606,
      "меро": 9607,
      "ид": 9608,
      "цвет": 9609,
      "ие": 9610,
      "нике": 9611,
      "значение": 9612,
      "чий": 9613,
      "son": 9614,
      "номе": 9615,
      "бога": 9616,
      "петербург": 9617,
      "публика": 9618,
      "действие": 9619,
      "одновреме": 9620,
      "1992": 9621,
      "силы": 9622,
      "ситуации": 9623,
      "скон": 9624,
      "структуры": 9625,
      "свер": 9626,
      "смотри": 9627,
      "российского": 9628,
      "42": 9629,
      "1995": 9630,
      "государственной": 9631,
      "вии": 9632,
      "кал": 9633,
      "всей": 9634,
      "нель": 9635,
      "are": 9636,
      "порт": 9637,
      "первых": 9638,
      "вича": 9639,
      "жением": 9640,
      "bi": 9641,
      "лий": 9642,
      "земли": 9643,
      "обуче": 9644,
      "гон": 9645,
      "защит": 9646,
      "сильно": 9647,
      "приводи": 9648,
      "брь": 9649,
      "образование": 9650,
      "озе": 9651,
      "намере": 9652,
      "щем": 9653,
      "ke": 9654,
      "консу": 9655,
      "mi": 9656,
      "речь": 9657,
      "ющими": 9658,
      "итоге": 9659,
      "холод": 9660,
      "инже": 9661,
      "религиоз": 9662,
      "вместо": 9663,
      "провин": 9664,
      "характеристи": 9665,
      "tor": 9666,
      "рг": 9667,
      "емый": 9668,
      "фан": 9669,
      "каби": 9670,
      "плате": 9671,
      "улыба": 9672,
      "ходить": 9673,
      "ссылкой": 9674,
      "действительно": 9675,
      "древ": 9676,
      "pol": 9677,
      "инфра": 9678,
      "возможности": 9679,
      "программы": 9680,
      "днев": 9681,
      "отвеча": 9682,
      "роман": 9683,
      "расследова": 9684,
      "приро": 9685,
      "дипло": 9686,
      "войска": 9687,
      "нибудь": 9688,
      "льными": 9689,
      "представитель": 9690,
      "поце": 9691,
      "вью": 9692,
      "уничто": 9693,
      "похоро": 9694,
      "брю": 9695,
      "дево": 9696,
      "cl": 9697,
      "сцена": 9698,
      "улица": 9699,
      "1945": 9700,
      "нился": 9701,
      "фильма": 9702,
      "мировой": 9703,
      "вскоре": 9704,
      "жало": 9705,
      "лах": 9706,
      "ина": 9707,
      "середи": 9708,
      "дали": 9709,
      "пля": 9710,
      "рос": 9711,
      "циони": 9712,
      "точки": 9713,
      "трудо": 9714,
      "вни": 9715,
      "команду": 9716,
      "парт": 9717,
      "хоче": 9718,
      "простран": 9719,
      "ческое": 9720,
      "великой": 9721,
      "компью": 9722,
      "тари": 9723,
      "делать": 9724,
      "кафе": 9725,
      "пострада": 9726,
      "подозре": 9727,
      "уровень": 9728,
      "купа": 9729,
      "уси": 9730,
      "операции": 9731,
      "боя": 9732,
      "довольно": 9733,
      "русской": 9734,
      "женщин": 9735,
      "карту": 9736,
      "корот": 9737,
      "сложно": 9738,
      "емой": 9739,
      "осе": 9740,
      "ko": 9741,
      "gen": 9742,
      "кп": 9743,
      "вышел": 9744,
      "ревно": 9745,
      "сить": 9746,
      "нит": 9747,
      "напря": 9748,
      "говор": 9749,
      "нрави": 9750,
      "говорил": 9751,
      "ционные": 9752,
      "1980": 9753,
      "нюю": 9754,
      "ведё": 9755,
      "поверх": 9756,
      "чек": 9757,
      "1993": 9758,
      "пользу": 9759,
      "ссу": 9760,
      "структура": 9761,
      "тивных": 9762,
      "спаси": 9763,
      "ющую": 9764,
      "фин": 9765,
      "читы": 9766,
      "брат": 9767,
      "анализ": 9768,
      "рекомен": 9769,
      "разру": 9770,
      "сергей": 9771,
      "кори": 9772,
      "уровня": 9773,
      "изо": 9774,
      "бил": 9775,
      "помимо": 9776,
      "отец": 9777,
      "ight": 9778,
      "жены": 9779,
      "por": 9780,
      "систем": 9781,
      "ational": 9782,
      "премии": 9783,
      "хоть": 9784,
      "ционный": 9785,
      "линии": 9786,
      "рань": 9787,
      "пил": 9788,
      "ления": 9789,
      "xix": 9790,
      "ni": 9791,
      "ваний": 9792,
      "президен": 9793,
      "няется": 9794,
      "with": 9795,
      "06": 9796,
      "никам": 9797,
      "транс": 9798,
      "силу": 9799,
      "сигна": 9800,
      "тором": 9801,
      "тенциа": 9802,
      "ул": 9803,
      "надца": 9804,
      "краси": 9805,
      "буде": 9806,
      "ant": 9807,
      "пытался": 9808,
      "чную": 9809,
      "торго": 9810,
      "обслужи": 9811,
      "скре": 9812,
      "неё": 9813,
      "недо": 9814,
      "мл": 9815,
      "press": 9816,
      "воспо": 9817,
      "41": 9818,
      "крупней": 9819,
      "поддержи": 9820,
      "моя": 9821,
      "официальный": 9822,
      "мс": 9823,
      "сначала": 9824,
      "отлича": 9825,
      "мяг": 9826,
      "одновременно": 9827,
      "указыва": 9828,
      "млад": 9829,
      "игр": 9830,
      "тона": 9831,
      "1944": 9832,
      "ha": 9833,
      "ассо": 9834,
      "преступ": 9835,
      "источники": 9836,
      "яв": 9837,
      "08": 9838,
      "65": 9839,
      "многих": 9840,
      "анализа": 9841,
      "дороги": 9842,
      "инициа": 9843,
      "субъек": 9844,
      "волосы": 9845,
      "молча": 9846,
      "чемпион": 9847,
      "действий": 9848,
      "няет": 9849,
      "цве": 9850,
      "ёз": 9851,
      "ремо": 9852,
      "чить": 9853,
      "медаль": 9854,
      "соревно": 9855,
      "бин": 9856,
      "положение": 9857,
      "телям": 9858,
      "знал": 9859,
      "великобритании": 9860,
      "сотрудники": 9861,
      "уи": 9862,
      "принадлежа": 9863,
      "нице": 9864,
      "агентство": 9865,
      "зей": 9866,
      "метри": 9867,
      "доров": 9868,
      "тивы": 9869,
      "общи": 9870,
      "художестве": 9871,
      "целью": 9872,
      "чика": 9873,
      "ok": 9874,
      "ill": 9875,
      "мага": 9876,
      "цион": 9877,
      "йор": 9878,
      "шке": 9879,
      "чество": 9880,
      "языке": 9881,
      "баты": 9882,
      "дан": 9883,
      "огром": 9884,
      "чном": 9885,
      "кну": 9886,
      "лес": 9887,
      "чески": 9888,
      "ud": 9889,
      "позволи": 9890,
      "владе": 9891,
      "pr": 9892,
      "ресур": 9893,
      "горь": 9894,
      "передает": 9895,
      "пасса": 9896,
      "43": 9897,
      "олимпийских": 9898,
      "one": 9899,
      "хол": 9900,
      "честь": 9901,
      "серви": 9902,
      "имеют": 9903,
      "мию": 9904,
      "кей": 9905,
      "осуществля": 9906,
      "наро": 9907,
      "переписи": 9908,
      "нила": 9909,
      "представляет": 9910,
      "аппара": 9911,
      "производства": 9912,
      "джу": 9913,
      "упомина": 9914,
      "главы": 9915,
      "лиц": 9916,
      "сена": 9917,
      "09": 9918,
      "дут": 9919,
      "тельность": 9920,
      "фести": 9921,
      "интервью": 9922,
      "льян": 9923,
      "киев": 9924,
      "sy": 9925,
      "полков": 9926,
      "зрения": 9927,
      "коре": 9928,
      "совершенно": 9929,
      "na": 9930,
      "знако": 9931,
      "конферен": 9932,
      "ус": 9933,
      "начально": 9934,
      "07": 9935,
      "евре": 9936,
      "одну": 9937,
      "сообщается": 9938,
      "русский": 9939,
      "чар": 9940,
      "демонстри": 9941,
      "her": 9942,
      "ходов": 9943,
      "язык": 9944,
      "данный": 9945,
      "глубо": 9946,
      "емого": 9947,
      "чел": 9948,
      "городской": 9949,
      "цвета": 9950,
      "практически": 9951,
      "bn": 9952,
      "urn": 9953,
      "комитета": 9954,
      "серии": 9955,
      "ровали": 9956,
      "ровки": 9957,
      "дат": 9958,
      "коль": 9959,
      "архитек": 9960,
      "мым": 9961,
      "рик": 9962,
      "ужа": 9963,
      "издание": 9964,
      "месяца": 9965,
      "вдруг": 9966,
      "гром": 9967,
      "альных": 9968,
      "лым": 9969,
      "спосо": 9970,
      "таль": 9971,
      "частью": 9972,
      "луй": 9973,
      "газета": 9974,
      "табли": 9975,
      "преимуще": 9976,
      "зачем": 9977,
      "раньше": 9978,
      "исче": 9979,
      "циями": 9980,
      "философи": 9981,
      "ственного": 9982,
      "рых": 9983,
      "сезона": 9984,
      "проз": 9985,
      "col": 9986,
      "большая": 9987,
      "говорит": 9988,
      "языка": 9989,
      "иден": 9990,
      "альбом": 9991,
      "одном": 9992,
      "мок": 9993,
      "члены": 9994,
      "петербур": 9995,
      "конкур": 9996,
      "ang": 9997,
      "веще": 9998,
      "теоре": 9999,
      "крови": 10000,
      "пале": 10001,
      "такая": 10002,
      "жает": 10003,
      "мый": 10004,
      "чности": 10005,
      "похи": 10006,
      "увере": 10007,
      "могли": 10008,
      "получить": 10009,
      "выступле": 10010,
      "действу": 10011,
      "легко": 10012,
      "назначен": 10013,
      "пенси": 10014,
      "сна": 10015,
      "беспо": 10016,
      "моз": 10017,
      "прежде": 10018,
      "молеку": 10019,
      "получила": 10020,
      "моря": 10021,
      "одино": 10022,
      "рения": 10023,
      "двор": 10024,
      "значит": 10025,
      "дальше": 10026,
      "конфлик": 10027,
      "неве": 10028,
      "другими": 10029,
      "ставки": 10030,
      "рису": 10031,
      "чета": 10032,
      "сем": 10033,
      "сериа": 10034,
      "коммента": 10035,
      "приш": 10036,
      "первая": 10037,
      "жо": 10038,
      "хло": 10039,
      "перегово": 10040,
      "рица": 10041,
      "iv": 10042,
      "выну": 10043,
      "1970": 10044,
      "рил": 10045,
      "основном": 10046,
      "рассмотре": 10047,
      "преды": 10048,
      "педа": 10049,
      "итальян": 10050,
      "принял": 10051,
      "тепло": 10052,
      "02": 10053,
      "гина": 10054,
      "лами": 10055,
      "бно": 10056,
      "ляции": 10057,
      "дэ": 10058,
      "пассажи": 10059,
      "австра": 10060,
      "валь": 10061,
      "иденти": 10062,
      "терпе": 10063,
      "рубе": 10064,
      "самом": 10065,
      "1989": 10066,
      "обороны": 10067,
      "интерес": 10068,
      "нять": 10069,
      "мг": 10070,
      "студен": 10071,
      "зон": 10072,
      "департа": 10073,
      "патри": 10074,
      "глаз": 10075,
      "сел": 10076,
      "правительство": 10077,
      "применя": 10078,
      "нией": 10079,
      "ниям": 10080,
      "подчи": 10081,
      "жная": 10082,
      "сток": 10083,
      "безу": 10084,
      "летний": 10085,
      "главный": 10086,
      "вёл": 10087,
      "новая": 10088,
      "думы": 10089,
      "есте": 10090,
      "доме": 10091,
      "управля": 10092,
      "целом": 10093,
      "1960": 10094,
      "тена": 10095,
      "губерна": 10096,
      "исследований": 10097,
      "американский": 10098,
      "шер": 10099,
      "мастер": 10100,
      "участники": 10101,
      "ира": 10102,
      "va": 10103,
      "сделал": 10104,
      "ственность": 10105,
      "большинство": 10106,
      "потенциа": 10107,
      "приходи": 10108,
      "vel": 10109,
      "первую": 10110,
      "спустя": 10111,
      "проблема": 10112,
      "дать": 10113,
      "теории": 10114,
      "цем": 10115,
      "нье": 10116,
      "вшийся": 10117,
      "объясни": 10118,
      "воль": 10119,
      "ace": 10120,
      "сравне": 10121,
      "мероприя": 10122,
      "десяти": 10123,
      "прос": 10124,
      "получили": 10125,
      "гал": 10126,
      "сах": 10127,
      "66": 10128,
      "вшихся": 10129,
      "разработа": 10130,
      "политики": 10131,
      "бывший": 10132,
      "спросил": 10133,
      "фы": 10134,
      "сочи": 10135,
      "жений": 10136,
      "информацию": 10137,
      "нс": 10138,
      "тивные": 10139,
      "библиоте": 10140,
      "летом": 10141,
      "str": 10142,
      "слово": 10143,
      "орден": 10144,
      "ther": 10145,
      "прото": 10146,
      "чо": 10147,
      "пригла": 10148,
      "живо": 10149,
      "анд": 10150,
      "команда": 10151,
      "ума": 10152,
      "старо": 10153,
      "стях": 10154,
      "меньше": 10155,
      "пору": 10156,
      "выя": 10157,
      "тысячи": 10158,
      "щении": 10159,
      "шил": 10160,
      "нём": 10161,
      "болез": 10162,
      "up": 10163,
      "трёх": 10164,
      "gro": 10165,
      "ете": 10166,
      "ющихся": 10167,
      "04": 10168,
      "тит": 10169,
      "arch": 10170,
      "интерфак": 10171,
      "компаний": 10172,
      "чих": 10173,
      "лат": 10174,
      "ck": 10175,
      "согласи": 10176,
      "империи": 10177,
      "острова": 10178,
      "доволь": 10179,
      "располага": 10180,
      "связь": 10181,
      "полномо": 10182,
      "преподава": 10183,
      "мужчина": 10184,
      "распределе": 10185,
      "03": 10186,
      "отношений": 10187,
      "скорее": 10188,
      "искусства": 10189,
      "монасты": 10190,
      "институт": 10191,
      "1943": 10192,
      "секрета": 10193,
      "окончил": 10194,
      "99": 10195,
      "стями": 10196,
      "рый": 10197,
      "гель": 10198,
      "последствии": 10199,
      "ds": 10200,
      "своем": 10201,
      "солн": 10202,
      "происхо": 10203,
      "награды": 10204,
      "женщины": 10205,
      "карты": 10206,
      "моей": 10207,
      "тические": 10208,
      "педаго": 10209,
      "ям": 10210,
      "порту": 10211,
      "чемпионате": 10212,
      "события": 10213,
      "титу": 10214,
      "плохо": 10215,
      "пан": 10216,
      "сотрудников": 10217,
      "vers": 10218,
      "del": 10219,
      "центре": 10220,
      "зависимости": 10221,
      "динами": 10222,
      "зор": 10223,
      "ябрь": 10224,
      "ноги": 10225,
      "плю": 10226,
      "индивиду": 10227,
      "напом": 10228,
      "семье": 10229,
      "самый": 10230,
      "мыс": 10231,
      "76": 10232,
      "ано": 10233,
      "шев": 10234,
      "своими": 10235,
      "тельную": 10236,
      "тете": 10237,
      "ari": 10238,
      "нены": 10239,
      "произошло": 10240,
      "православ": 10241,
      "впоследствии": 10242,
      "жал": 10243,
      "свобод": 10244,
      "боли": 10245,
      "reg": 10246,
      "попа": 10247,
      "чувство": 10248,
      "участников": 10249,
      "миллиарда": 10250,
      "литератур": 10251,
      "продолжи": 10252,
      "рынка": 10253,
      "тического": 10254,
      "fe": 10255,
      "география": 10256,
      "цкий": 10257,
      "выход": 10258,
      "работает": 10259,
      "констан": 10260,
      "первом": 10261,
      "гах": 10262,
      "дне": 10263,
      "лая": 10264,
      "матче": 10265,
      "диссер": 10266,
      "фф": 10267,
      "лова": 10268,
      "командова": 10269,
      "процеду": 10270,
      "туда": 10271,
      "опять": 10272,
      "завод": 10273,
      "прости": 10274,
      "лау": 10275,
      "ственной": 10276,
      "дата": 10277,
      "интернет": 10278,
      "путь": 10279,
      "логических": 10280,
      "ys": 10281,
      "спасибо": 10282,
      "гвар": 10283,
      "пить": 10284,
      "факуль": 10285,
      "советского": 10286,
      "директор": 10287,
      "ответил": 10288,
      "брига": 10289,
      "реж": 10290,
      "шеп": 10291,
      "жным": 10292,
      "играх": 10293,
      "моро": 10294,
      "процесса": 10295,
      "шек": 10296,
      "здания": 10297,
      "int": 10298,
      "представителей": 10299,
      "начало": 10300,
      "системе": 10301,
      "позднее": 10302,
      "оо": 10303,
      "org": 10304,
      "рыва": 10305,
      "isbn": 10306,
      "тую": 10307,
      "доль": 10308,
      "pu": 10309,
      "предыду": 10310,
      "штаб": 10311,
      "марш": 10312,
      "существует": 10313,
      "испыта": 10314,
      "мино": 10315,
      "заседа": 10316,
      "кубка": 10317,
      "обраща": 10318,
      "оцени": 10319,
      "найти": 10320,
      "статьи": 10321,
      "яро": 10322,
      "русского": 10323,
      "iz": 10324,
      "нельзя": 10325,
      "теку": 10326,
      "южной": 10327,
      "движение": 10328,
      "фикси": 10329,
      "бассей": 10330,
      "52": 10331,
      "возбу": 10332,
      "органов": 10333,
      "дал": 10334,
      "станет": 10335,
      "позна": 10336,
      "направи": 10337,
      "класса": 10338,
      "тобой": 10339,
      "напомина": 10340,
      "видно": 10341,
      "fo": 10342,
      "книги": 10343,
      "рекла": 10344,
      "сотрудниче": 10345,
      "резко": 10346,
      "обно": 10347,
      "приве": 10348,
      "мую": 10349,
      "удар": 10350,
      "ческим": 10351,
      "зывать": 10352,
      "ass": 10353,
      "забо": 10354,
      "уж": 10355,
      "редак": 10356,
      "гает": 10357,
      "горе": 10358,
      "преж": 10359,
      "ями": 10360,
      "лежит": 10361,
      "инци": 10362,
      "песни": 10363,
      "кризи": 10364,
      "пришлось": 10365,
      "68": 10366,
      "эмо": 10367,
      "земле": 10368,
      "исследователь": 10369,
      "крова": 10370,
      "теат": 10371,
      "лер": 10372,
      "хок": 10373,
      "государственный": 10374,
      "близи": 10375,
      "матча": 10376,
      "51": 10377,
      "люблю": 10378,
      "тировал": 10379,
      "рован": 10380,
      "выбра": 10381,
      "начали": 10382,
      "pa": 10383,
      "rom": 10384,
      "церковь": 10385,
      "включе": 10386,
      "создания": 10387,
      "лиза": 10388,
      "северной": 10389,
      "тина": 10390,
      "номина": 10391,
      "случи": 10392,
      "стиан": 10393,
      "последу": 10394,
      "телекана": 10395,
      "молоды": 10396,
      "доказа": 10397,
      "городского": 10398,
      "утра": 10399,
      "тивного": 10400,
      "пото": 10401,
      "ical": 10402,
      "мора": 10403,
      "64": 10404,
      "тная": 10405,
      "ётся": 10406,
      "блоки": 10407,
      "рить": 10408,
      "fi": 10409,
      "цели": 10410,
      "начи": 10411,
      "служа": 10412,
      "дам": 10413,
      "подвер": 10414,
      "54": 10415,
      "рина": 10416,
      "вариа": 10417,
      "шин": 10418,
      "неожида": 10419,
      "бах": 10420,
      "кэ": 10421,
      "листиче": 10422,
      "выгля": 10423,
      "des": 10424,
      "форме": 10425,
      "девя": 10426,
      "лабора": 10427,
      "брон": 10428,
      "статус": 10429,
      "мати": 10430,
      "выпуще": 10431,
      "тории": 10432,
      "первое": 10433,
      "неодно": 10434,
      "ack": 10435,
      "стреми": 10436,
      "отмечает": 10437,
      "возь": 10438,
      "рачи": 10439,
      "потребле": 10440,
      "веща": 10441,
      "втор": 10442,
      "общей": 10443,
      "памяти": 10444,
      "доктор": 10445,
      "бак": 10446,
      "железно": 10447,
      "духов": 10448,
      "тим": 10449,
      "кладби": 10450,
      "восстановле": 10451,
      "тивно": 10452,
      "арти": 10453,
      "ссов": 10454,
      "азер": 10455,
      "рк": 10456,
      "кав": 10457,
      "предвари": 10458,
      "опыт": 10459,
      "вице": 10460,
      "ходы": 10461,
      "ждении": 10462,
      "dis": 10463,
      "шить": 10464,
      "университет": 10465,
      "53": 10466,
      "замеча": 10467,
      "бь": 10468,
      "относительно": 10469,
      "конку": 10470,
      "смерть": 10471,
      "активи": 10472,
      "иди": 10473,
      "источник": 10474,
      "путе": 10475,
      "эпи": 10476,
      "семьи": 10477,
      "вёр": 10478,
      "1988": 10479,
      "должность": 10480,
      "могла": 10481,
      "железнодоро": 10482,
      "рот": 10483,
      "своё": 10484,
      "gr": 10485,
      "присоеди": 10486,
      "другим": 10487,
      "здра": 10488,
      "байджа": 10489,
      "вклад": 10490,
      "требования": 10491,
      "ins": 10492,
      "азербайджа": 10493,
      "управление": 10494,
      "pp": 10495,
      "контак": 10496,
      "ждать": 10497,
      "основные": 10498,
      "ственные": 10499,
      "делить": 10500,
      "использовать": 10501,
      "берегу": 10502,
      "russi": 10503,
      "структур": 10504,
      "идет": 10505,
      "высоко": 10506,
      "ждений": 10507,
      "нейро": 10508,
      "ae": 10509,
      "визи": 10510,
      "срок": 10511,
      "падает": 10512,
      "лиги": 10513,
      "герой": 10514,
      "500": 10515,
      "браз": 10516,
      "хотелось": 10517,
      "возника": 10518,
      "прош": 10519,
      "метро": 10520,
      "прокура": 10521,
      "ходили": 10522,
      "выпускники": 10523,
      "ктором": 10524,
      "веря": 10525,
      "смог": 10526,
      "новым": 10527,
      "месяцев": 10528,
      "1942": 10529,
      "комиссии": 10530,
      "гну": 10531,
      "баш": 10532,
      "помощь": 10533,
      "самостоя": 10534,
      "речи": 10535,
      "разве": 10536,
      "отрица": 10537,
      "ros": 10538,
      "тием": 10539,
      "акт": 10540,
      "ca": 10541,
      "афри": 10542,
      "лье": 10543,
      "соответствии": 10544,
      "технологи": 10545,
      "хай": 10546,
      "крым": 10547,
      "науки": 10548,
      "улице": 10549,
      "ах": 10550,
      "ory": 10551,
      "полицей": 10552,
      "серебря": 10553,
      "квали": 10554,
      "края": 10555,
      "вариан": 10556,
      "зал": 10557,
      "войск": 10558,
      "тое": 10559,
      "ладо": 10560,
      "использование": 10561,
      "ковой": 10562,
      "политической": 10563,
      "мужчин": 10564,
      "оч": 10565,
      "шает": 10566,
      "гости": 10567,
      "восточной": 10568,
      "память": 10569,
      "акций": 10570,
      "санк": 10571,
      "рассказал": 10572,
      "инвести": 10573,
      "полиции": 10574,
      "рьез": 10575,
      "нских": 10576,
      "зар": 10577,
      "названием": 10578,
      "98": 10579,
      "кай": 10580,
      "пару": 10581,
      "поколе": 10582,
      "гой": 10583,
      "tim": 10584,
      "говорится": 10585,
      "ated": 10586,
      "гия": 10587,
      "ющиеся": 10588,
      "аналоги": 10589,
      "завтра": 10590,
      "ехал": 10591,
      "national": 10592,
      "рождения": 10593,
      "исти": 10594,
      "ственном": 10595,
      "уста": 10596,
      "ведли": 10597,
      "далеко": 10598,
      "поэ": 10599,
      "банков": 10600,
      "министерства": 10601,
      "обращения": 10602,
      "означа": 10603,
      "лена": 10604,
      "месяц": 10605,
      "квадра": 10606,
      "возрасте": 10607,
      "af": 10608,
      "рон": 10609,
      "мур": 10610,
      "актри": 10611,
      "понял": 10612,
      "поддержа": 10613,
      "море": 10614,
      "участвовал": 10615,
      "плу": 10616,
      "кен": 10617,
      "предме": 10618,
      "посвяще": 10619,
      "крепле": 10620,
      "воде": 10621,
      "иван": 10622,
      "финанси": 10623,
      "77": 10624,
      "that": 10625,
      "здание": 10626,
      "пр": 10627,
      "гали": 10628,
      "московской": 10629,
      "ans": 10630,
      "оценки": 10631,
      "ственный": 10632,
      "аресто": 10633,
      "голу": 10634,
      "кает": 10635,
      "николай": 10636,
      "израиль": 10637,
      "mon": 10638,
      "чая": 10639,
      "ющем": 10640,
      "уг": 10641,
      "ty": 10642,
      "улыбнулся": 10643,
      "создание": 10644,
      "делё": 10645,
      "делу": 10646,
      "выпуска": 10647,
      "непосред": 10648,
      "чинов": 10649,
      "чики": 10650,
      "сюда": 10651,
      "команд": 10652,
      "губы": 10653,
      "ser": 10654,
      "неры": 10655,
      "мум": 10656,
      "ations": 10657,
      "инде": 10658,
      "останови": 10659,
      "образу": 10660,
      "использования": 10661,
      "женный": 10662,
      "авст": 10663,
      "белору": 10664,
      "видов": 10665,
      "основной": 10666,
      "оке": 10667,
      "жизне": 10668,
      "экономики": 10669,
      "лиде": 10670,
      "вынужде": 10671,
      "ure": 10672,
      "статисти": 10673,
      "отличие": 10674,
      "деятель": 10675,
      "сих": 10676,
      "пило": 10677,
      "поддержки": 10678,
      "план": 10679,
      "дав": 10680,
      "альные": 10681,
      "сфере": 10682,
      "ассоциа": 10683,
      "исключе": 10684,
      "постановле": 10685,
      "перевод": 10686,
      "андре": 10687,
      "хии": 10688,
      "бл": 10689,
      "информация": 10690,
      "постоянно": 10691,
      "предпринима": 10692,
      "медленно": 10693,
      "плане": 10694,
      "италии": 10695,
      "максима": 10696,
      "льд": 10697,
      "фами": 10698,
      "неде": 10699,
      "описание": 10700,
      "оби": 10701,
      "трав": 10702,
      "ваю": 10703,
      "хам": 10704,
      "меры": 10705,
      "самое": 10706,
      "кала": 10707,
      "зап": 10708,
      "глазами": 10709,
      "уса": 10710,
      "двумя": 10711,
      "обору": 10712,
      "сосед": 10713,
      "ими": 10714,
      "чат": 10715,
      "главного": 10716,
      "дили": 10717,
      "вздох": 10718,
      "гно": 10719,
      "знаешь": 10720,
      "предела": 10721,
      "защиты": 10722,
      "val": 10723,
      "радо": 10724,
      "услыша": 10725,
      "самолё": 10726,
      "88": 10727,
      "льному": 10728,
      "данной": 10729,
      "сообщалось": 10730,
      "протяже": 10731,
      "ваши": 10732,
      "которому": 10733,
      "ордена": 10734,
      "лак": 10735,
      "поддержку": 10736,
      "большое": 10737,
      "женщина": 10738,
      "посо": 10739,
      "регуляр": 10740,
      "опла": 10741,
      "оформ": 10742,
      "здоров": 10743,
      "оборудова": 10744,
      "охрани": 10745,
      "увеличи": 10746,
      "покры": 10747,
      "домой": 10748,
      "ари": 10749,
      "членов": 10750,
      "раза": 10751,
      "маршру": 10752,
      "тиру": 10753,
      "музей": 10754,
      "швей": 10755,
      "като": 10756,
      "сеть": 10757,
      "комплекс": 10758,
      "экра": 10759,
      "исключи": 10760,
      "учиты": 10761,
      "адап": 10762,
      "усили": 10763,
      "моде": 10764,
      "econ": 10765,
      "кат": 10766,
      "сви": 10767,
      "воспи": 10768,
      "александра": 10769,
      "1930": 10770,
      "российская": 10771,
      "сибир": 10772,
      "следующий": 10773,
      "end": 10774,
      "бара": 10775,
      "групп": 10776,
      "видел": 10777,
      "научно": 10778,
      "оны": 10779,
      "1986": 10780,
      "age": 10781,
      "gu": 10782,
      "69": 10783,
      "рост": 10784,
      "объявле": 10785,
      "редко": 10786,
      "знамени": 10787,
      "дочь": 10788,
      "партий": 10789,
      "льт": 10790,
      "сопрово": 10791,
      "класс": 10792,
      "химиче": 10793,
      "появле": 10794,
      "ладно": 10795,
      "кля": 10796,
      "юно": 10797,
      "академиче": 10798,
      "дож": 10799,
      "капи": 10800,
      "никаких": 10801,
      "интерфакс": 10802,
      "зывают": 10803,
      "неизвест": 10804,
      "1987": 10805,
[...]
