{
  "version": "1.0",
  "truncation": null,
  "padding": null,
  "added_tokens": [
    {
      "id": 0,
      "content": "[PAD]",
      "single_word": false,
      "lstrip": false,
      "rstrip": false,
      "normalized": false,
      "special": true
    },
    {
      "id": 1,
      "content": "[UNK]",
      "single_word": false,
      "lstrip": false,
      "rstrip": false,
      "normalized": false,
      "special": true
    }
  ],
  "normalizer": {
    "type": "Sequence",
    "normalizers": [
      {
        "type": "Lowercase"
      }
    ]
  },
  "pre_tokenizer": {
    "type": "Sequence",
    "pretokenizers": [
      {
        "type": "Whitespace"
      },
      {
        "type": "Punctuation",
        "behavior": "Isolated"
      }
    ]
  },
  "post_processor": null,
  "decoder": null,
  "model": {
    "type": "BPE",
    "dropout": null,
    "unk_token": "[UNK]",
    "continuing_subword_prefix": null,
    "end_of_word_suffix": null,
    "fuse_unk": false,
    "byte_fallback": false,
    "ignore_merges": false,
    "vocab": {
      "[PAD]": 0,
      "[UNK]": 1,
      "\u0002": 2,
      "\u0003": 3,
      "\u0004": 4,
      "\u000f": 5,
      "!": 6,
      "\"": 7,
      "#": 8,
      "$": 9,
      "%": 10,
      "&": 11,
      "'": 12,
      "(": 13,
      ")": 14,
      "*": 15,
      "+": 16,
      ",": 17,
      "-": 18,
      ".": 19,
      "/": 20,
      "0": 21,
      "1": 22,
      "2": 23,
      "3": 24,
      "4": 25,
      "5": 26,
      "6": 27,
      "7": 28,
      "8": 29,
      "9": 30,
      ":": 31,
      ";": 32,
      "<": 33,
      "=": 34,
      ">": 35,
      "?": 36,
      "@": 37,
      "[": 38,
      "\\": 39,
      "]": 40,
      "^": 41,
      "_": 42,
      "`": 43,
      "a": 44,
      "b": 45,
      "c": 46,
      "d": 47,
      "e": 48,
      "f": 49,
      "g": 50,
      "h": 51,
      "i": 52,
      "j": 53,
      "k": 54,
      "l": 55,
      "m": 56,
      "n": 57,
      "o": 58,
      "p": 59,
      "q": 60,
      "r": 61,
      "s": 62,
      "t": 63,
      "u": 64,
      "v": 65,
      "w": 66,
      "x": 67,
      "y": 68,
      "z": 69,
      "{": 70,
      "|": 71,
      "}": 72,
      "~": 73,
      "": 74,
      "": 75,
      "": 76,
      "": 77,
      "": 78,
      "": 79,
      "": 80,
      "": 81,
      "": 82,
      "¡": 83,
      "¢": 84,
      "£": 85,
      "¤": 86,
      "¥": 87,
      "¦": 88,
      "§": 89,
      "¨": 90,
      "©": 91,
      "ª": 92,
      "«": 93,
      "¬": 94,
      "­": 95,
      "®": 96,
      "¯": 97,
      "°": 98,
      "±": 99,
      "²": 100,
      "³": 101,
      "´": 102,
      "µ": 103,
      "·": 104,
      "¸": 105,
      "¹": 106,
      "º": 107,
      "»": 108,
      "¼": 109,
      "½": 110,
      "¾": 111,
      "¿": 112,
      "×": 113,
      "ß": 114,
      "à": 115,
      "á": 116,
      "â": 117,
      "ã": 118,
      "ä": 119,
      "å": 120,
      "æ": 121,
      "ç": 122,
      "è": 123,
      "é": 124,
      "ê": 125,
      "ë": 126,
      "ì": 127,
      "í": 128,
      "î": 129,
      "ï": 130,
      "ð": 131,
      "ñ": 132,
      "ò": 133,
      "ó": 134,
      "ô": 135,
      "õ": 136,
      "ö": 137,
      "÷": 138,
      "ø": 139,
      "ù": 140,
      "ú": 141,
      "û": 142,
      "ü": 143,
      "ý": 144,
      "þ": 145,
      "ÿ": 146,
      "ā": 147,
      "ă": 148,
      "ą": 149,
      "ć": 150,
      "ĉ": 151,
      "č": 152,
      "ď": 153,
      "đ": 154,
      "ē": 155,
      "ĕ": 156,
      "ė": 157,
      "ę": 158,
      "ě": 159,
      "ĝ": 160,
      "ğ": 161,
      "ġ": 162,
      "ģ": 163,
      "ĥ": 164,
      "ħ": 165,
      "ĩ": 166,
      "ī": 167,
      "ĭ": 168,
      "į": 169,
      "ı": 170,
      "ĵ": 171,
      "ķ": 172,
      "ĸ": 173,
      "ĺ": 174,
      "ļ": 175,
      "ľ": 176,
      "ŀ": 177,
      "ł": 178,
      "ń": 179,
      "ņ": 180,
      "ň": 181,
      "ŋ": 182,
      "ō": 183,
      "ŏ": 184,
      "ő": 185,
      "œ": 186,
      "ŕ": 187,
      "ŗ": 188,
      "ř": 189,
      "ś": 190,
      "ŝ": 191,
      "ş": 192,
      "š": 193,
      "ţ": 194,
      "ť": 195,
      "ũ": 196,
      "ū": 197,
      "ŭ": 198,
      "ů": 199,
      "ű": 200,
      "ų": 201,
      "ŵ": 202,
      "ŷ": 203,
      "ź": 204,
      "ż": 205,
      "ž": 206,
      "ſ": 207,
      "ƃ": 208,
      "ƅ": 209,
      "ƌ": 210,
      "ƒ": 211,
      "ƕ": 212,
      "ơ": 213,
      "ƣ": 214,
      "ƨ": 215,
      "ư": 216,
      "ƴ": 217,
      "ƶ": 218,
      "ƽ": 219,
      "ƿ": 220,
      "ǁ": 221,
      "ǂ": 222,
      "ǃ": 223,
      "ǎ": 224,
      "ǐ": 225,
      "ǒ": 226,
      "ǔ": 227,
      "ǘ": 228,
      "ǚ": 229,
      "ǜ": 230,
      "ǝ": 231,
      "ǣ": 232,
      "ǥ": 233,
      "ǩ": 234,
      "ǫ": 235,
      "ǯ": 236,
      "ǰ": 237,
      "ǵ": 238,
      "ǹ": 239,
      "ȁ": 240,
      "ș": 241,
      "ț": 242,
      "ȝ": 243,
      "ȟ": 244,
      "ȥ": 245,
      "ȧ": 246,
      "ȭ": 247,
      "ȯ": 248,
      "ȷ": 249,
      "ɀ": 250,
      "ɋ": 251,
      "ɐ": 252,
      "ɑ": 253,
      "ɒ": 254,
      "ɓ": 255,
      "ɔ": 256,
      "ɕ": 257,
      "ɖ": 258,
      "ɗ": 259,
      "ɘ": 260,
      "ə": 261,
      "ɛ": 262,
      "ɟ": 263,
      "ɠ": 264,
      "ɡ": 265,
      "ɣ": 266,
      "ɤ": 267,
      "ɦ": 268,
      "ɨ": 269,
      "ɪ": 270,
      "ɫ": 271,
      "ɬ": 272,
      "ɯ": 273,
      "ɰ": 274,
      "ɲ": 275,
      "ɵ": 276,
      "ɸ": 277,
      "ɺ": 278,
      "ɾ": 279,
      "ʀ": 280,
      "ʁ": 281,
      "ʃ": 282,
      "ʆ": 283,
      "ʉ": 284,
      "ʊ": 285,
      "ʋ": 286,
      "ʌ": 287,
      "ʎ": 288,
      "ʏ": 289,
      "ʐ": 290,
      "ʑ": 291,
      "ʒ": 292,
      "ʔ": 293,
      "ʕ": 294,
      "ʘ": 295,
      "ʙ": 296,
      "ʝ": 297,
      "ʟ": 298,
      "ʣ": 299,
      "ʤ": 300,
      "ʥ": 301,
      "ʧ": 302,
      "ʨ": 303,
      "ʰ": 304,
      "ʲ": 305,
      "ʷ": 306,
      "ʹ": 307,
      "ʺ": 308,
      "ʻ": 309,
      "ʼ": 310,
      "ʽ": 311,
      "ʾ": 312,
      "ʿ": 313,
      "ˁ": 314,
      "ˆ": 315,
      "ˇ": 316,
      "ˈ": 317,
      "ˊ": 318,
      "ˌ": 319,
      "ː": 320,
      "ˑ": 321,
      "˗": 322,
      "˘": 323,
      "˚": 324,
      "˝": 325,
      "ˠ": 326,
      "ˢ": 327,
      "ˤ": 328,
      "̀": 329,
      "́": 330,
      "̂": 331,
      "̃": 332,
      "̄": 333,
      "̅": 334,
      "̆": 335,
      "̇": 336,
      "̈": 337,
      "̊": 338,
      "̋": 339,
      "̌": 340,
      "̍": 341,
      "̐": 342,
      "̑": 343,
      "̓": 344,
      "̕": 345,
      "̜": 346,
      "̞": 347,
      "̟": 348,
      "̠": 349,
      "̢": 350,
      "̣": 351,
      "̤": 352,
      "̥": 353,
      "̦": 354,
      "̧": 355,
      "̨": 356,
      "̩": 357,
      "̪": 358,
      "̮": 359,
      "̯": 360,
      "̱": 361,
      "̲": 362,
      "̶": 363,
      "̹": 364,
      "̺": 365,
      "̻": 366,
      "̽": 367,
      "͂": 368,
      "ͅ": 369,
      "͊": 370,
      "͑": 371,
      "͗": 372,
      "͘": 373,
      "͜": 374,
      "͟": 375,
      "͡": 376,
      "ͣ": 377,
      "ͤ": 378,
      "΄": 379,
      "ΐ": 380,
      "ά": 381,
      "έ": 382,
      "ή": 383,
      "ί": 384,
      "ΰ": 385,
      "α": 386,
      "β": 387,
      "γ": 388,
      "δ": 389,
      "ε": 390,
      "ζ": 391,
      "η": 392,
      "θ": 393,
      "ι": 394,
      "κ": 395,
      "λ": 396,
      "μ": 397,
      "ν": 398,
      "ξ": 399,
      "ο": 400,
      "π": 401,
      "ρ": 402,
      "ς": 403,
      "σ": 404,
      "τ": 405,
      "υ": 406,
      "φ": 407,
      "χ": 408,
      "ψ": 409,
      "ω": 410,
      "ϊ": 411,
      "ϋ": 412,
      "ό": 413,
      "ύ": 414,
      "ώ": 415,
      "ϐ": 416,
      "ϙ": 417,
      "ϝ": 418,
      "ϣ": 419,
      "ϩ": 420,
      "ϫ": 421,
      "ϭ": 422,
      "ϰ": 423,
      "а": 424,
      "б": 425,
      "в": 426,
      "г": 427,
      "д": 428,
      "е": 429,
      "ж": 430,
      "з": 431,
      "и": 432,
      "й": 433,
      "к": 434,
      "л": 435,
      "м": 436,
      "н": 437,
      "о": 438,
      "п": 439,
      "р": 440,
      "с": 441,
      "т": 442,
      "у": 443,
      "ф": 444,
      "х": 445,
      "ц": 446,
      "ч": 447,
      "ш": 448,
      "щ": 449,
      "ъ": 450,
      "ы": 451,
      "ь": 452,
      "э": 453,
      "ю": 454,
      "я": 455,
      "ѐ": 456,
      "ё": 457,
      "ђ": 458,
      "ѓ": 459,
      "є": 460,
      "ѕ": 461,
      "і": 462,
      "ї": 463,
      "ј": 464,
      "љ": 465,
      "њ": 466,
      "ћ": 467,
      "ќ": 468,
      "ѝ": 469,
      "ў": 470,
      "џ": 471,
      "ѡ": 472,
      "ѣ": 473,
      "ѥ": 474,
      "ѧ": 475,
      "ѩ": 476,
      "ѫ": 477,
      "ѭ": 478,
      "ѯ": 479,
      "ѱ": 480,
      "ѳ": 481,
      "ѵ": 482,
      "ѷ": 483,
      "ѹ": 484,
      "ѿ": 485,
      "҂": 486,
      "҃": 487,
      "ҍ": 488,
      "ґ": 489,
      "ғ": 490,
      "ҕ": 491,
      "җ": 492,
      "ҙ": 493,
      "қ": 494,
      "ҝ": 495,
      "ҟ": 496,
      "ҡ": 497,
      "ң": 498,
      "ҥ": 499,
      "ҧ": 500,
      "ҩ": 501,
      "ҫ": 502,
      "ү": 503,
      "ұ": 504,
      "ҳ": 505,
      "ҷ": 506,
      "ҹ": 507,
      "һ": 508,
      "ӄ": 509,
      "ӆ": 510,
      "ӈ": 511,
      "ӊ": 512,
      "ӏ": 513,
      "ӑ": 514,
      "ӓ": 515,
      "ӕ": 516,
      "ӗ": 517,
      "ә": 518,
      "ӝ": 519,
      "ӟ": 520,
      "ӡ": 521,
      "ӣ": 522,
      "ӥ": 523,
      "ӧ": 524,
      "ө": 525,
      "ӭ": 526,
      "ӯ": 527,
      "ӱ": 528,
      "ӳ": 529,
      "ӵ": 530,
      "ӷ": 531,
      "ӹ": 532,
      "ԁ": 533,
      "ԃ": 534,
      "ԅ": 535,
      "ԇ": 536,
      "ԉ": 537,
      "ԋ": 538,
      "ԍ": 539,
      "ԏ": 540,
      "ԑ": 541,
      "ԓ": 542,
      "ԕ": 543,
      "ԗ": 544,
      "ԙ": 545,
      "ԝ": 546,
      "ԥ": 547,
      "ԧ": 548,
      "ԫ": 549,
      "՛": 550,
      "՝": 551,
      "ա": 552,
      "բ": 553,
      "գ": 554,
      "դ": 555,
      "ե": 556,
      "զ": 557,
      "է": 558,
      "ը": 559,
      "թ": 560,
      "ի": 561,
      "լ": 562,
      "խ": 563,
      "ծ": 564,
      "կ": 565,
      "հ": 566,
      "ձ": 567,
      "ղ": 568,
      "ճ": 569,
      "մ": 570,
      "յ": 571,
      "ն": 572,
      "շ": 573,
      "ո": 574,
      "չ": 575,
      "պ": 576,
      "ջ": 577,
      "ռ": 578,
      "ս": 579,
      "վ": 580,
      "տ": 581,
      "ր": 582,
      "ց": 583,
      "ւ": 584,
      "փ": 585,
      "ք": 586,
      "օ": 587,
      "և": 588,
      "։": 589,
      "֫": 590,
      "ְ": 591,
      "ֲ": 592,
      "ִ": 593,
      "ֵ": 594,
      "ֶ": 595,
      "ַ": 596,
      "ָ": 597,
      "ֹ": 598,
      "ּ": 599,
      "־": 600,
      "ֿ": 601,
      "ׁ": 602,
      "ׂ": 603,
      "א": 604,
      "ב": 605,
      "ג": 606,
      "ד": 607,
      "ה": 608,
      "ו": 609,
      "ז": 610,
      "ח": 611,
      "ט": 612,
      "י": 613,
      "ך": 614,
      "כ": 615,
      "ל": 616,
      "ם": 617,
      "מ": 618,
      "ן": 619,
      "נ": 620,
      "ס": 621,
      "ע": 622,
      "ף": 623,
      "פ": 624,
      "ץ": 625,
      "צ": 626,
      "ק": 627,
      "ר": 628,
      "ש": 629,
      "ת": 630,
      "װ": 631,
      "ױ": 632,
      "ײ": 633,
      "׳": 634,
      "״": 635,
      "،": 636,
      "؟": 637,
      "ء": 638,
      "آ": 639,
      "أ": 640,
      "ؤ": 641,
      "إ": 642,
      "ئ": 643,
      "ا": 644,
      "ب": 645,
      "ة": 646,
      "ت": 647,
      "ث": 648,
      "ج": 649,
      "ح": 650,
      "خ": 651,
      "د": 652,
      "ذ": 653,
      "ر": 654,
      "ز": 655,
      "س": 656,
      "ش": 657,
      "ص": 658,
      "ض": 659,
      "ط": 660,
      "ظ": 661,
      "ع": 662,
      "غ": 663,
      "ؿ": 664,
      "ـ": 665,
      "ف": 666,
      "ق": 667,
      "ك": 668,
      "ل": 669,
      "م": 670,
      "ن": 671,
      "ه": 672,
      "و": 673,
      "ى": 674,
      "ي": 675,
      "ً": 676,
      "ٌ": 677,
      "ٍ": 678,
      "َ": 679,
      "ُ": 680,
      "ِ": 681,
      "ّ": 682,
      "ْ": 683,
      "ٔ": 684,
      "ٗ": 685,
      "٠": 686,
      "٢": 687,
      "ٱ": 688,
      "ٹ": 689,
      "ٽ": 690,
      "پ": 691,
      "ڄ": 692,
      "چ": 693,
      "ڈ": 694,
      "ڑ": 695,
      "ړ": 696,
      "ژ": 697,
      "ڠ": 698,
      "ک": 699,
      "ڪ": 700,
      "ګ": 701,
      "ڬ": 702,
      "گ": 703,
      "ں": 704,
      "ھ": 705,
      "ہ": 706,
      "ی": 707,
      "ێ": 708,
      "ې": 709,
      "ە": 710,
      "۩": 711,
      "۰": 712,
      "۱": 713,
      "۲": 714,
      "۳": 715,
      "۴": 716,
      "۵": 717,
      "۶": 718,
      "۷": 719,
      "۸": 720,
      "۹": 721,
      "ܐ": 722,
      "ܒ": 723,
      "ܕ": 724,
      "ܗ": 725,
      "ܘ": 726,
      "ܚ": 727,
      "ܛ": 728,
      "ܝ": 729,
      "ܟ": 730,
      "ܠ": 731,
      "ܡ": 732,
      "ܢ": 733,
      "ܣ": 734,
      "ܦ": 735,
      "ܨ": 736,
      "ܪ": 737,
      "ܬ": 738,
      "ܵ": 739,
      "ܹ": 740,
      "ܺ": 741,
      "ܻ": 742,
      "ܼ": 743,
      "ܽ": 744,
      "ܿ": 745,
      "݂": 746,
      "ݜ": 747,
      "ݣ": 748,
      "ݨ": 749,
      "ݪ": 750,
      "ँ": 751,
      "ं": 752,
      "ः": 753,
      "अ": 754,
      "आ": 755,
      "इ": 756,
      "ई": 757,
      "उ": 758,
      "ऊ": 759,
      "ऋ": 760,
      "ए": 761,
      "ऑ": 762,
      "क": 763,
      "ख": 764,
      "ग": 765,
      "घ": 766,
      "ङ": 767,
      "च": 768,
      "ज": 769,
      "ञ": 770,
      "ट": 771,
      "ठ": 772,
      "ड": 773,
      "ढ": 774,
      "ण": 775,
      "त": 776,
      "थ": 777,
      "द": 778,
      "ध": 779,
      "न": 780,
      "प": 781,
      "फ": 782,
      "ब": 783,
      "भ": 784,
      "म": 785,
      "य": 786,
      "र": 787,
      "ल": 788,
      "ळ": 789,
      "व": 790,
      "श": 791,
      "ष": 792,
      "स": 793,
      "ह": 794,
      "़": 795,
      "ा": 796,
      "ि": 797,
      "ी": 798,
      "ु": 799,
      "ू": 800,
      "ृ": 801,
      "े": 802,
      "ै": 803,
      "ॉ": 804,
      "ो": 805,
      "्": 806,
      "ॐ": 807,
      "।": 808,
      "॥": 809,
      "०": 810,
      "१": 811,
      "॰": 812,
      "ং": 813,
      "আ": 814,
      "উ": 815,
      "ক": 816,
      "খ": 817,
      "গ": 818,
      "জ": 819,
      "ঞ": 820,
      "ত": 821,
      "থ": 822,
      "দ": 823,
      "ন": 824,
      "ব": 825,
      "ম": 826,
      "য": 827,
      "র": 828,
      "ল": 829,
      "শ": 830,
      "ষ": 831,
      "স": 832,
      "হ": 833,
      "়": 834,
      "া": 835,
      "ি": 836,
      "ী": 837,
      "ু": 838,
      "্": 839,
      "৑": 840,
      "ৰ": 841,
      "৳": 842,
      "ਅ": 843,
      "ਆ": 844,
      "ਈ": 845,
      "ਉ": 846,
      "ਔ": 847,
      "ਕ": 848,
      "ਖ": 849,
      "ਠ": 850,
      "ਣ": 851,
      "ਤ": 852,
      "ਨ": 853,
      "ਮ": 854,
      "ਰ": 855,
      "ਲ": 856,
      "ਾ": 857,
      "ੀ": 858,
      "ੌ": 859,
      "ક": 860,
      "ગ": 861,
      "ચ": 862,
      "ણ": 863,
      "ધ": 864,
      "ર": 865,
      "ળ": 866,
      "ા": 867,
      "ો": 868,
      "இ": 869,
      "க": 870,
      "ச": 871,
      "ஜ": 872,
      "ஞ": 873,
      "ன": 874,
      "ப": 875,
      "ம": 876,
      "ய": 877,
      "ர": 878,
      "ல": 879,
      "ா": 880,
      "ி": 881,
      "ீ": 882,
      "ு": 883,
      "ூ": 884,
      "ெ": 885,
      "ே": 886,
      "ை": 887,
      "ொ": 888,
      "ோ": 889,
      "ௌ": 890,
      "்": 891,
      "ం": 892,
      "బ": 893,
      "ల": 894,
      "ె": 895,
      "్": 896,
      "ಂ": 897,
      "ಅ": 898,
      "ಆ": 899,
      "ಒ": 900,
      "ಕ": 901,
      "ಖ": 902,
      "ಗ": 903,
      "ಚ": 904,
      "ಜ": 905,
      "ಟ": 906,
      "ಠ": 907,
      "ಡ": 908,
      "ಣ": 909,
      "ತ": 910,
      "ಥ": 911,
      "ದ": 912,
      "ಧ": 913,
      "ನ": 914,
      "ಪ": 915,
      "ಬ": 916,
      "ಮ": 917,
      "ಯ": 918,
      "ರ": 919,
      "ಲ": 920,
      "ಳ": 921,
      "ವ": 922,
      "ಶ": 923,
      "ಷ": 924,
      "ಸ": 925,
      "ಹ": 926,
      "ಾ": 927,
      "ಿ": 928,
      "ೀ": 929,
      "ು": 930,
      "ೂ": 931,
      "ೆ": 932,
      "ೇ": 933,
      "ೈ": 934,
      "ೊ": 935,
      "ೋ": 936,
      "ೌ": 937,
      "್": 938,
      "ജ": 939,
      "പ": 940,
      "ര": 941,
      "ള": 942,
      "ാ": 943,
      "ി": 944,
      "ു": 945,
      "ൈ": 946,
      "്": 947,
      "ං": 948,
      "අ": 949,
      "ඔ": 950,
      "ක": 951,
      "ග": 952,
      "ජ": 953,
      "ට": 954,
      "ත": 955,
      "ද": 956,
      "න": 957,
      "ප": 958,
      "ම": 959,
      "ය": 960,
      "ර": 961,
      "ල": 962,
      "ව": 963,
      "ශ": 964,
      "ස": 965,
      "හ": 966,
      "්": 967,
      "ා": 968,
      "ැ": 969,
      "ි": 970,
      "ී": 971,
      "ු": 972,
      "ෙ": 973,
      "ේ": 974,
      "ො": 975,
      "ก": 976,
      "ข": 977,
      "ฃ": 978,
      "ค": 979,
      "ฅ": 980,
      "ฆ": 981,
      "ง": 982,
      "จ": 983,
      "ฉ": 984,
      "ช": 985,
      "ซ": 986,
      "ญ": 987,
      "ฐ": 988,
      "ฒ": 989,
      "ณ": 990,
      "ด": 991,
      "ต": 992,
      "ถ": 993,
      "ท": 994,
      "ธ": 995,
      "น": 996,
      "บ": 997,
      "ป": 998,
      "ผ": 999,
      "ฝ": 1000,
      "พ": 1001,
      "ฟ": 1002,
      "ภ": 1003,
      "ม": 1004,
      "ย": 1005,
      "ร": 1006,
      "ล": 1007,
      "ว": 1008,
      "ศ": 1009,
      "ษ": 1010,
      "ส": 1011,
      "ห": 1012,
      "ฬ": 1013,
      "อ": 1014,
      "ฮ": 1015,
      "ฯ": 1016,
      "ะ": 1017,
      "ั": 1018,
      "า": 1019,
      "ำ": 1020,
      "ิ": 1021,
      "ี": 1022,
      "ื": 1023,
      "ุ": 1024,
      "ู": 1025,
      "ฺ": 1026,
      "เ": 1027,
      "แ": 1028,
      "โ": 1029,
      "ใ": 1030,
      "ไ": 1031,
      "ๆ": 1032,
      "็": 1033,
      "่": 1034,
      "้": 1035,
      "๋": 1036,
      "์": 1037,
      "ํ": 1038,
      "๑": 1039,
      "་": 1040,
      "།": 1041,
      "ཁ": 1042,
      "ག": 1043,
      "ང": 1044,
      "ཆ": 1045,
      "ཎ": 1046,
      "ཏ": 1047,
      "ཐ": 1048,
      "ད": 1049,
      "ན": 1050,
      "པ": 1051,
      "བ": 1052,
      "མ": 1053,
      "ཙ": 1054,
      "ཝ": 1055,
      "ཡ": 1056,
      "ར": 1057,
      "ཤ": 1058,
      "ཥ": 1059,
      "ས": 1060,
      "ཧ": 1061,
      "ཨ": 1062,
      "ཱ": 1063,
      "ི": 1064,
      "ུ": 1065,
      "ེ": 1066,
      "ོ": 1067,
      "ཾ": 1068,
      "ྒ": 1069,
      "ྔ": 1070,
      "ྗ": 1071,
      "ྟ": 1072,
      "ྤ": 1073,
      "ྨ": 1074,
      "ྭ": 1075,
      "ྱ": 1076,
      "ྲ": 1077,
      "ྴ": 1078,
      "ྷ": 1079,
      "က": 1080,
      "ခ": 1081,
      "င": 1082,
      "တ": 1083,
      "ထ": 1084,
      "ပ": 1085,
      "ဗ": 1086,
      "မ": 1087,
      "ရ": 1088,
      "ိ": 1089,
      "ီ": 1090,
      "ု": 1091,
      "ေ": 1092,
      "ဲ": 1093,
      "ံ": 1094,
      "း": 1095,
      "်": 1096,
      "ြ": 1097,
      "ွ": 1098,
      "ှ": 1099,
      "ၵ": 1100,
      "ၶ": 1101,
      "ႆ": 1102,
      "ႈ": 1103,
      "ა": 1104,
      "ბ": 1105,
      "გ": 1106,
      "დ": 1107,
      "ე": 1108,
      "ვ": 1109,
      "ზ": 1110,
      "თ": 1111,
      "ი": 1112,
      "კ": 1113,
      "ლ": 1114,
      "მ": 1115,
      "ნ": 1116,
      "ო": 1117,
      "პ": 1118,
      "ჟ": 1119,
      "რ": 1120,
      "ს": 1121,
      "ტ": 1122,
      "უ": 1123,
      "ფ": 1124,
      "ქ": 1125,
      "ღ": 1126,
      "ყ": 1127,
      "შ": 1128,
      "ჩ": 1129,
      "ც": 1130,
      "ძ": 1131,
      "წ": 1132,
      "ჭ": 1133,
      "ხ": 1134,
      "ჯ": 1135,
      "ჰ": 1136,
      "ჲ": 1137,
      "መ": 1138,
      "ሙ": 1139,
      "ሚ": 1140,
      "ማ": 1141,
      "ሜ": 1142,
      "ም": 1143,
      "ሞ": 1144,
      "ሟ": 1145,
      "ን": 1146,
      "ዕ": 1147,
      "ዳ": 1148,
      "ጉ": 1149,
      "ጊ": 1150,
      "ፙ": 1151,
      "ᐊ": 1152,
      "ᐋ": 1153,
      "ᒃ": 1154,
      "ᓄ": 1155,
      "ᓐ": 1156,
      "ᓯ": 1157,
      "ᔪ": 1158,
      "ᕙ": 1159,
      "ᕿ": 1160,
      "ᖅ": 1161,
      "ᚢ": 1162,
      "ᚣ": 1163,
      "ᚤ": 1164,
      "ᚥ": 1165,
      "ᚹ": 1166,
      "ᚺ": 1167,
      "ᚻ": 1168,
      "ᚼ": 1169,
      "ᛋ": 1170,
      "ᛏ": 1171,
      "ᛡ": 1172,
      "ᝀ": 1173,
      "ᝁ": 1174,
      "ᝂ": 1175,
      "ᝃ": 1176,
      "ᝄ": 1177,
      "ᝅ": 1178,
      "ᝆ": 1179,
      "ᝇ": 1180,
      "ᝈ": 1181,
      "ᝉ": 1182,
      "ᝊ": 1183,
      "ᝋ": 1184,
      "ᝌ": 1185,
      "ᝍ": 1186,
      "ᝎ": 1187,
      "ᝏ": 1188,
      "ᝐ": 1189,
      "ᝑ": 1190,
      "ᝒ": 1191,
      "ᝓ": 1192,
      "ក": 1193,
      "គ": 1194,
      "ង": 1195,
      "ជ": 1196,
      "ដ": 1197,
      "ណ": 1198,
      "ត": 1199,
      "ទ": 1200,
      "ន": 1201,
      "ប": 1202,
      "ម": 1203,
      "រ": 1204,
      "ល": 1205,
      "ស": 1206,
      "ា": 1207,
      "ិ": 1208,
      "ី": 1209,
      "ុ": 1210,
      "ួ": 1211,
      "ោ": 1212,
      "ំ": 1213,
      "ះ": 1214,
      "់": 1215,
      "្": 1216,
      "៛": 1217,
      "᠎": 1218,
      "ᠠ": 1219,
      "ᠤ": 1220,
      "ᠬ": 1221,
      "ᠭ": 1222,
      "ᠯ": 1223,
      "ᠰ": 1224,
      "ᠲ": 1225,
      "ᠷ": 1226,
      "ᴀ": 1227,
      "ᴰ": 1228,
      "ᵂ": 1229,
      "ᵊ": 1230,
      "ᵛ": 1231,
      "ᵞ": 1232,
      "ᶻ": 1233,
      "᷃": 1234,
      "ḋ": 1235,
      "ḍ": 1236,
      "ḏ": 1237,
      "ḑ": 1238,
      "ḗ": 1239,
      "ḥ": 1240,
      "ḫ": 1241,
      "ḭ": 1242,
      "ḱ": 1243,
      "ḳ": 1244,
      "ḵ": 1245,
      "ḷ": 1246,
      "ḿ": 1247,
      "ṁ": 1248,
      "ṃ": 1249,
      "ṅ": 1250,
      "ṇ": 1251,
      "ṍ": 1252,
      "ṑ": 1253,
      "ṓ": 1254,
      "ṙ": 1255,
      "ṛ": 1256,
      "ṡ": 1257,
      "ṣ": 1258,
      "ṭ": 1259,
      "ṯ": 1260,
      "ṷ": 1261,
      "ṹ": 1262,
      "ṽ": 1263,
      "ṿ": 1264,
      "ẓ": 1265,
      "ẖ": 1266,
      "ẗ": 1267,
      "ẟ": 1268,
      "ạ": 1269,
      "ả": 1270,
      "ấ": 1271,
      "ầ": 1272,
      "ậ": 1273,
      "ắ": 1274,
      "ẹ": 1275,
      "ẻ": 1276,
      "ẽ": 1277,
      "ế": 1278,
      "ề": 1279,
      "ể": 1280,
      "ễ": 1281,
      "ệ": 1282,
      "ỉ": 1283,
      "ị": 1284,
      "ọ": 1285,
      "ố": 1286,
      "ồ": 1287,
      "ổ": 1288,
      "ộ": 1289,
      "ớ": 1290,
      "ờ": 1291,
      "ợ": 1292,
      "ụ": 1293,
      "ủ": 1294,
      "ứ": 1295,
      "ừ": 1296,
      "ử": 1297,
      "ữ": 1298,
      "ự": 1299,
      "ỳ": 1300,
      "ỷ": 1301,
      "ỹ": 1302,
      "ἀ": 1303,
      "ἁ": 1304,
      "ἄ": 1305,
      "ἅ": 1306,
      "ἐ": 1307,
      "ἑ": 1308,
      "ἔ": 1309,
      "ἕ": 1310,
      "ἠ": 1311,
      "ἡ": 1312,
      "ἢ": 1313,
      "ἤ": 1314,
      "ἦ": 1315,
      "ἰ": 1316,
      "ἱ": 1317,
      "ἴ": 1318,
      "ἵ": 1319,
      "ἶ": 1320,
      "ἷ": 1321,
      "ὀ": 1322,
      "ὁ": 1323,
      "ὄ": 1324,
      "ὅ": 1325,
      "ὐ": 1326,
      "ὑ": 1327,
      "ὔ": 1328,
      "ὕ": 1329,
      "ὢ": 1330,
      "ὰ": 1331,
      "ὲ": 1332,
      "ὴ": 1333,
      "ὶ": 1334,
      "ὸ": 1335,
      "ό": 1336,
      "ὺ": 1337,
      "ὼ": 1338,
      "ᾀ": 1339,
      "ᾰ": 1340,
      "ᾱ": 1341,
      "ᾳ": 1342,
      "ᾶ": 1343,
      "᾿": 1344,
      "ῃ": 1345,
      "ῆ": 1346,
      "ῑ": 1347,
      "ῖ": 1348,
      "ῥ": 1349,
      "ῦ": 1350,
      "ῳ": 1351,
      "ῶ": 1352,
      "ῷ": 1353,
      "῾": 1354,
      "​": 1355,
      "‌": 1356,
      "‍": 1357,
      "‎": 1358,
      "‏": 1359,
      "‐": 1360,
      "‑": 1361,
      "‒": 1362,
      "–": 1363,
      "—": 1364,
      "―": 1365,
      "‖": 1366,
      "‘": 1367,
      "’": 1368,
      "‚": 1369,
      "‛": 1370,
      "“": 1371,
      "”": 1372,
      "„": 1373,
      "†": 1374,
      "‡": 1375,
      "•": 1376,
      "․": 1377,
      "‥": 1378,
      "…": 1379,
      "‧": 1380,
      "‪": 1381,
      "‬": 1382,
      "‭": 1383,
      "‰": 1384,
      "′": 1385,
      "″": 1386,
      "‹": 1387,
      "›": 1388,
      "‼": 1389,
      "‿": 1390,
      "⁂": 1391,
      "⁄": 1392,
      "⁈": 1393,
      "⁠": 1394,
      "⁡": 1395,
      "⁣": 1396,
      "⁰": 1397,
      "ⁱ": 1398,
      "⁴": 1399,
      "⁵": 1400,
      "⁶": 1401,
      "⁷": 1402,
      "⁸": 1403,
      "⁹": 1404,
      "⁺": 1405,
      "⁻": 1406,
      "ⁿ": 1407,
      "₀": 1408,
      "₁": 1409,
      "₂": 1410,
      "₃": 1411,
      "₄": 1412,
      "₅": 1413,
      "₆": 1414,
      "₇": 1415,
      "₈": 1416,
      "₉": 1417,
      "₋": 1418,
      "₤": 1419,
      "₪": 1420,
      "€": 1421,
      "₰": 1422,
      "₴": 1423,
      "₷": 1424,
      "₹": 1425,
      "₺": 1426,
      "₽": 1427,
      "⃘": 1428,
      "ℂ": 1429,
      "℃": 1430,
      "℉": 1431,
      "ℓ": 1432,
      "℔": 1433,
      "№": 1434,
      "℗": 1435,
      "ℝ": 1436,
      "℠": 1437,
      "™": 1438,
      "ℭ": 1439,
      "ℳ": 1440,
      "ℵ": 1441,
      "⅓": 1442,
      "⅔": 1443,
      "⅛": 1444,
      "ⅰ": 1445,
      "ⅱ": 1446,
      "ⅲ": 1447,
      "ⅳ": 1448,
      "ⅴ": 1449,
      "ⅵ": 1450,
      "ↄ": 1451,
      "←": 1452,
      "↑": 1453,
      "→": 1454,
      "↓": 1455,
      "↔": 1456,
      "↖": 1457,
      "↗": 1458,
      "↘": 1459,
      "↙": 1460,
      "↠": 1461,
      "↦": 1462,
      "⇌": 1463,
      "⇑": 1464,
      "⇒": 1465,
      "⇔": 1466,
      "∀": 1467,
      "∂": 1468,
      "∃": 1469,
      "∅": 1470,
      "∆": 1471,
      "∇": 1472,
      "∈": 1473,
      "∉": 1474,
      "∎": 1475,
      "∑": 1476,
      "−": 1477,
      "∕": 1478,
      "∗": 1479,
      "∘": 1480,
      "∙": 1481,
      "√": 1482,
      "∞": 1483,
      "∠": 1484,
      "∥": 1485,
      "∧": 1486,
      "∨": 1487,
      "∩": 1488,
      "∪": 1489,
      "∫": 1490,
      "∮": 1491,
      "∴": 1492,
      "∼": 1493,
      "≅": 1494,
      "≈": 1495,
      "≠": 1496,
      "≡": 1497,
      "≤": 1498,
      "≥": 1499,
      "≫": 1500,
      "≲": 1501,
      "⊂": 1502,
      "⊃": 1503,
      "⊆": 1504,
      "⊇": 1505,
      "⊕": 1506,
      "⊙": 1507,
      "⊥": 1508,
      "⋅": 1509,
      "⋊": 1510,
      "⌀": 1511,
      "⌶": 1512,
      "⍘": 1513,
      "⏛": 1514,
      "①": 1515,
      "ⓐ": 1516,
      "ⓤ": 1517,
      "⓪": 1518,
      "─": 1519,
      "│": 1520,
      "┌": 1521,
      "┐": 1522,
      "└": 1523,
      "┘": 1524,
      "├": 1525,
      "┤": 1526,
      "┬": 1527,
      "┴": 1528,
      "┼": 1529,
      "▁": 1530,
      "█": 1531,
      "■": 1532,
      "□": 1533,
      "▪": 1534,
      "▶": 1535,
      "○": 1536,
      "◌": 1537,
      "●": 1538,
      "◦": 1539,
      "◯": 1540,
      "◻": 1541,
      "☂": 1542,
      "★": 1543,
      "☆": 1544,
      "☉": 1545,
      "☊": 1546,
      "☋": 1547,
      "☑": 1548,
      "☕": 1549,
      "☝": 1550,
      "☮": 1551,
      "☵": 1552,
      "☺": 1553,
      "♀": 1554,
      "♁": 1555,
      "♂": 1556,
      "♃": 1557,
      "♈": 1558,
      "♠": 1559,
      "♥": 1560,
      "♦": 1561,
      "♪": 1562,
      "♭": 1563,
      "♯": 1564,
      "⚡": 1565,
      "⚢": 1566,
      "⚣": 1567,
      "⚭": 1568,
      "⚽": 1569,
      "⛤": 1570,
      "⛥": 1571,
      "⛦": 1572,
      "⛧": 1573,
      "✈": 1574,
      "✌": 1575,
      "✚": 1576,
      "✝": 1577,
      "✦": 1578,
      "✨": 1579,
      "✶": 1580,
      "❀": 1581,
      "❣": 1582,
      "❤": 1583,
      "❬": 1584,
      "❭": 1585,
      "❸": 1586,
      "❺": 1587,
      "➖": 1588,
      "⟦": 1589,
      "⟧": 1590,
      "⟨": 1591,
      "⟩": 1592,
      "⠀": 1593,
      "⠅": 1594,
      "⠛": 1595,
      "⠩": 1596,
      "⠮": 1597,
      "⠱": 1598,
      "⠵": 1599,
      "⦁": 1600,
      "⩽": 1601,
      "⬆": 1602,
      "⭐": 1603,
      "ⰶ": 1604,
      "ⰿ": 1605,
      "ⱁ": 1606,
      "ⱂ": 1607,
      "ⱄ": 1608,
      "ⱅ": 1609,
      "ⱆ": 1610,
      "ⱌ": 1611,
      "ⱏ": 1612,
      "ⱗ": 1613,
      "ⱨ": 1614,
      "ⱪ": 1615,
      "ⱬ": 1616,
      "ⲁ": 1617,
      "ⲅ": 1618,
      "ⲇ": 1619,
      "ⲉ": 1620,
      "ⲏ": 1621,
      "ⲓ": 1622,
      "ⲕ": 1623,
      "ⲙ": 1624,
      "ⲛ": 1625,
      "ⲟ": 1626,
      "ⲡ": 1627,
      "ⲣ": 1628,
      "ⲥ": 1629,
      "ⲧ": 1630,
      "ⲩ": 1631,
      "ⲭ": 1632,
      "ⲱ": 1633,
      "ⴀ": 1634,
      "ⴁ": 1635,
      "ⴂ": 1636,
      "ⴃ": 1637,
      "ⴄ": 1638,
      "ⴅ": 1639,
      "ⴆ": 1640,
      "ⴇ": 1641,
      "ⴈ": 1642,
      "ⴉ": 1643,
      "ⴊ": 1644,
      "ⴋ": 1645,
      "ⴌ": 1646,
      "ⴍ": 1647,
      "ⴎ": 1648,
      "ⴏ": 1649,
      "ⴐ": 1650,
      "ⴑ": 1651,
      "ⴒ": 1652,
      "ⴓ": 1653,
      "ⴔ": 1654,
      "ⴕ": 1655,
      "ⴖ": 1656,
      "ⴗ": 1657,
      "ⴘ": 1658,
      "ⴙ": 1659,
      "ⴚ": 1660,
      "ⴛ": 1661,
      "ⴜ": 1662,
      "ⴝ": 1663,
      "ⴞ": 1664,
      "ⴟ": 1665,
      "ⴠ": 1666,
      "ⴡ": 1667,
      "ⴢ": 1668,
      "ⴣ": 1669,
      "ⴤ": 1670,
      "ⴥ": 1671,
      "ⴧ": 1672,
      "ⴭ": 1673,
      "ⴰ": 1674,
      "ⴼ": 1675,
      "ⴽ": 1676,
      "ⵉ": 1677,
      "ⵏ": 1678,
      "ⵙ": 1679,
      "ⵜ": 1680,
      "ⵢ": 1681,
      "ⵣ": 1682,
      "⻱": 1683,
      "、": 1684,
      "。": 1685,
      "〃": 1686,
      "々": 1687,
      "〇": 1688,
      "〈": 1689,
      "〉": 1690,
      "《": 1691,
      "》": 1692,
      "「": 1693,
      "」": 1694,
      "『": 1695,
      "』": 1696,
      "【": 1697,
      "】": 1698,
      "〜": 1699,
      "〱": 1700,
      "〲": 1701,
      "〳": 1702,
      "〴": 1703,
      "〵": 1704,
      "〻": 1705,
      "〽": 1706,
      "あ": 1707,
      "い": 1708,
      "う": 1709,
      "え": 1710,
      "お": 1711,
      "か": 1712,
      "が": 1713,
      "き": 1714,
      "ぎ": 1715,
      "く": 1716,
      "ぐ": 1717,
      "け": 1718,
      "げ": 1719,
      "こ": 1720,
      "ご": 1721,
      "さ": 1722,
      "ざ": 1723,
      "し": 1724,
      "じ": 1725,
      "す": 1726,
      "ず": 1727,
      "せ": 1728,
      "ぜ": 1729,
      "そ": 1730,
      "ぞ": 1731,
      "た": 1732,
      "だ": 1733,
      "ち": 1734,
      "ぢ": 1735,
      "っ": 1736,
      "つ": 1737,
      "づ": 1738,
      "て": 1739,
      "で": 1740,
      "と": 1741,
      "ど": 1742,
      "な": 1743,
      "に": 1744,
      "ぬ": 1745,
      "ね": 1746,
      "の": 1747,
      "は": 1748,
      "ば": 1749,
      "ひ": 1750,
      "び": 1751,
      "ぴ": 1752,
      "ふ": 1753,
      "ぶ": 1754,
      "へ": 1755,
      "べ": 1756,
      "ほ": 1757,
      "ぼ": 1758,
      "ぽ": 1759,
      "ま": 1760,
      "み": 1761,
      "む": 1762,
      "め": 1763,
      "も": 1764,
      "ゃ": 1765,
      "や": 1766,
      "ゅ": 1767,
      "ゆ": 1768,
      "ょ": 1769,
      "よ": 1770,
      "ら": 1771,
      "り": 1772,
      "る": 1773,
      "れ": 1774,
      "ろ": 1775,
      "わ": 1776,
      "ゐ": 1777,
      "ゑ": 1778,
      "を": 1779,
      "ん": 1780,
      "ゝ": 1781,
      "ゞ": 1782,
      "ァ": 1783,
      "ア": 1784,
      "ィ": 1785,
      "イ": 1786,
      "ゥ": 1787,
      "ウ": 1788,
      "ェ": 1789,
      "エ": 1790,
      "ォ": 1791,
      "オ": 1792,
      "カ": 1793,
      "ガ": 1794,
      "キ": 1795,
      "ギ": 1796,
      "ク": 1797,
      "グ": 1798,
      "ケ": 1799,
      "ゲ": 1800,
      "コ": 1801,
      "ゴ": 1802,
      "サ": 1803,
      "ザ": 1804,
      "シ": 1805,
      "ジ": 1806,
      "ス": 1807,
      "ズ": 1808,
      "セ": 1809,
      "ゼ": 1810,
      "ソ": 1811,
      "ゾ": 1812,
      "タ": 1813,
      "ダ": 1814,
      "チ": 1815,
      "ヂ": 1816,
      "ッ": 1817,
      "ツ": 1818,
      "ヅ": 1819,
      "テ": 1820,
      "デ": 1821,
      "ト": 1822,
      "ド": 1823,
      "ナ": 1824,
      "ニ": 1825,
      "ネ": 1826,
      "ノ": 1827,
      "ハ": 1828,
      "バ": 1829,
      "パ": 1830,
      "ヒ": 1831,
      "ビ": 1832,
      "ピ": 1833,
      "フ": 1834,
      "ブ": 1835,
      "プ": 1836,
      "ヘ": 1837,
      "ベ": 1838,
      "ペ": 1839,
      "ホ": 1840,
      "ボ": 1841,
      "ポ": 1842,
      "マ": 1843,
      "ミ": 1844,
      "ム": 1845,
      "メ": 1846,
      "モ": 1847,
      "ャ": 1848,
      "ヤ": 1849,
      "ュ": 1850,
      "ユ": 1851,
      "ョ": 1852,
      "ヨ": 1853,
      "ラ": 1854,
      "リ": 1855,
      "ル": 1856,
      "レ": 1857,
      "ロ": 1858,
      "ワ": 1859,
      "ヰ": 1860,
      "ヱ": 1861,
      "ヲ": 1862,
      "ン": 1863,
      "ヴ": 1864,
      "ヶ": 1865,
      "・": 1866,
      "ー": 1867,
      "ヽ": 1868,
      "ㅂ": 1869,
      "ㅇ": 1870,
      "ㅐ": 1871,
      "㲼": 1872,
      "䨺": 1873,
      "一": 1874,
      "丁": 1875,
      "七": 1876,
      "万": 1877,
      "丈": 1878,
      "三": 1879,
      "上": 1880,
      "下": 1881,
      "不": 1882,
      "与": 1883,
      "专": 1884,
      "世": 1885,
      "丘": 1886,
      "丙": 1887,
      "业": 1888,
      "丛": 1889,
      "东": 1890,
      "丝": 1891,
      "両": 1892,
      "两": 1893,
      "严": 1894,
      "並": 1895,
      "个": 1896,
      "中": 1897,
      "丰": 1898,
      "临": 1899,
      "丸": 1900,
      "丹": 1901,
      "为": 1902,
      "主": 1903,
      "举": 1904,
      "久": 1905,
      "么": 1906,
      "义": 1907,
      "之": 1908,
      "乌": 1909,
      "乎": 1910,
      "乐": 1911,
      "乔": 1912,
      "乙": 1913,
      "九": 1914,
      "也": 1915,
      "习": 1916,
      "乡": 1917,
      "书": 1918,
      "乱": 1919,
      "乾": 1920,
      "亀": 1921,
      "亂": 1922,
      "了": 1923,
      "予": 1924,
      "争": 1925,
      "事": 1926,
      "二": 1927,
      "于": 1928,
      "云": 1929,
      "互": 1930,
      "五": 1931,
      "井": 1932,
      "亚": 1933,
      "些": 1934,
      "亜": 1935,
      "亞": 1936,
      "亡": 1937,
      "交": 1938,
      "亥": 1939,
      "亦": 1940,
      "京": 1941,
      "亭": 1942,
      "亮": 1943,
      "亳": 1944,
      "人": 1945,
      "亿": 1946,
      "什": 1947,
      "仁": 1948,
      "仅": 1949,
      "仆": 1950,
      "仇": 1951,
      "今": 1952,
      "介": 1953,
      "仍": 1954,
      "从": 1955,
      "仏": 1956,
      "仓": 1957,
      "仔": 1958,
      "仕": 1959,
      "他": 1960,
      "付": 1961,
      "仙": 1962,
      "仝": 1963,
      "仡": 1964,
      "代": 1965,
      "令": 1966,
      "以": 1967,
      "仫": 1968,
      "们": 1969,
      "仮": 1970,
      "仲": 1971,
      "件": 1972,
      "任": 1973,
      "份": 1974,
      "企": 1975,
      "伊": 1976,
      "伍": 1977,
      "伎": 1978,
      "伏": 1979,
      "伐": 1980,
      "休": 1981,
      "伕": 1982,
      "众": 1983,
      "会": 1984,
      "伝": 1985,
      "传": 1986,
      "伤": 1987,
      "伦": 1988,
      "伪": 1989,
      "伯": 1990,
      "估": 1991,
      "伴": 1992,
      "伷": 1993,
      "伸": 1994,
      "似": 1995,
      "伽": 1996,
      "但": 1997,
      "位": 1998,
      "住": 1999,
      "佐": 2000,
      "佑": 2001,
      "体": 2002,
      "何": 2003,
      "余": 2004,
      "佛": 2005,
      "作": 2006,
      "你": 2007,
      "佩": 2008,
      "佬": 2009,
      "佳": 2010,
      "佾": 2011,
      "使": 2012,
      "來": 2013,
      "例": 2014,
      "侍": 2015,
      "供": 2016,
      "依": 2017,
      "価": 2018,
      "侯": 2019,
      "便": 2020,
      "係": 2021,
      "促": 2022,
      "俄": 2023,
      "俊": 2024,
      "保": 2025,
      "俞": 2026,
      "俟": 2027,
      "俠": 2028,
      "信": 2029,
      "修": 2030,
      "俱": 2031,
      "俳": 2032,
      "俺": 2033,
      "倉": 2034,
      "個": 2035,
      "們": 2036,
      "倒": 2037,
      "候": 2038,
      "借": 2039,
      "倡": 2040,
      "倫": 2041,
      "倭": 2042,
      "倶": 2043,
      "假": 2044,
      "偏": 2045,
      "偓": 2046,
      "做": 2047,
      "健": 2048,
      "側": 2049,
      "偶": 2050,
      "偽": 2051,
      "傑": 2052,
      "傘": 2053,
      "備": 2054,
      "傣": 2055,
      "催": 2056,
      "傳": 2057,
      "働": 2058,
      "像": 2059,
      "僕": 2060,
      "僖": 2061,
      "僧": 2062,
      "僮": 2063,
      "儋": 2064,
      "儒": 2065,
      "優": 2066,
      "儺": 2067,
      "儿": 2068,
      "允": 2069,
      "元": 2070,
      "兄": 2071,
      "充": 2072,
      "兆": 2073,
      "先": 2074,
      "光": 2075,
      "克": 2076,
      "免": 2077,
      "児": 2078,
      "兒": 2079,
      "兖": 2080,
      "党": 2081,
      "兜": 2082,
      "入": 2083,
      "內": 2084,
      "全": 2085,
      "兪": 2086,
      "八": 2087,
      "公": 2088,
      "六": 2089,
      "兰": 2090,
      "共": 2091,
      "关": 2092,
      "兴": 2093,
      "兵": 2094,
      "其": 2095,
      "具": 2096,
      "典": 2097,
      "冀": 2098,
      "内": 2099,
      "円": 2100,
      "冈": 2101,
      "冊": 2102,
      "册": 2103,
      "再": 2104,
      "冑": 2105,
      "写": 2106,
      "军": 2107,
      "农": 2108,
      "冠": 2109,
      "冥": 2110,
      "冫": 2111,
      "冬": 2112,
      "冯": 2113,
      "决": 2114,
      "冶": 2115,
      "冷": 2116,
      "凉": 2117,
      "凍": 2118,
      "凝": 2119,
      "几": 2120,
      "凤": 2121,
      "凭": 2122,
      "凯": 2123,
      "凰": 2124,
      "凱": 2125,
      "出": 2126,
      "击": 2127,
      "函": 2128,
      "刀": 2129,
      "刁": 2130,
      "分": 2131,
      "切": 2132,
      "刊": 2133,
      "刑": 2134,
      "列": 2135,
      "刘": 2136,
      "则": 2137,
      "刚": 2138,
      "创": 2139,
      "初": 2140,
      "判": 2141,
      "別": 2142,
      "利": 2143,
      "别": 2144,
      "到": 2145,
      "制": 2146,
      "刷": 2147,
      "刹": 2148,
      "刺": 2149,
      "刻": 2150,
      "則": 2151,
      "剌": 2152,
      "前": 2153,
      "剑": 2154,
      "剛": 2155,
      "剣": 2156,
      "剧": 2157,
      "副": 2158,
      "創": 2159,
      "劃": 2160,
      "劇": 2161,
      "劉": 2162,
      "劍": 2163,
      "力": 2164,
      "功": 2165,
      "加": 2166,
      "务": 2167,
      "动": 2168,
      "助": 2169,
      "努": 2170,
      "劭": 2171,
      "劲": 2172,
      "劳": 2173,
      "効": 2174,
      "势": 2175,
      "勅": 2176,
      "勇": 2177,
      "勉": 2178,
      "勒": 2179,
      "動": 2180,
      "勘": 2181,
      "務": 2182,
      "勝": 2183,
      "勢": 2184,
      "勤": 2185,
      "勧": 2186,
      "勲": 2187,
      "勸": 2188,
      "勿": 2189,
      "匀": 2190,
      "包": 2191,
      "匈": 2192,
      "匐": 2193,
      "化": 2194,
      "北": 2195,
      "匹": 2196,
      "区": 2197,
      "医": 2198,
      "區": 2199,
      "十": 2200,
      "千": 2201,
      "午": 2202,
      "半": 2203,
      "华": 2204,
      "协": 2205,
      "卑": 2206,
      "卒": 2207,
      "卓": 2208,
      "協": 2209,
      "单": 2210,
      "卖": 2211,
      "南": 2212,
      "単": 2213,
      "博": 2214,
      "卜": 2215,
      "卟": 2216,
      "占": 2217,
      "卡": 2218,
      "卢": 2219,
      "卫": 2220,
      "印": 2221,
      "危": 2222,
      "即": 2223,
      "却": 2224,
      "卷": 2225,
      "卿": 2226,
      "厅": 2227,
      "历": 2228,
      "压": 2229,
      "厖": 2230,
      "厚": 2231,
      "原": 2232,
      "厢": 2233,
      "厥": 2234,
      "厦": 2235,
      "厳": 2236,
      "去": 2237,
      "县": 2238,
      "参": 2239,
      "又": 2240,
      "叉": 2241,
      "及": 2242,
      "友": 2243,
      "双": 2244,
      "反": 2245,
      "収": 2246,
      "发": 2247,
      "叔": 2248,
      "取": 2249,
      "受": 2250,
      "变": 2251,
      "叙": 2252,
      "叛": 2253,
      "叡": 2254,
      "叢": 2255,
      "口": 2256,
      "古": 2257,
      "句": 2258,
      "另": 2259,
      "只": 2260,
      "召": 2261,
      "可": 2262,
      "台": 2263,
      "史": 2264,
      "右": 2265,
      "叶": 2266,
      "号": 2267,
      "司": 2268,
      "吃": 2269,
      "各": 2270,
      "合": 2271,
      "吉": 2272,
      "同": 2273,
      "名": 2274,
      "后": 2275,
      "吐": 2276,
      "向": 2277,
      "吒": 2278,
      "吕": 2279,
      "吗": 2280,
      "君": 2281,
      "吟": 2282,
      "吠": 2283,
      "否": 2284,
      "含": 2285,
      "启": 2286,
      "吳": 2287,
      "吴": 2288,
      "吵": 2289,
      "吸": 2290,
      "吻": 2291,
      "吾": 2292,
      "呂": 2293,
      "呉": 2294,
      "告": 2295,
      "员": 2296,
      "呢": 2297,
      "周": 2298,
      "味": 2299,
      "呼": 2300,
      "命": 2301,
      "咄": 2302,
      "和": 2303,
      "咏": 2304,
      "咥": 2305,
      "咲": 2306,
      "咸": 2307,
      "哀": 2308,
      "品": 2309,
      "哈": 2310,
      "哉": 2311,
      "响": 2312,
      "員": 2313,
      "哥": 2314,
      "哦": 2315,
      "哩": 2316,
      "哪": 2317,
      "哲": 2318,
      "唄": 2319,
      "唇": 2320,
      "唐": 2321,
      "唔": 2322,
      "唯": 2323,
      "商": 2324,
      "啉": 2325,
      "啊": 2326,
      "問": 2327,
      "啓": 2328,
      "啜": 2329,
      "啟": 2330,
      "喀": 2331,
      "善": 2332,
      "喆": 2333,
      "喇": 2334,
      "喜": 2335,
      "喦": 2336,
      "喧": 2337,
      "営": 2338,
      "喷": 2339,
      "喻": 2340,
      "嗢": 2341,
      "嗣": 2342,
      "嗨": 2343,
      "嘉": 2344,
      "嘎": 2345,
      "嘘": 2346,
      "嘩": 2347,
      "噐": 2348,
      "噢": 2349,
      "器": 2350,
      "噶": 2351,
      "囊": 2352,
      "囚": 2353,
      "四": 2354,
      "回": 2355,
      "因": 2356,
      "团": 2357,
      "団": 2358,
      "园": 2359,
      "囱": 2360,
      "図": 2361,
      "围": 2362,
      "囷": 2363,
      "固": 2364,
      "国": 2365,
      "图": 2366,
      "圆": 2367,
      "國": 2368,
      "圍": 2369,
      "園": 2370,
      "圖": 2371,
      "團": 2372,
      "土": 2373,
      "圣": 2374,
      "在": 2375,
      "地": 2376,
      "圳": 2377,
      "场": 2378,
      "坂": 2379,
      "均": 2380,
      "坊": 2381,
      "坎": 2382,
      "坝": 2383,
      "坟": 2384,
      "坤": 2385,
      "坩": 2386,
      "坪": 2387,
      "垂": 2388,
      "型": 2389,
      "垦": 2390,
      "埃": 2391,
      "埋": 2392,
      "城": 2393,
      "埔": 2394,
      "埚": 2395,
      "域": 2396,
      "培": 2397,
      "基": 2398,
      "埼": 2399,
      "堂": 2400,
      "堡": 2401,
      "堤": 2402,
      "堪": 2403,
      "堯": 2404,
      "報": 2405,
      "場": 2406,
      "塁": 2407,
      "塔": 2408,
      "塘": 2409,
      "塚": 2410,
      "塞": 2411,
      "塵": 2412,
      "墓": 2413,
      "増": 2414,
      "墜": 2415,
      "墨": 2416,
      "墳": 2417,
      "壁": 2418,
      "壞": 2419,
      "士": 2420,
      "壬": 2421,
      "壮": 2422,
      "声": 2423,
      "壽": 2424,
      "处": 2425,
      "备": 2426,
      "変": 2427,
      "复": 2428,
      "夏": 2429,
      "夔": 2430,
      "夕": 2431,
      "外": 2432,
      "多": 2433,
      "夜": 2434,
      "夢": 2435,
      "大": 2436,
      "天": 2437,
      "太": 2438,
      "夫": 2439,
      "央": 2440,
      "失": 2441,
      "头": 2442,
      "夷": 2443,
      "夹": 2444,
      "夾": 2445,
      "奄": 2446,
      "奇": 2447,
      "奈": 2448,
      "奉": 2449,
      "奋": 2450,
      "奏": 2451,
      "契": 2452,
      "奔": 2453,
      "套": 2454,
      "奚": 2455,
      "奥": 2456,
      "奧": 2457,
      "奪": 2458,
      "奮": 2459,
      "女": 2460,
      "奴": 2461,
      "好": 2462,
      "如": 2463,
      "妃": 2464,
      "妄": 2465,
      "妇": 2466,
      "妓": 2467,
      "妖": 2468,
      "妙": 2469,
      "妥": 2470,
      "妮": 2471,
      "妹": 2472,
      "妻": 2473,
      "姉": 2474,
      "始": 2475,
      "姐": 2476,
      "姑": 2477,
      "姓": 2478,
      "委": 2479,
      "姚": 2480,
      "姝": 2481,
      "姫": 2482,
      "姬": 2483,
      "姿": 2484,
      "威": 2485,
      "娇": 2486,
      "娑": 2487,
      "娘": 2488,
      "娛": 2489,
      "娱": 2490,
      "婁": 2491,
      "婆": 2492,
      "婚": 2493,
      "婦": 2494,
      "媒": 2495,
      "媛": 2496,
      "媽": 2497,
      "嫡": 2498,
      "嫩": 2499,
      "嬢": 2500,
      "嬴": 2501,
      "子": 2502,
      "孔": 2503,
      "字": 2504,
      "存": 2505,
      "孙": 2506,
      "孚": 2507,
      "孝": 2508,
      "孟": 2509,
      "季": 2510,
      "孤": 2511,
      "学": 2512,
      "孩": 2513,
      "孫": 2514,
      "學": 2515,
      "宁": 2516,
      "它": 2517,
      "宅": 2518,
      "宇": 2519,
      "守": 2520,
      "安": 2521,
      "宋": 2522,
      "完": 2523,
      "宍": 2524,
      "宏": 2525,
      "宗": 2526,
      "官": 2527,
      "宙": 2528,
      "定": 2529,
      "宜": 2530,
      "宝": 2531,
      "实": 2532,
      "実": 2533,
      "客": 2534,
      "宣": 2535,
      "室": 2536,
      "宫": 2537,
      "宮": 2538,
      "宰": 2539,
      "害": 2540,
      "宴": 2541,
      "宵": 2542,
      "家": 2543,
      "容": 2544,
      "宾": 2545,
      "宿": 2546,
      "寂": 2547,
      "寄": 2548,
      "寅": 2549,
      "密": 2550,
      "寇": 2551,
      "富": 2552,
      "寒": 2553,
      "寘": 2554,
      "寛": 2555,
      "寝": 2556,
      "寞": 2557,
      "察": 2558,
      "寡": 2559,
      "實": 2560,
      "寧": 2561,
      "寨": 2562,
      "寶": 2563,
      "寸": 2564,
      "对": 2565,
      "寺": 2566,
      "寻": 2567,
      "导": 2568,
      "対": 2569,
      "寿": 2570,
      "封": 2571,
      "射": 2572,
      "将": 2573,
      "將": 2574,
      "尉": 2575,
      "尊": 2576,
      "導": 2577,
      "小": 2578,
      "少": 2579,
      "尔": 2580,
      "尚": 2581,
      "尤": 2582,
      "尹": 2583,
      "尼": 2584,
      "尽": 2585,
      "尾": 2586,
      "局": 2587,
      "层": 2588,
      "居": 2589,
      "屈": 2590,
      "屋": 2591,
      "屍": 2592,
      "展": 2593,
      "属": 2594,
      "屮": 2595,
      "屯": 2596,
      "山": 2597,
      "岐": 2598,
      "岑": 2599,
      "岗": 2600,
      "岛": 2601,
      "岡": 2602,
      "岩": 2603,
      "岭": 2604,
      "岳": 2605,
      "峒": 2606,
      "峠": 2607,
      "峡": 2608,
      "峨": 2609,
      "峩": 2610,
      "峭": 2611,
      "峰": 2612,
      "島": 2613,
      "峻": 2614,
      "崇": 2615,
      "崎": 2616,
      "崖": 2617,
      "崛": 2618,
      "崧": 2619,
      "崩": 2620,
      "嵊": 2621,
      "嵋": 2622,
      "嵌": 2623,
      "嵐": 2624,
      "嵩": 2625,
      "巋": 2626,
      "川": 2627,
      "州": 2628,
      "巡": 2629,
      "巢": 2630,
      "工": 2631,
      "左": 2632,
      "巨": 2633,
      "差": 2634,
      "己": 2635,
      "已": 2636,
      "巳": 2637,
      "巴": 2638,
      "巷": 2639,
      "巻": 2640,
      "巽": 2641,
      "巾": 2642,
      "市": 2643,
      "布": 2644,
      "师": 2645,
      "帋": 2646,
      "希": 2647,
      "帖": 2648,
      "帚": 2649,
      "帝": 2650,
      "帥": 2651,
      "带": 2652,
      "師": 2653,
      "帮": 2654,
      "帯": 2655,
      "帰": 2656,
      "帳": 2657,
      "常": 2658,
      "帼": 2659,
      "幅": 2660,
      "幕": 2661,
      "干": 2662,
      "平": 2663,
      "年": 2664,
      "并": 2665,
      "幸": 2666,
      "幹": 2667,
      "幻": 2668,
      "幼": 2669,
      "幽": 2670,
      "广": 2671,
      "庁": 2672,
      "広": 2673,
      "庄": 2674,
      "庆": 2675,
      "床": 2676,
      "序": 2677,
      "庐": 2678,
      "库": 2679,
      "应": 2680,
      "底": 2681,
      "店": 2682,
      "庙": 2683,
      "庚": 2684,
      "府": 2685,
      "度": 2686,
      "座": 2687,
      "庫": 2688,
      "庭": 2689,
      "庵": 2690,
      "庶": 2691,
      "康": 2692,
      "庾": 2693,
      "廂": 2694,
      "廃": 2695,
      "廉": 2696,
      "廊": 2697,
      "廓": 2698,
      "廖": 2699,
      "廠": 2700,
      "廣": 2701,
      "廬": 2702,
      "延": 2703,
      "建": 2704,
      "廻": 2705,
      "廾": 2706,
      "开": 2707,
      "弁": 2708,
      "弊": 2709,
      "式": 2710,
      "弓": 2711,
      "引": 2712,
      "弗": 2713,
      "弘": 2714,
      "弟": 2715,
      "张": 2716,
      "弥": 2717,
      "弱": 2718,
      "張": 2719,
      "強": 2720,
      "弼": 2721,
      "弾": 2722,
      "彈": 2723,
      "彌": 2724,
      "归": 2725,
      "当": 2726,
      "录": 2727,
      "彘": 2728,
      "彙": 2729,
      "彝": 2730,
      "形": 2731,
      "彦": 2732,
      "彩": 2733,
      "彪": 2734,
      "彬": 2735,
      "彭": 2736,
      "影": 2737,
      "彳": 2738,
      "役": 2739,
      "彼": 2740,
      "往": 2741,
      "征": 2742,
      "径": 2743,
      "待": 2744,
      "很": 2745,
      "律": 2746,
      "後": 2747,
      "徐": 2748,
      "徒": 2749,
      "従": 2750,
      "徕": 2751,
      "得": 2752,
      "從": 2753,
      "御": 2754,
      "循": 2755,
      "微": 2756,
      "徳": 2757,
      "徵": 2758,
      "德": 2759,
      "徽": 2760,
      "心": 2761,
      "必": 2762,
      "忌": 2763,
      "忍": 2764,
      "志": 2765,
      "忘": 2766,
      "応": 2767,
      "忞": 2768,
      "忠": 2769,
      "快": 2770,
      "念": 2771,
      "忻": 2772,
      "怀": 2773,
      "态": 2774,
      "怒": 2775,
      "思": 2776,
      "怡": 2777,
      "急": 2778,
      "性": 2779,
      "怪": 2780,
      "总": 2781,
      "恋": 2782,
      "恒": 2783,
      "恢": 2784,
      "恥": 2785,
      "恩": 2786,
      "恭": 2787,
      "息": 2788,
      "恰": 2789,
      "恵": 2790,
      "悄": 2791,
      "悉": 2792,
      "悌": 2793,
      "悔": 2794,
      "悟": 2795,
      "患": 2796,
      "悦": 2797,
      "您": 2798,
      "悪": 2799,
      "悬": 2800,
      "悲": 2801,
      "悴": 2802,
      "情": 2803,
      "惑": 2804,
      "惟": 2805,
      "惠": 2806,
      "惱": 2807,
      "想": 2808,
      "愁": 2809,
      "愈": 2810,
      "愉": 2811,
      "愍": 2812,
      "意": 2813,
      "愛": 2814,
      "感": 2815,
      "愷": 2816,
      "慈": 2817,
      "慎": 2818,
      "慕": 2819,
      "慢": 2820,
      "慧": 2821,
      "慰": 2822,
      "慶": 2823,
      "憔": 2824,
      "憲": 2825,
      "憾": 2826,
      "應": 2827,
      "懋": 2828,
      "懐": 2829,
      "懷": 2830,
      "懺": 2831,
      "懿": 2832,
      "戌": 2833,
      "戍": 2834,
      "戏": 2835,
      "成": 2836,
      "我": 2837,
      "或": 2838,
      "战": 2839,
      "戦": 2840,
      "戰": 2841,
      "戲": 2842,
      "戴": 2843,
      "戶": 2844,
      "户": 2845,
      "戸": 2846,
      "戻": 2847,
      "房": 2848,
      "所": 2849,
      "手": 2850,
      "才": 2851,
      "扎": 2852,
      "扒": 2853,
      "扩": 2854,
      "扱": 2855,
      "找": 2856,
      "承": 2857,
      "技": 2858,
      "抄": 2859,
      "把": 2860,
      "抑": 2861,
      "抓": 2862,
      "投": 2863,
      "抗": 2864,
      "折": 2865,
      "抚": 2866,
      "抜": 2867,
      "护": 2868,
      "报": 2869,
      "披": 2870,
      "抱": 2871,
      "抹": 2872,
      "抽": 2873,
      "拉": 2874,
      "拍": 2875,
      "拓": 2876,
      "拔": 2877,
      "拙": 2878,
      "招": 2879,
      "拜": 2880,
      "拡": 2881,
      "拥": 2882,
      "括": 2883,
      "拶": 2884,
      "拷": 2885,
      "拾": 2886,
      "持": 2887,
      "指": 2888,
      "挑": 2889,
      "挣": 2890,
      "挤": 2891,
      "挥": 2892,
      "挨": 2893,
      "振": 2894,
      "挿": 2895,
      "捕": 2896,
      "损": 2897,
      "换": 2898,
      "捨": 2899,
      "据": 2900,
      "捷": 2901,
      "授": 2902,
      "排": 2903,
      "掘": 2904,
      "掛": 2905,
      "探": 2906,
      "接": 2907,
      "控": 2908,
      "推": 2909,
      "掲": 2910,
      "揆": 2911,
      "揉": 2912,
      "提": 2913,
      "插": 2914,
      "揭": 2915,
      "揺": 2916,
      "搔": 2917,
      "搶": 2918,
      "携": 2919,
      "摄": 2920,
      "摘": 2921,
      "摩": 2922,
      "摹": 2923,
      "撃": 2924,
      "撒": 2925,
      "撥": 2926,
      "撫": 2927,
      "播": 2928,
      "撰": 2929,
      "撲": 2930,
      "擊": 2931,
      "操": 2932,
      "據": 2933,
      "支": 2934,
      "收": 2935,
      "攸": 2936,
      "改": 2937,
      "放": 2938,
      "政": 2939,
      "故": 2940,
      "效": 2941,
      "敏": 2942,
      "救": 2943,
      "敖": 2944,
      "教": 2945,
      "散": 2946,
      "敬": 2947,
      "数": 2948,
      "整": 2949,
      "敷": 2950,
      "文": 2951,
      "斉": 2952,
      "斋": 2953,
      "斌": 2954,
      "斎": 2955,
      "斗": 2956,
      "料": 2957,
      "斛": 2958,
      "斜": 2959,
      "斟": 2960,
      "斤": 2961,
      "断": 2962,
      "斯": 2963,
      "新": 2964,
      "斷": 2965,
      "方": 2966,
      "於": 2967,
      "施": 2968,
      "旅": 2969,
      "旋": 2970,
      "族": 2971,
      "旗": 2972,
      "无": 2973,
      "旡": 2974,
      "既": 2975,
      "日": 2976,
      "旦": 2977,
      "旧": 2978,
      "旨": 2979,
      "早": 2980,
      "旭": 2981,
      "时": 2982,
      "昀": 2983,
      "昆": 2984,
      "昌": 2985,
      "明": 2986,
      "昏": 2987,
      "昐": 2988,
      "易": 2989,
      "星": 2990,
      "映": 2991,
      "春": 2992,
      "昫": 2993,
      "昭": 2994,
      "是": 2995,
      "昱": 2996,
      "昴": 2997,
      "昼": 2998,
      "显": 2999,
      "時": 3000,
      "晉": 3001,
      "晋": 3002,
      "晓": 3003,
      "晚": 3004,
      "晝": 3005,
      "晟": 3006,
      "晨": 3007,
      "晩": 3008,
      "普": 3009,
      "景": 3010,
      "晴": 3011,
      "晶": 3012,
      "智": 3013,
      "暁": 3014,
      "暉": 3015,
      "暑": 3016,
      "暖": 3017,
      "暗": 3018,
      "暦": 3019,
      "暨": 3020,
      "暮": 3021,
      "暴": 3022,
      "曄": 3023,
      "曆": 3024,
      "曙": 3025,
      "曜": 3026,
      "曰": 3027,
      "曲": 3028,
      "曳": 3029,
      "更": 3030,
      "書": 3031,
      "曹": 3032,
      "曼": 3033,
      "曽": 3034,
      "曾": 3035,
      "替": 3036,
      "最": 3037,
      "會": 3038,
      "月": 3039,
      "有": 3040,
      "朋": 3041,
      "服": 3042,
      "朔": 3043,
      "朗": 3044,
      "望": 3045,
      "朝": 3046,
      "期": 3047,
      "木": 3048,
      "未": 3049,
      "末": 3050,
      "本": 3051,
      "术": 3052,
      "朱": 3053,
      "朵": 3054,
      "机": 3055,
      "杀": 3056,
      "杂": 3057,
      "权": 3058,
      "杉": 3059,
      "李": 3060,
      "杏": 3061,
      "材": 3062,
      "村": 3063,
      "杓": 3064,
      "杜": 3065,
      "杞": 3066,
      "束": 3067,
      "条": 3068,
      "来": 3069,
      "杨": 3070,
      "杰": 3071,
      "東": 3072,
      "松": 3073,
      "板": 3074,
      "极": 3075,
      "构": 3076,
      "析": 3077,
      "枕": 3078,
      "林": 3079,
      "枚": 3080,
      "果": 3081,
      "枝": 3082,
      "枠": 3083,
      "枢": 3084,
      "枯": 3085,
      "架": 3086,
      "枹": 3087,
      "柊": 3088,
      "柏": 3089,
      "某": 3090,
      "染": 3091,
      "柢": 3092,
      "查": 3093,
      "柯": 3094,
      "柱": 3095,
      "柳": 3096,
      "柴": 3097,
      "柵": 3098,
      "査": 3099,
      "栃": 3100,
      "栄": 3101,
      "标": 3102,
      "树": 3103,
      "栗": 3104,
      "校": 3105,
      "株": 3106,
      "样": 3107,
      "核": 3108,
      "根": 3109,
      "格": 3110,
      "桀": 3111,
      "桂": 3112,
      "案": 3113,
      "桌": 3114,
      "桐": 3115,
      "桑": 3116,
      "桓": 3117,
      "桔": 3118,
      "桜": 3119,
      "桥": 3120,
      "桶": 3121,
      "梁": 3122,
      "梅": 3123,
      "梦": 3124,
      "梧": 3125,
      "梨": 3126,
      "梯": 3127,
      "棋": 3128,
      "棒": 3129,
      "棘": 3130,
      "棠": 3131,
      "森": 3132,
      "棻": 3133,
      "椅": 3134,
      "植": 3135,
      "検": 3136,
      "椿": 3137,
      "楀": 3138,
      "楊": 3139,
      "楚": 3140,
      "楞": 3141,
      "業": 3142,
      "楯": 3143,
      "極": 3144,
      "楷": 3145,
      "楼": 3146,
      "楽": 3147,
      "概": 3148,
      "榆": 3149,
      "榊": 3150,
      "榕": 3151,
      "榮": 3152,
      "構": 3153,
      "様": 3154,
      "樂": 3155,
      "樊": 3156,
      "標": 3157,
      "模": 3158,
      "樣": 3159,
      "権": 3160,
      "横": 3161,
      "樱": 3162,
      "樹": 3163,
      "樽": 3164,
      "橋": 3165,
      "機": 3166,
      "檀": 3167,
      "檻": 3168,
      "櫛": 3169,
      "權": 3170,
      "欠": 3171,
      "次": 3172,
      "欣": 3173,
      "欧": 3174,
      "欲": 3175,
      "欽": 3176,
      "歌": 3177,
      "歐": 3178,
      "歙": 3179,
      "歡": 3180,
      "止": 3181,
      "正": 3182,
      "此": 3183,
      "步": 3184,
      "武": 3185,
      "歩": 3186,
      "歳": 3187,
      "歴": 3188,
      "歸": 3189,
      "死": 3190,
      "残": 3191,
      "殴": 3192,
      "段": 3193,
      "殷": 3194,
      "殻": 3195,
      "殿": 3196,
      "毁": 3197,
      "毅": 3198,
      "母": 3199,
      "每": 3200,
      "毒": 3201,
      "比": 3202,
      "毕": 3203,
      "毗": 3204,
      "毛": 3205,
      "氏": 3206,
      "氐": 3207,
      "民": 3208,
      "气": 3209,
      "気": 3210,
      "氢": 3211,
      "氣": 3212,
      "氧": 3213,
      "氨": 3214,
      "水": 3215,
      "氵": 3216,
      "氷": 3217,
      "永": 3218,
      "氺": 3219,
      "汀": 3220,
      "求": 3221,
      "汉": 3222,
      "汐": 3223,
      "汕": 3224,
      "汗": 3225,
      "汝": 3226,
      "江": 3227,
      "池": 3228,
      "汤": 3229,
      "汨": 3230,
      "汪": 3231,
      "汲": 3232,
      "汶": 3233,
      "決": 3234,
      "汽": 3235,
      "汾": 3236,
      "沁": 3237,
      "沂": 3238,
      "沃": 3239,
      "沅": 3240,
      "沈": 3241,
      "沉": 3242,
      "沌": 3243,
      "沒": 3244,
      "沔": 3245,
      "沖": 3246,
      "沙": 3247,
      "沛": 3248,
      "没": 3249,
      "沢": 3250,
      "沧": 3251,
      "沫": 3252,
      "沮": 3253,
      "河": 3254,
      "油": 3255,
      "治": 3256,
      "沼": 3257,
      "沽": 3258,
      "沾": 3259,
      "沿": 3260,
      "況": 3261,
      "泃": 3262,
      "泉": 3263,
      "法": 3264,
      "泗": 3265,
      "泡": 3266,
      "波": 3267,
      "泣": 3268,
      "泥": 3269,
      "注": 3270,
      "泫": 3271,
      "泰": 3272,
      "泳": 3273,
      "泵": 3274,
      "泺": 3275,
      "泾": 3276,
      "洋": 3277,
      "洗": 3278,
      "洛": 3279,
      "洞": 3280,
      "津": 3281,
      "洪": 3282,
      "洮": 3283,
      "洲": 3284,
      "洸": 3285,
      "活": 3286,
      "派": 3287,
      "流": 3288,
      "浅": 3289,
      "测": 3290,
      "浍": 3291,
      "济": 3292,
      "浑": 3293,
      "浓": 3294,
      "浔": 3295,
      "浙": 3296,
      "浚": 3297,
      "浦": 3298,
      "浩": 3299,
      "浪": 3300,
      "浮": 3301,
      "海": 3302,
      "浿": 3303,
      "涂": 3304,
      "消": 3305,
      "涉": 3306,
      "涌": 3307,
      "涙": 3308,
      "涞": 3309,
      "涯": 3310,
      "液": 3311,
      "涼": 3312,
      "涿": 3313,
      "淀": 3314,
      "淄": 3315,
      "淇": 3316,
      "淑": 3317,
      "淙": 3318,
      "淮": 3319,
      "深": 3320,
      "淳": 3321,
      "淵": 3322,
      "混": 3323,
      "淺": 3324,
      "清": 3325,
      "渓": 3326,
      "渔": 3327,
      "渠": 3328,
      "渡": 3329,
      "温": 3330,
      "渭": 3331,
      "港": 3332,
      "游": 3333,
      "渾": 3334,
      "湖": 3335,
      "湘": 3336,
      "湯": 3337,
      "湾": 3338,
      "満": 3339,
      "源": 3340,
      "準": 3341,
      "溝": 3342,
      "溪": 3343,
      "溫": 3344,
      "溶": 3345,
      "溺": 3346,
      "滃": 3347,
      "滅": 3348,
      "滕": 3349,
      "滚": 3350,
      "滝": 3351,
      "满": 3352,
      "滨": 3353,
      "滴": 3354,
      "滸": 3355,
      "滿": 3356,
      "漁": 3357,
      "漓": 3358,
      "漠": 3359,
      "漢": 3360,
      "漫": 3361,
      "漳": 3362,
      "潍": 3363,
      "潔": 3364,
      "潘": 3365,
      "潜": 3366,
      "潞": 3367,
      "潢": 3368,
      "潭": 3369,
      "潮": 3370,
      "澂": 3371,
      "澄": 3372,
      "澤": 3373,
      "澧": 3374,
      "激": 3375,
      "濟": 3376,
      "濡": 3377,
      "濫": 3378,
      "濬": 3379,
      "瀑": 3380,
      "瀚": 3381,
      "瀬": 3382,
      "灣": 3383,
      "火": 3384,
      "灭": 3385,
      "灯": 3386,
      "灵": 3387,
      "炊": 3388,
      "炎": 3389,
      "炤": 3390,
      "炳": 3391,
      "炸": 3392,
      "点": 3393,
      "為": 3394,
      "烁": 3395,
      "烈": 3396,
      "烏": 3397,
      "烟": 3398,
      "热": 3399,
      "烷": 3400,
      "烽": 3401,
      "焉": 3402,
      "無": 3403,
      "焦": 3404,
      "焯": 3405,
      "然": 3406,
      "煎": 3407,
      "煙": 3408,
      "照": 3409,
      "煩": 3410,
      "熄": 3411,
      "熊": 3412,
      "熙": 3413,
      "熟": 3414,
      "熱": 3415,
      "熵": 3416,
      "熾": 3417,
      "燃": 3418,
      "燕": 3419,
      "營": 3420,
      "燦": 3421,
      "爟": 3422,
      "爱": 3423,
      "爵": 3424,
      "父": 3425,
      "爸": 3426,
      "爺": 3427,
      "爽": 3428,
      "爾": 3429,
      "片": 3430,
      "版": 3431,
      "牘": 3432,
      "牙": 3433,
      "牛": 3434,
      "牟": 3435,
      "牡": 3436,
      "牧": 3437,
      "物": 3438,
      "特": 3439,
      "犬": 3440,
      "状": 3441,
      "狂": 3442,
      "狐": 3443,
      "狗": 3444,
      "狩": 3445,
      "独": 3446,
      "狮": 3447,
      "狼": 3448,
      "猎": 3449,
      "猗": 3450,
      "猛": 3451,
      "猜": 3452,
      "猫": 3453,
      "献": 3454,
      "獅": 3455,
      "獣": 3456,
      "獨": 3457,
      "獲": 3458,
      "玄": 3459,
      "率": 3460,
      "玉": 3461,
      "王": 3462,
      "玛": 3463,
      "环": 3464,
      "现": 3465,
      "珍": 3466,
      "珠": 3467,
      "珪": 3468,
      "班": 3469,
      "現": 3470,
      "球": 3471,
      "琅": 3472,
      "理": 3473,
      "琉": 3474,
      "琪": 3475,
      "琮": 3476,
      "琴": 3477,
      "琼": 3478,
      "瑊": 3479,
      "瑕": 3480,
      "瑞": 3481,
      "瑟": 3482,
      "瑶": 3483,
      "璁": 3484,
      "璐": 3485,
      "璝": 3486,
      "璞": 3487,
      "環": 3488,
      "瓊": 3489,
      "瓜": 3490,
      "瓦": 3491,
      "瓯": 3492,
      "瓶": 3493,
      "甘": 3494,
      "甚": 3495,
      "生": 3496,
      "産": 3497,
      "用": 3498,
      "甫": 3499,
      "田": 3500,
      "由": 3501,
      "甲": 3502,
      "申": 3503,
      "电": 3504,
      "男": 3505,
      "町": 3506,
      "画": 3507,
      "界": 3508,
      "畑": 3509,
      "留": 3510,
      "略": 3511,
      "番": 3512,
      "畫": 3513,
      "異": 3514,
      "疆": 3515,
      "疏": 3516,
      "疑": 3517,
      "疗": 3518,
      "疫": 3519,
      "疲": 3520,
      "疾": 3521,
      "病": 3522,
      "痛": 3523,
      "痹": 3524,
      "瘍": 3525,
      "療": 3526,
      "発": 3527,
      "登": 3528,
      "發": 3529,
      "白": 3530,
      "百": 3531,
      "的": 3532,
      "皇": 3533,
      "皋": 3534,
      "皖": 3535,
      "皝": 3536,
      "盆": 3537,
      "益": 3538,
      "盐": 3539,
      "盘": 3540,
      "盛": 3541,
      "盟": 3542,
      "盡": 3543,
      "監": 3544,
      "盤": 3545,
      "目": 3546,
      "盱": 3547,
      "直": 3548,
      "相": 3549,
      "省": 3550,
      "眉": 3551,
      "看": 3552,
      "県": 3553,
      "眞": 3554,
      "真": 3555,
      "眠": 3556,
      "眩": 3557,
      "着": 3558,
      "督": 3559,
      "睿": 3560,
      "瞳": 3561,
      "瞻": 3562,
      "瞿": 3563,
      "矢": 3564,
      "矣": 3565,
      "知": 3566,
      "短": 3567,
      "石": 3568,
      "矿": 3569,
      "砀": 3570,
      "码": 3571,
      "砂": 3572,
      "研": 3573,
      "砦": 3574,
      "破": 3575,
      "砷": 3576,
      "础": 3577,
      "硅": 3578,
      "硏": 3579,
      "硤": 3580,
      "硫": 3581,
      "确": 3582,
      "碧": 3583,
      "碱": 3584,
      "碳": 3585,
      "確": 3586,
      "碼": 3587,
      "磨": 3588,
      "磬": 3589,
      "磷": 3590,
      "示": 3591,
      "礼": 3592,
      "社": 3593,
      "祉": 3594,
      "祖": 3595,
      "祗": 3596,
      "祝": 3597,
      "神": 3598,
      "祥": 3599,
      "祭": 3600,
      "祴": 3601,
      "祿": 3602,
      "禁": 3603,
      "禄": 3604,
      "禅": 3605,
      "禍": 3606,
      "福": 3607,
      "禛": 3608,
      "禮": 3609,
      "禹": 3610,
      "离": 3611,
      "秀": 3612,
      "私": 3613,
      "秋": 3614,
      "种": 3615,
      "科": 3616,
      "秘": 3617,
      "秦": 3618,
      "秩": 3619,
      "积": 3620,
      "移": 3621,
      "程": 3622,
      "稚": 3623,
      "種": 3624,
      "稳": 3625,
      "稷": 3626,
      "稽": 3627,
      "稿": 3628,
      "穂": 3629,
      "積": 3630,
      "穎": 3631,
      "穗": 3632,
      "穣": 3633,
      "穴": 3634,
      "究": 3635,
      "空": 3636,
      "突": 3637,
      "窄": 3638,
      "窓": 3639,
      "窗": 3640,
      "窟": 3641,
      "窪": 3642,
      "窺": 3643,
      "立": 3644,
      "站": 3645,
      "竜": 3646,
      "章": 3647,
      "童": 3648,
      "端": 3649,
      "競": 3650,
      "竹": 3651,
      "笈": 3652,
      "笑": 3653,
      "笔": 3654,
      "笥": 3655,
      "笨": 3656,
      "第": 3657,
      "笹": 3658,
      "筆": 3659,
      "等": 3660,
      "筑": 3661,
      "答": 3662,
      "策": 3663,
      "筠": 3664,
      "筧": 3665,
      "简": 3666,
      "箇": 3667,
      "算": 3668,
      "管": 3669,
      "箭": 3670,
      "箱": 3671,
      "節": 3672,
      "範": 3673,
      "篆": 3674,
      "篇": 3675,
      "築": 3676,
      "篷": 3677,
      "簇": 3678,
      "簡": 3679,
      "簪": 3680,
      "籍": 3681,
      "籔": 3682,
      "籠": 3683,
      "米": 3684,
      "类": 3685,
      "粉": 3686,
      "粒": 3687,
      "粤": 3688,
      "粥": 3689,
      "粧": 3690,
      "粵": 3691,
      "精": 3692,
      "糒": 3693,
      "糖": 3694,
      "糸": 3695,
      "系": 3696,
      "紀": 3697,
      "約": 3698,
      "紅": 3699,
      "紇": 3700,
      "納": 3701,
      "紐": 3702,
      "紓": 3703,
      "純": 3704,
      "紙": 3705,
      "素": 3706,
      "索": 3707,
      "紫": 3708,
      "累": 3709,
      "細": 3710,
      "終": 3711,
      "絃": 3712,
      "組": 3713,
      "経": 3714,
      "結": 3715,
      "絕": 3716,
      "絡": 3717,
      "統": 3718,
      "絵": 3719,
      "絶": 3720,
      "經": 3721,
      "継": 3722,
      "続": 3723,
      "維": 3724,
      "網": 3725,
      "綽": 3726,
      "綿": 3727,
      "総": 3728,
      "緑": 3729,
      "緒": 3730,
      "線": 3731,
      "緞": 3732,
      "編": 3733,
      "緯": 3734,
      "練": 3735,
      "縁": 3736,
      "縄": 3737,
      "縊": 3738,
      "縫": 3739,
      "縮": 3740,
      "總": 3741,
      "繁": 3742,
      "繪": 3743,
      "繼": 3744,
      "纂": 3745,
      "續": 3746,
      "红": 3747,
      "约": 3748,
      "级": 3749,
      "纪": 3750,
      "纳": 3751,
      "纸": 3752,
      "线": 3753,
      "组": 3754,
      "绅": 3755,
      "细": 3756,
      "织": 3757,
      "终": 3758,
      "绍": 3759,
      "经": 3760,
      "结": 3761,
      "绘": 3762,
      "给": 3763,
      "络": 3764,
      "统": 3765,
      "绥": 3766,
      "绪": 3767,
      "续": 3768,
      "维": 3769,
      "绵": 3770,
      "综": 3771,
      "缓": 3772,
      "缘": 3773,
      "缩": 3774,
      "缺": 3775,
      "网": 3776,
      "罕": 3777,
      "罗": 3778,
      "罘": 3779,
      "罢": 3780,
      "罪": 3781,
      "置": 3782,
      "罰": 3783,
      "署": 3784,
      "羅": 3785,
      "羊": 3786,
      "羌": 3787,
      "美": 3788,
      "羟": 3789,
      "羡": 3790,
      "群": 3791,
      "義": 3792,
      "羯": 3793,
      "羲": 3794,
      "羽": 3795,
      "翁": 3796,
      "翊": 3797,
      "翌": 3798,
      "翎": 3799,
      "習": 3800,
      "翔": 3801,
      "翠": 3802,
      "翬": 3803,
      "翰": 3804,
      "翻": 3805,
      "翼": 3806,
      "翽": 3807,
      "老": 3808,
      "考": 3809,
      "者": 3810,
      "耆": 3811,
      "而": 3812,
      "耏": 3813,
      "耐": 3814,
      "耒": 3815,
      "耗": 3816,
      "耶": 3817,
      "聂": 3818,
      "聊": 3819,
      "联": 3820,
      "聖": 3821,
      "聚": 3822,
      "聞": 3823,
      "聯": 3824,
      "聲": 3825,
      "聽": 3826,
      "肃": 3827,
      "肅": 3828,
      "肇": 3829,
      "肉": 3830,
      "肌": 3831,
      "肖": 3832,
      "肥": 3833,
      "育": 3834,
      "肽": 3835,
      "肾": 3836,
      "背": 3837,
      "胜": 3838,
      "胞": 3839,
      "胡": 3840,
      "胤": 3841,
      "胶": 3842,
      "能": 3843,
      "脂": 3844,
      "脇": 3845,
      "脫": 3846,
      "腆": 3847,
      "腊": 3848,
      "腫": 3849,
      "腰": 3850,
      "腺": 3851,
      "膏": 3852,
      "膜": 3853,
      "膳": 3854,
      "臘": 3855,
      "臣": 3856,
      "臨": 3857,
      "自": 3858,
      "臯": 3859,
      "至": 3860,
      "致": 3861,
      "臺": 3862,
      "與": 3863,
      "興": 3864,
      "舉": 3865,
      "舍": 3866,
      "舒": 3867,
      "舜": 3868,
      "舞": 3869,
      "舟": 3870,
      "航": 3871,
      "般": 3872,
      "舰": 3873,
      "船": 3874,
      "艇": 3875,
      "艚": 3876,
      "艦": 3877,
      "良": 3878,
      "色": 3879,
      "艶": 3880,
      "艺": 3881,
      "艾": 3882,
      "节": 3883,
      "芒": 3884,
      "芙": 3885,
      "芜": 3886,
      "芦": 3887,
      "芬": 3888,
      "芮": 3889,
      "花": 3890,
      "芳": 3891,
      "芷": 3892,
      "芸": 3893,
      "苏": 3894,
      "苗": 3895,
      "苞": 3896,
      "若": 3897,
      "苦": 3898,
      "英": 3899,
      "苷": 3900,
      "茂": 3901,
      "范": 3902,
      "茨": 3903,
      "茶": 3904,
      "茹": 3905,
      "荃": 3906,
      "荆": 3907,
      "草": 3908,
      "荏": 3909,
      "荒": 3910,
      "荖": 3911,
      "荘": 3912,
      "荣": 3913,
      "荧": 3914,
      "荫": 3915,
      "药": 3916,
      "荷": 3917,
      "莆": 3918,
      "莊": 3919,
      "莎": 3920,
      "莒": 3921,
      "莨": 3922,
      "莫": 3923,
      "莱": 3924,
      "莲": 3925,
      "获": 3926,
      "莽": 3927,
      "菅": 3928,
      "菊": 3929,
      "菓": 3930,
      "菜": 3931,
      "菩": 3932,
      "華": 3933,
      "萁": 3934,
      "萊": 3935,
      "萌": 3936,
      "萍": 3937,
      "营": 3938,
      "萨": 3939,
      "萩": 3940,
      "萬": 3941,
      "落": 3942,
      "葉": 3943,
      "著": 3944,
      "葛": 3945,
      "葭": 3946,
      "葱": 3947,
      "葵": 3948,
      "蒋": 3949,
      "蒙": 3950,
      "蒨": 3951,
      "蒼": 3952,
      "蓄": 3953,
      "蓉": 3954,
      "蓋": 3955,
      "蓟": 3956,
      "蓮": 3957,
      "蓼": 3958,
      "蔑": 3959,
      "蔡": 3960,
      "蔣": 3961,
      "蔵": 3962,
      "蕙": 3963,
      "蕤": 3964,
      "蕭": 3965,
      "薄": 3966,
      "薇": 3967,
      "薔": 3968,
      "薙": 3969,
      "薛": 3970,
      "薦": 3971,
      "薩": 3972,
      "薰": 3973,
      "藍": 3974,
      "藏": 3975,
      "藝": 3976,
      "藤": 3977,
      "藥": 3978,
      "藩": 3979,
      "藻": 3980,
      "蘆": 3981,
      "蘇": 3982,
      "蘭": 3983,
      "虎": 3984,
      "虏": 3985,
      "虐": 3986,
      "處": 3987,
      "虛": 3988,
      "虞": 3989,
      "號": 3990,
      "虫": 3991,
      "虹": 3992,
      "蛇": 3993,
      "蛉": 3994,
      "蛙": 3995,
      "蛛": 3996,
      "蛮": 3997,
      "蜘": 3998,
      "蜜": 3999,
      "蜻": 4000,
      "蝶": 4001,
      "融": 4002,
      "螺": 4003,
      "蠕": 4004,
      "蠶": 4005,
      "血": 4006,
      "衆": 4007,
      "行": 4008,
      "術": 4009,
      "街": 4010,
      "衙": 4011,
      "衛": 4012,
      "衝": 4013,
      "衞": 4014,
      "衡": 4015,
      "衢": 4016,
      "衣": 4017,
      "表": 4018,
      "衰": 4019,
      "袁": 4020,
      "袋": 4021,
      "袖": 4022,
      "被": 4023,
      "裂": 4024,
      "装": 4025,
      "裏": 4026,
      "裕": 4027,
      "裴": 4028,
      "製": 4029,
      "褐": 4030,
      "褒": 4031,
      "褚": 4032,
      "襄": 4033,
      "西": 4034,
      "要": 4035,
      "覇": 4036,
      "見": 4037,
      "規": 4038,
      "視": 4039,
      "覚": 4040,
      "覧": 4041,
      "親": 4042,
      "観": 4043,
      "覺": 4044,
      "覽": 4045,
      "见": 4046,
      "观": 4047,
      "规": 4048,
      "览": 4049,
      "角": 4050,
      "解": 4051,
      "言": 4052,
      "計": 4053,
      "訊": 4054,
      "討": 4055,
      "訓": 4056,
      "訖": 4057,
      "託": 4058,
      "記": 4059,
      "訥": 4060,
      "設": 4061,
      "許": 4062,
      "訳": 4063,
      "訶": 4064,
      "註": 4065,
      "証": 4066,
      "評": 4067,
      "詞": 4068,
      "詠": 4069,
      "詣": 4070,
      "試": 4071,
      "詧": 4072,
      "詩": 4073,
      "話": 4074,
      "詳": 4075,
      "詹": 4076,
      "誉": 4077,
      "誌": 4078,
      "認": 4079,
      "誓": 4080,
      "誘": 4081,
      "語": 4082,
      "誠": 4083,
      "說": 4084,
      "説": 4085,
      "読": 4086,
      "課": 4087,
      "誹": 4088,
      "調": 4089,
      "談": 4090,
      "論": 4091,
      "諧": 4092,
      "諸": 4093,
      "謀": 4094,
      "謎": 4095,
      "謙": 4096,
      "講": 4097,
      "謝": 4098,
      "證": 4099,
      "識": 4100,
      "譚": 4101,
      "譜": 4102,
      "警": 4103,
      "譯": 4104,
      "議": 4105,
      "譲": 4106,
      "護": 4107,
      "變": 4108,
      "计": 4109,
      "认": 4110,
      "讨": 4111,
      "议": 4112,
      "记": 4113,
      "许": 4114,
      "论": 4115,
      "设": 4116,
      "访": 4117,
      "诀": 4118,
      "证": 4119,
      "评": 4120,
      "识": 4121,
      "诉": 4122,
      "试": 4123,
      "诗": 4124,
      "诚": 4125,
      "话": 4126,
      "诞": 4127,
      "询": 4128,
      "详": 4129,
      "语": 4130,
      "说": 4131,
      "请": 4132,
      "读": 4133,
      "课": 4134,
      "谈": 4135,
      "谊": 4136,
      "谢": 4137,
      "谣": 4138,
      "谱": 4139,
      "谷": 4140,
      "豆": 4141,
      "豊": 4142,
      "象": 4143,
      "豪": 4144,
      "豫": 4145,
      "豬": 4146,
      "貌": 4147,
      "貝": 4148,
      "貞": 4149,
      "財": 4150,
      "貪": 4151,
      "貫": 4152,
      "責": 4153,
      "貯": 4154,
      "貴": 4155,
      "貿": 4156,
      "賀": 4157,
      "賁": 4158,
      "資": 4159,
      "賊": 4160,
      "賓": 4161,
      "賞": 4162,
      "賢": 4163,
      "質": 4164,
      "賴": 4165,
      "贈": 4166,
      "贝": 4167,
      "贡": 4168,
      "财": 4169,
      "贤": 4170,
      "货": 4171,
      "质": 4172,
      "贵": 4173,
      "贸": 4174,
      "费": 4175,
      "贺": 4176,
      "资": 4177,
      "赋": 4178,
      "赏": 4179,
      "赐": 4180,
      "赛": 4181,
      "赞": 4182,
      "赤": 4183,
      "赫": 4184,
      "走": 4185,
      "赵": 4186,
      "起": 4187,
      "超": 4188,
      "越": 4189,
      "趋": 4190,
      "趙": 4191,
      "趣": 4192,
      "足": 4193,
      "跋": 4194,
      "跌": 4195,
      "距": 4196,
      "跡": 4197,
      "跨": 4198,
      "路": 4199,
      "跳": 4200,
      "踊": 4201,
      "踏": 4202,
      "身": 4203,
      "躬": 4204,
      "車": 4205,
      "軌": 4206,
      "軍": 4207,
      "軒": 4208,
      "転": 4209,
      "軽": 4210,
      "載": 4211,
      "輝": 4212,
      "輪": 4213,
      "輸": 4214,
      "轄": 4215,
      "轉": 4216,
      "车": 4217,
      "轩": 4218,
      "转": 4219,
      "载": 4220,
      "辇": 4221,
      "辉": 4222,
      "辖": 4223,
      "辛": 4224,
      "辞": 4225,
      "辭": 4226,
      "辰": 4227,
      "辱": 4228,
      "農": 4229,
      "边": 4230,
      "辺": 4231,
      "辻": 4232,
      "辽": 4233,
      "达": 4234,
      "过": 4235,
      "迎": 4236,
      "运": 4237,
      "近": 4238,
      "返": 4239,
      "还": 4240,
      "这": 4241,
      "进": 4242,
      "远": 4243,
      "连": 4244,
      "迟": 4245,
      "迢": 4246,
      "述": 4247,
      "迷": 4248,
      "迹": 4249,
      "追": 4250,
      "退": 4251,
      "送": 4252,
      "适": 4253,
      "逃": 4254,
      "选": 4255,
      "透": 4256,
      "逐": 4257,
      "递": 4258,
      "途": 4259,
      "通": 4260,
      "逝": 4261,
      "速": 4262,
      "造": 4263,
      "逢": 4264,
      "連": 4265,
      "週": 4266,
      "進": 4267,
      "逸": 4268,
      "逾": 4269,
      "遂": 4270,
      "遇": 4271,
      "遊": 4272,
      "運": 4273,
      "過": 4274,
      "遏": 4275,
      "道": 4276,
      "達": 4277,
      "遗": 4278,
      "遜": 4279,
      "遠": 4280,
      "遥": 4281,
      "適": 4282,
      "遵": 4283,
      "遷": 4284,
      "選": 4285,
      "遺": 4286,
      "遼": 4287,
      "遽": 4288,
      "避": 4289,
      "還": 4290,
      "邇": 4291,
      "邏": 4292,
      "邑": 4293,
      "邓": 4294,
      "邕": 4295,
      "邢": 4296,
      "那": 4297,
      "邦": 4298,
      "邪": 4299,
      "邮": 4300,
      "邯": 4301,
      "邱": 4302,
      "邵": 4303,
      "邶": 4304,
      "邹": 4305,
      "邾": 4306,
      "郁": 4307,
      "郊": 4308,
      "郎": 4309,
      "郑": 4310,
      "郗": 4311,
      "郡": 4312,
      "郧": 4313,
      "部": 4314,
      "郭": 4315,
      "郴": 4316,
      "郵": 4317,
      "郷": 4318,
      "郸": 4319,
      "都": 4320,
      "鄂": 4321,
      "鄉": 4322,
      "鄒": 4323,
      "鄚": 4324,
      "鄞": 4325,
      "鄧": 4326,
      "鄩": 4327,
      "鄭": 4328,
      "酉": 4329,
      "酋": 4330,
      "配": 4331,
      "酒": 4332,
      "酓": 4333,
      "酔": 4334,
      "酷": 4335,
      "酸": 4336,
      "酺": 4337,
      "醇": 4338,
      "醉": 4339,
      "醒": 4340,
      "醛": 4341,
      "采": 4342,
      "釋": 4343,
      "里": 4344,
      "重": 4345,
      "野": 4346,
      "量": 4347,
      "釐": 4348,
      "金": 4349,
      "釧": 4350,
      "釵": 4351,
      "鈴": 4352,
      "鉄": 4353,
      "鉞": 4354,
      "銀": 4355,
      "銃": 4356,
      "銑": 4357,
      "銘": 4358,
      "銭": 4359,
      "鋒": 4360,
      "錄": 4361,
      "錚": 4362,
      "錦": 4363,
      "錫": 4364,
      "録": 4365,
      "鍵": 4366,
      "鍾": 4367,
      "鎮": 4368,
      "鏡": 4369,
      "鐘": 4370,
      "鐵": 4371,
      "鑑": 4372,
      "鑫": 4373,
      "钟": 4374,
      "钨": 4375,
      "钱": 4376,
      "钼": 4377,
      "铁": 4378,
      "铃": 4379,
      "铎": 4380,
      "铜": 4381,
      "铝": 4382,
      "银": 4383,
      "链": 4384,
      "锌": 4385,
      "锏": 4386,
      "锡": 4387,
      "锦": 4388,
      "键": 4389,
      "锰": 4390,
      "镁": 4391,
      "镇": 4392,
      "镛": 4393,
      "長": 4394,
      "长": 4395,
      "門": 4396,
      "閃": 4397,
      "閉": 4398,
      "開": 4399,
      "閑": 4400,
      "間": 4401,
      "閔": 4402,
      "関": 4403,
      "閨": 4404,
      "閭": 4405,
      "闕": 4406,
      "闘": 4407,
      "關": 4408,
      "门": 4409,
      "闪": 4410,
      "问": 4411,
      "间": 4412,
      "闻": 4413,
      "闽": 4414,
      "阁": 4415,
      "阅": 4416,
      "阎": 4417,
      "阜": 4418,
      "队": 4419,
      "阪": 4420,
      "阮": 4421,
      "防": 4422,
      "阳": 4423,
      "阴": 4424,
      "阵": 4425,
      "阶": 4426,
      "阻": 4427,
      "阿": 4428,
      "陀": 4429,
      "附": 4430,
      "际": 4431,
      "陆": 4432,
      "陇": 4433,
      "陈": 4434,
      "降": 4435,
      "限": 4436,
      "陕": 4437,
      "陘": 4438,
      "院": 4439,
      "除": 4440,
      "险": 4441,
      "陰": 4442,
      "陳": 4443,
      "陵": 4444,
      "陶": 4445,
      "陸": 4446,
      "陽": 4447,
      "隅": 4448,
      "隆": 4449,
      "隊": 4450,
      "隋": 4451,
      "階": 4452,
      "隐": 4453,
      "隔": 4454,
      "隘": 4455,
      "隙": 4456,
      "際": 4457,
      "隠": 4458,
      "隣": 4459,
      "隨": 4460,
      "隱": 4461,
      "隶": 4462,
      "隸": 4463,
      "隹": 4464,
      "隼": 4465,
      "难": 4466,
      "雀": 4467,
      "雁": 4468,
      "雄": 4469,
      "雅": 4470,
      "集": 4471,
      "雏": 4472,
      "雑": 4473,
      "雒": 4474,
      "雕": 4475,
      "雙": 4476,
      "雜": 4477,
      "雞": 4478,
      "離": 4479,
      "難": 4480,
      "雨": 4481,
      "雪": 4482,
      "雲": 4483,
      "零": 4484,
      "雷": 4485,
      "電": 4486,
      "需": 4487,
      "霄": 4488,
      "霊": 4489,
      "霏": 4490,
      "霓": 4491,
      "霜": 4492,
      "霞": 4493,
      "霧": 4494,
      "霫": 4495,
      "露": 4496,
      "霸": 4497,
      "靈": 4498,
      "青": 4499,
      "靖": 4500,
      "静": 4501,
      "靜": 4502,
      "非": 4503,
      "面": 4504,
      "革": 4505,
      "靺": 4506,
      "靼": 4507,
      "鞋": 4508,
      "鞍": 4509,
      "鞑": 4510,
      "鞠": 4511,
      "鞨": 4512,
      "韋": 4513,
      "韓": 4514,
      "韧": 4515,
      "韩": 4516,
      "韭": 4517,
      "音": 4518,
      "韶": 4519,
      "韻": 4520,
      "響": 4521,
      "頁": 4522,
      "頂": 4523,
      "頃": 4524,
      "順": 4525,
      "須": 4526,
      "頓": 4527,
      "領": 4528,
      "頡": 4529,
      "頬": 4530,
      "頭": 4531,
      "頼": 4532,
      "題": 4533,
      "顏": 4534,
      "顔": 4535,
      "類": 4536,
      "顧": 4537,
      "顯": 4538,
      "页": 4539,
      "顶": 4540,
      "项": 4541,
      "顺": 4542,
      "预": 4543,
      "领": 4544,
      "颇": 4545,
      "颍": 4546,
      "颗": 4547,
      "题": 4548,
      "额": 4549,
      "風": 4550,
      "风": 4551,
      "飛": 4552,
      "食": 4553,
      "飯": 4554,
      "餅": 4555,
      "養": 4556,
      "餓": 4557,
      "餘": 4558,
      "館": 4559,
      "饥": 4560,
      "饱": 4561,
      "饶": 4562,
      "饼": 4563,
      "饿": 4564,
      "馆": 4565,
      "首": 4566,
      "馗": 4567,
      "香": 4568,
      "馬": 4569,
      "馮": 4570,
      "馳": 4571,
      "駁": 4572,
      "駅": 4573,
      "駆": 4574,
      "駕": 4575,
      "駟": 4576,
      "駱": 4577,
      "騒": 4578,
      "験": 4579,
      "騨": 4580,
      "騭": 4581,
      "驕": 4582,
      "马": 4583,
      "驱": 4584,
      "驻": 4585,
      "骂": 4586,
      "骅": 4587,
      "验": 4588,
      "骨": 4589,
      "髏": 4590,
      "髑": 4591,
      "體": 4592,
      "高": 4593,
      "鬢": 4594,
      "鬱": 4595,
      "鬼": 4596,
      "魂": 4597,
      "魏": 4598,
      "魔": 4599,
      "魚": 4600,
      "魯": 4601,
      "鮑": 4602,
      "鮮": 4603,
      "鯉": 4604,
      "鰲": 4605,
      "鱉": 4606,
      "鱓": 4607,
      "鱗": 4608,
      "鱼": 4609,
      "鲁": 4610,
      "鲜": 4611,
      "鲸": 4612,
      "鳥": 4613,
      "鳩": 4614,
      "鳳": 4615,
      "鴉": 4616,
      "鴻": 4617,
      "鵪": 4618,
      "鶏": 4619,
      "鶯": 4620,
      "鶴": 4621,
      "鷹": 4622,
      "鷺": 4623,
      "鸟": 4624,
      "鸡": 4625,
      "鸣": 4626,
      "鸿": 4627,
      "鹏": 4628,
      "鹰": 4629,
      "鹿": 4630,
      "麓": 4631,
      "麗": 4632,
      "麞": 4633,
      "麟": 4634,
      "麩": 4635,
      "麴": 4636,
      "麻": 4637,
      "麾": 4638,
      "黃": 4639,
      "黄": 4640,
      "黎": 4641,
      "黏": 4642,
      "黑": 4643,
      "黒": 4644,
      "默": 4645,
      "黨": 4646,
      "黹": 4647,
      "鼎": 4648,
      "鼓": 4649,
      "鼠": 4650,
      "鼻": 4651,
      "齊": 4652,
      "齐": 4653,
      "齡": 4654,
      "龍": 4655,
      "龖": 4656,
      "龘": 4657,
      "龙": 4658,
      "龜": 4659,
      "龟": 4660,
      "ꙁ": 4661,
      "ꙋ": 4662,
      "ꙑ": 4663,
      "ꙗ": 4664,
      "ꜭ": 4665,
      "ꜯ": 4666,
      "ꜳ": 4667,
      "ꝗ": 4668,
      "ꞇ": 4669,
      "ꞌ": 4670,
      "ꞩ": 4671,
      "가": 4672,
      "간": 4673,
      "갈": 4674,
      "감": 4675,
      "강": 4676,
      "개": 4677,
      "거": 4678,
      "걸": 4679,
      "검": 4680,
      "게": 4681,
      "겐": 4682,
      "견": 4683,
      "결": 4684,
      "경": 4685,
      "계": 4686,
      "고": 4687,
      "곡": 4688,
      "공": 4689,
      "과": 4690,
      "관": 4691,
      "광": 4692,
      "교": 4693,
      "구": 4694,
      "국": 4695,
      "군": 4696,
      "권": 4697,
      "규": 4698,
      "균": 4699,
      "그": 4700,
      "극": 4701,
      "근": 4702,
      "금": 4703,
      "기": 4704,
      "길": 4705,
      "김": 4706,
      "깃": 4707,
      "까": 4708,
      "깨": 4709,
      "끌": 4710,
      "나": 4711,
      "낙": 4712,
      "난": 4713,
      "날": 4714,
      "남": 4715,
      "납": 4716,
      "내": 4717,
      "너": 4718,
      "넌": 4719,
      "널": 4720,
      "녀": 4721,
      "노": 4722,
      "놀": 4723,
      "놈": 4724,
      "눈": 4725,
      "눌": 4726,
      "는": 4727,
      "늘": 4728,
      "니": 4729,
      "님": 4730,
      "다": 4731,
      "단": 4732,
      "달": 4733,
      "닮": 4734,
      "담": 4735,
      "당": 4736,
      "대": 4737,
      "댄": 4738,
      "더": 4739,
      "덕": 4740,
      "덤": 4741,
      "데": 4742,
      "뎅": 4743,
      "도": 4744,
      "돌": 4745,
      "동": 4746,
      "돯": 4747,
      "두": 4748,
      "드": 4749,
      "듭": 4750,
      "등": 4751,
      "디": 4752,
      "때": 4753,
      "또": 4754,
      "뜻": 4755,
      "띠": 4756,
      "라": 4757,
      "락": 4758,
      "란": 4759,
      "람": 4760,
      "랑": 4761,
      "래": 4762,
      "량": 4763,
      "러": 4764,
      "럼": 4765,
      "레": 4766,
      "렌": 4767,
      "려": 4768,
      "력": 4769,
      "령": 4770,
      "례": 4771,
      "로": 4772,
      "록": 4773,
      "룡": 4774,
      "루": 4775,
      "르": 4776,
      "륵": 4777,
      "른": 4778,
      "를": 4779,
      "름": 4780,
      "리": 4781,
      "린": 4782,
      "림": 4783,
      "립": 4784,
      "릿": 4785,
      "마": 4786,
      "막": 4787,
      "만": 4788,
      "말": 4789,
      "망": 4790,
      "매": 4791,
      "맥": 4792,
      "머": 4793,
      "메": 4794,
      "멤": 4795,
      "면": 4796,
      "명": 4797,
      "모": 4798,
      "몰": 4799,
      "몸": 4800,
      "몽": 4801,
      "무": 4802,
      "문": 4803,
      "물": 4804,
      "뮤": 4805,
      "믈": 4806,
      "미": 4807,
      "민": 4808,
      "믿": 4809,
      "밀": 4810,
      "밑": 4811,
      "바": 4812,
      "박": 4813,
      "반": 4814,
      "받": 4815,
      "발": 4816,
      "밤": 4817,
      "밥": 4818,
      "방": 4819,
      "배": 4820,
      "백": 4821,
      "버": 4822,
      "번": 4823,
      "벌": 4824,
      "범": 4825,
      "법": 4826,
      "벽": 4827,
      "변": 4828,
      "별": 4829,
      "병": 4830,
      "보": 4831,
      "복": 4832,
      "본": 4833,
      "볼": 4834,
      "봉": 4835,
      "봐": 4836,
      "뵈": 4837,
      "부": 4838,
      "북": 4839,
      "분": 4840,
      "불": 4841,
      "붕": 4842,
      "뷰": 4843,
      "브": 4844,
      "비": 4845,
      "빈": 4846,
      "빔": 4847,
      "빨": 4848,
      "쁜": 4849,
      "삥": 4850,
      "사": 4851,
      "산": 4852,
      "삼": 4853,
      "상": 4854,
      "색": 4855,
      "생": 4856,
      "샤": 4857,
      "서": 4858,
      "석": 4859,
      "선": 4860,
      "설": 4861,
      "성": 4862,
      "섶": 4863,
      "세": 4864,
      "섹": 4865,
      "셔": 4866,
      "소": 4867,
      "속": 4868,
      "손": 4869,
      "솔": 4870,
      "송": 4871,
      "쇼": 4872,
      "수": 4873,
      "숙": 4874,
      "순": 4875,
      "술": 4876,
      "숭": 4877,
      "쉽": 4878,
      "스": 4879,
      "슬": 4880,
      "승": 4881,
      "시": 4882,
      "신": 4883,
      "실": 4884,
      "심": 4885,
      "싶": 4886,
      "싸": 4887,
      "쌍": 4888,
      "아": 4889,
      "악": 4890,
      "안": 4891,
      "알": 4892,
      "았": 4893,
      "애": 4894,
      "앨": 4895,
      "야": 4896,
      "양": 4897,
      "어": 4898,
      "억": 4899,
      "언": 4900,
      "엄": 4901,
      "업": 4902,
      "에": 4903,
      "엔": 4904,
      "엘": 4905,
      "엠": 4906,
      "여": 4907,
      "역": 4908,
      "연": 4909,
      "열": 4910,
      "영": 4911,
      "예": 4912,
      "오": 4913,
      "올": 4914,
      "옷": 4915,
      "옹": 4916,
      "와": 4917,
      "왕": 4918,
      "왜": 4919,
      "요": 4920,
      "용": 4921,
      "우": 4922,
      "욱": 4923,
      "운": 4924,
      "울": 4925,
      "웅": 4926,
      "원": 4927,
      "월": 4928,
      "웨": 4929,
      "위": 4930,
      "유": 4931,
      "육": 4932,
      "윤": 4933,
      "율": 4934,
      "으": 4935,
      "은": 4936,
      "을": 4937,
      "음": 4938,
      "읍": 4939,
      "의": 4940,
      "이": 4941,
      "인": 4942,
      "일": 4943,
      "임": 4944,
      "입": 4945,
      "자": 4946,
      "작": 4947,
      "잖": 4948,
      "잠": 4949,
      "잡": 4950,
      "장": 4951,
      "쟁": 4952,
      "쟝": 4953,
      "저": 4954,
      "적": 4955,
      "전": 4956,
      "정": 4957,
      "제": 4958,
      "조": 4959,
      "족": 4960,
      "종": 4961,
      "좋": 4962,
      "좌": 4963,
      "주": 4964,
      "준": 4965,
      "중": 4966,
      "줘": 4967,
      "즈": 4968,
      "증": 4969,
      "지": 4970,
      "직": 4971,
      "진": 4972,
      "집": 4973,
      "짓": 4974,
      "짜": 4975,
      "차": 4976,
      "참": 4977,
      "창": 4978,
      "찾": 4979,
      "채": 4980,
      "처": 4981,
      "천": 4982,
      "철": 4983,
      "첨": 4984,
      "첫": 4985,
      "청": 4986,
      "쳐": 4987,
      "최": 4988,
      "추": 4989,
      "축": 4990,
      "출": 4991,
      "취": 4992,
      "치": 4993,
      "친": 4994,
      "칠": 4995,
      "카": 4996,
      "커": 4997,
      "컵": 4998,
      "코": 4999,
      "쿠": 5000,
      "쿤": 5001,
      "쿨": 5002,
      "퀸": 5003,
      "큐": 5004,
      "크": 5005,
      "키": 5006,
      "타": 5007,
      "탈": 5008,
      "탕": 5009,
      "태": 5010,
      "터": 5011,
      "테": 5012,
      "토": 5013,
      "통": 5014,
      "투": 5015,
      "튜": 5016,
      "트": 5017,
      "특": 5018,
      "틈": 5019,
      "팅": 5020,
      "파": 5021,
      "편": 5022,
      "평": 5023,
      "폰": 5024,
      "폴": 5025,
      "표": 5026,
      "품": 5027,
      "퓨": 5028,
      "프": 5029,
      "픈": 5030,
      "피": 5031,
      "픽": 5032,
      "하": 5033,
      "학": 5034,
      "한": 5035,
      "할": 5036,
      "함": 5037,
      "항": 5038,
      "해": 5039,
      "핸": 5040,
      "했": 5041,
      "행": 5042,
      "허": 5043,
      "헌": 5044,
      "험": 5045,
      "혀": 5046,
      "혁": 5047,
      "현": 5048,
      "혜": 5049,
      "호": 5050,
      "혼": 5051,
      "홀": 5052,
      "홍": 5053,
      "화": 5054,
      "환": 5055,
      "황": 5056,
      "회": 5057,
      "효": 5058,
      "후": 5059,
      "훈": 5060,
      "휘": 5061,
      "휴": 5062,
      "흐": 5063,
      "흔": 5064,
      "흘": 5065,
      "흥": 5066,
      "희": 5067,
      "히": 5068,
      "": 5069,
      "": 5070,
      "": 5071,
      "": 5072,
      "": 5073,
      "": 5074,
      "": 5075,
      "": 5076,
      "ﬁ": 5077,
      "ﬂ": 5078,
      "ﬃ": 5079,
      "ﮐ": 5080,
      "ﷺ": 5081,
      "︎": 5082,
      "️": 5083,
      "︠": 5084,
      "︡": 5085,
      "ﺎ": 5086,
      "ﺗ": 5087,
      "ﺮ": 5088,
      "ﻋ": 5089,
      "ﻕ": 5090,
      "ﻖ": 5091,
      "ﻥ": 5092,
      "ﻨ": 5093,
      "ﻶ": 5094,
      "﻿": 5095,
      "！": 5096,
      "＆": 5097,
      "（": 5098,
      "）": 5099,
      "＋": 5100,
      "，": 5101,
      "－": 5102,
      "．": 5103,
      "／": 5104,
      "０": 5105,
      "１": 5106,
      "３": 5107,
      "６": 5108,
      "８": 5109,
      "９": 5110,
      "：": 5111,
      "；": 5112,
      "＜": 5113,
      "＝": 5114,
      "＞": 5115,
      "？": 5116,
      "ａ": 5117,
      "ｄ": 5118,
      "ｅ": 5119,
      "ｆ": 5120,
      "ｈ": 5121,
      "ｍ": 5122,
      "ｎ": 5123,
      "ｏ": 5124,
      "ｐ": 5125,
      "ｓ": 5126,
      "ｔ": 5127,
      "ｕ": 5128,
      "ｚ": 5129,
      "｜": 5130,
      "～": 5131,
      "･": 5132,
      "￼": 5133,
      "�": 5134,
      "𐀂": 5135,
      "𐀏": 5136,
      "𐀘": 5137,
      "𐀙": 5138,
      "𐌚": 5139,
      "𐎠": 5140,
      "𐎡": 5141,
      "𐎹": 5142,
      "𐎼": 5143,
      "𐓘": 5144,
      "𐠀": 5145,
      "𐠁": 5146,
      "𐠂": 5147,
      "𐠃": 5148,
      "𐠄": 5149,
      "𐠅": 5150,
      "𐠊": 5151,
      "𐠋": 5152,
      "𐠌": 5153,
      "𐠍": 5154,
      "𐠎": 5155,
      "𐠐": 5156,
      "𐠑": 5157,
      "𐠒": 5158,
      "𐠔": 5159,
      "𐠕": 5160,
      "𐠖": 5161,
      "𐠚": 5162,
      "𐠛": 5163,
      "𐠜": 5164,
      "𐠞": 5165,
      "𐠡": 5166,
      "𐠣": 5167,
      "𐠥": 5168,
      "𐠦": 5169,
      "𐠨": 5170,
      "𐠩": 5171,
      "𐠪": 5172,
      "𐠭": 5173,
      "𐠮": 5174,
      "𐠯": 5175,
      "𐠰": 5176,
      "𐠱": 5177,
      "𐠲": 5178,
      "𐡄": 5179,
      "𐤂": 5180,
      "𐤄": 5181,
      "𐤌": 5182,
      "𐤍": 5183,
      "𐭣": 5184,
      "𐭪": 5185,
      "𐰀": 5186,
      "𐰂": 5187,
      "𐰄": 5188,
      "𐰅": 5189,
      "𐰆": 5190,
      "𐰈": 5191,
      "𐰉": 5192,
      "𐰋": 5193,
      "𐰏": 5194,
      "𐰚": 5195,
      "𐰠": 5196,
      "𐰣": 5197,
      "𐰤": 5198,
      "𐰱": 5199,
      "𐰲": 5200,
      "𐰴": 5201,
      "𐰺": 5202,
      "𐰼": 5203,
      "𐰽": 5204,
      "𐰾": 5205,
      "𐱁": 5206,
      "𑀓": 5207,
      "𑘎": 5208,
      "𒀭": 5209,
      "𒄖": 5210,
      "𒆷": 5211,
      "𒇽": 5212,
      "𛀁": 5213,
      "𝐂": 5214,
      "𝐄": 5215,
      "𝐅": 5216,
      "𝐇": 5217,
      "𝐈": 5218,
      "𝐍": 5219,
      "𝐎": 5220,
      "𝐏": 5221,
      "𝐑": 5222,
      "𝐒": 5223,
      "𝐓": 5224,
      "𝐞": 5225,
      "𝐡": 5226,
      "𝐢": 5227,
      "𝐦": 5228,
      "𝐧": 5229,
      "𝐬": 5230,
      "𝐴": 5231,
      "𝐵": 5232,
      "𝐸": 5233,
      "𝐾": 5234,
      "𝐿": 5235,
      "𝑀": 5236,
      "𝑃": 5237,
      "𝑆": 5238,
      "𝑇": 5239,
      "𝑎": 5240,
      "𝑏": 5241,
      "𝑐": 5242,
      "𝑒": 5243,
      "𝑖": 5244,
      "𝑙": 5245,
      "𝑚": 5246,
      "𝑛": 5247,
      "𝑜": 5248,
      "𝑟": 5249,
      "𝑡": 5250,
      "𝑦": 5251,
      "𝒆": 5252,
      "𝒊": 5253,
      "𝒍": 5254,
      "𝒎": 5255,
      "𝒐": 5256,
      "𝒔": 5257,
      "𝒕": 5258,
      "𝒗": 5259,
      "𝒚": 5260,
      "𝒛": 5261,
      "𝘈": 5262,
      "𝘎": 5263,
      "𝘒": 5264,
      "𝘓": 5265,
      "𝘖": 5266,
      "𝘛": 5267,
      "𝘢": 5268,
      "𝘨": 5269,
      "𝘭": 5270,
      "𝘮": 5271,
      "🃏": 5272,
      "🇦": 5273,
      "🇪": 5274,
      "🇬": 5275,
      "🇮": 5276,
      "🇲": 5277,
      "🇷": 5278,
      "🇹": 5279,
      "🇺": 5280,
      "🇽": 5281,
      "🇿": 5282,
      "🌈": 5283,
      "🌎": 5284,
      "🌔": 5285,
      "🌟": 5286,
      "🌴": 5287,
      "🌷": 5288,
      "🌹": 5289,
      "🌿": 5290,
      "🍉": 5291,
      "🍊": 5292,
      "🍍": 5293,
      "🍑": 5294,
      "🍒": 5295,
      "🍡": 5296,
      "🍥": 5297,
      "🍬": 5298,
      "🍱": 5299,
      "🍳": 5300,
      "🎉": 5301,
      "🎥": 5302,
      "🎶": 5303,
      "🏂": 5304,
      "🏃": 5305,
      "🏄": 5306,
      "🏆": 5307,
      "🏊": 5308,
      "🏻": 5309,
      "🏼": 5310,
      "🏽": 5311,
      "🏾": 5312,
      "🏿": 5313,
      "🐇": 5314,
      "🐙": 5315,
      "🐱": 5316,
      "🐴": 5317,
      "🐶": 5318,
      "👀": 5319,
      "👇": 5320,
      "👊": 5321,
      "👌": 5322,
      "👍": 5323,
      "👏": 5324,
      "👑": 5325,
      "👗": 5326,
      "👙": 5327,
      "👨": 5328,
      "👮": 5329,
      "👴": 5330,
      "💃": 5331,
      "💋": 5332,
      "💌": 5333,
      "💎": 5334,
      "💓": 5335,
      "💕": 5336,
      "💖": 5337,
      "💗": 5338,
      "💘": 5339,
      "💙": 5340,
      "💛": 5341,
      "💜": 5342,
      "💥": 5343,
      "💦": 5344,
      "💩": 5345,
      "💪": 5346,
      "💫": 5347,
      "📍": 5348,
      "📣": 5349,
      "📷": 5350,
      "📸": 5351,
      "🔊": 5352,
      "🔝": 5353,
      "🔥": 5354,
      "🔫": 5355,
      "🔮": 5356,
      "🔻": 5357,
      "😀": 5358,
      "😁": 5359,
      "😂": 5360,
      "😃": 5361,
      "😆": 5362,
      "😉": 5363,
      "😊": 5364,
      "😌": 5365,
      "😍": 5366,
      "😎": 5367,
      "😐": 5368,
      "😒": 5369,
      "😓": 5370,
      "😘": 5371,
      "😜": 5372,
      "😡": 5373,
      "😥": 5374,
      "😱": 5375,
      "😻": 5376,
      "🙄": 5377,
      "🙅": 5378,
      "🙆": 5379,
      "🙈": 5380,
      "🙊": 5381,
      "🙌": 5382,
      "🙏": 5383,
      "🚀": 5384,
      "🛵": 5385,
      "🤣": 5386,
      "🤦": 5387,
      "🤨": 5388,
      "🤷": 5389,
      "🥈": 5390,
      "🦁": 5391,
      "🦋": 5392,
      "𩇔": 5393,
      "𪚥": 5394,
      "󾌧": 5395,
      "ст": 5396,
      "на": 5397,
      "но": 5398,
      "ра": 5399,
      "ни": 5400,
      "ко": 5401,
      "ро": 5402,
      "по": 5403,
      "то": 5404,
      "го": 5405,
      "ре": 5406,
      "ли": 5407,
      "не": 5408,
      "ка": 5409,
      "во": 5410,
      "ва": 5411,
      "ле": 5412,
      "ри": 5413,
      "ла": 5414,
      "ль": 5415,
      "ны": 5416,
      "те": 5417,
      "де": 5418,
      "да": 5419,
      "ло": 5420,
      "ве": 5421,
      "ме": 5422,
      "та": 5423,
      "за": 5424,
      "ки": 5425,
      "со": 5426,
      "ми": 5427,
      "до": 5428,
      "че": 5429,
      "ти": 5430,
      "ма": 5431,
      "мо": 5432,
      "се": 5433,
      "ви": 5434,
      "ся": 5435,
      "ть": 5436,
      "же": 5437,
      "про": 5438,
      "ру": 5439,
      "ди": 5440,
      "бо": 5441,
      "пе": 5442,
      "ско": 5443,
      "ста": 5444,
      "вы": 5445,
      "си": 5446,
      "ци": 5447,
      "об": 5448,
      "ча": 5449,
      "от": 5450,
      "бы": 5451,
      "при": 5452,
      "ля": 5453,
      "па": 5454,
      "ния": 5455,
      "са": 5456,
      "из": 5457,
      "ет": 5458,
      "ду": 5459,
      "сто": 5460,
      "ку": 5461,
      "ние": 5462,
      "сти": 5463,
      "ски": 5464,
      "чи": 5465,
      "ну": 5466,
      "хо": 5467,
      "ры": 5468,
      "что": 5469,
      "сь": 5470,
      "пре": 5471,
      "му": 5472,
      "ше": 5473,
      "бе": 5474,
      "га": 5475,
      "ной": 5476,
      "19": 5477,
      "нны": 5478,
      "ты": 5479,
      "пи": 5480,
      "лу": 5481,
      "ту": 5482,
      "це": 5483,
      "ги": 5484,
      "ши": 5485,
      "раз": 5486,
      "ще": 5487,
      "ня": 5488,
      "20": 5489,
      "ба": 5490,
      "ного": 5491,
      "он": 5492,
      "жи": 5493,
      "тель": 5494,
      "это": 5495,
      "ря": 5496,
      "су": 5497,
      "сле": 5498,
      "би": 5499,
      "фи": 5500,
      "пу": 5501,
      "щи": 5502,
      "ге": 5503,
      "сть": 5504,
      "вер": 5505,
      "года": 5506,
      "лю": 5507,
      "гра": 5508,
      "мы": 5509,
      "жа": 5510,
      "кото": 5511,
      "под": 5512,
      "ска": 5513,
      "ке": 5514,
      "ных": 5515,
      "нно": 5516,
      "она": 5517,
      "бу": 5518,
      "ской": 5519,
      "ор": 5520,
      "как": 5521,
      "зи": 5522,
      "лся": 5523,
      "нт": 5524,
      "ского": 5525,
      "пра": 5526,
      "сте": 5527,
      "ции": 5528,
      "ком": 5529,
      "его": 5530,
      "так": 5531,
      "ный": 5532,
      "ша": 5533,
      "ют": 5534,
      "спо": 5535,
      "ву": 5536,
      "нии": 5537,
      "ин": 5538,
      "пере": 5539,
      "нь": 5540,
      "ные": 5541,
      "все": 5542,
      "стве": 5543,
      "сси": 5544,
      "ха": 5545,
      "ство": 5546,
      "сво": 5547,
      "ется": 5548,
      "гу": 5549,
      "ды": 5550,
      "ский": 5551,
      "стра": 5552,
      "пер": 5553,
      "ров": 5554,
      "кон": 5555,
      "нов": 5556,
      "зна": 5557,
      "сс": 5558,
      "зо": 5559,
      "гла": 5560,
      "ная": 5561,
      "рова": 5562,
      "кра": 5563,
      "ков": 5564,
      "од": 5565,
      "фе": 5566,
      "году": 5567,
      "вой": 5568,
      "пред": 5569,
      "зы": 5570,
      "лы": 5571,
      "ща": 5572,
      "для": 5573,
      "зе": 5574,
      "вле": 5575,
      "ск": 5576,
      "вре": 5577,
      "которы": 5578,
      "вля": 5579,
      "мя": 5580,
      "ца": 5581,
      "после": 5582,
      "сло": 5583,
      "воз": 5584,
      "тов": 5585,
      "тре": 5586,
      "был": 5587,
      "том": 5588,
      "аль": 5589,
      "ства": 5590,
      "тер": 5591,
      "ном": 5592,
      "200": 5593,
      "росси": 5594,
      "сту": 5595,
      "201": 5596,
      "ться": 5597,
      "ских": 5598,
      "ний": 5599,
      "тся": 5600,
      "рабо": 5601,
      "ар": 5602,
      "гда": 5603,
      "дол": 5604,
      "кой": 5605,
      "тив": 5606,
      "лась": 5607,
      "er": 5608,
      "ходи": 5609,
      "ан": 5610,
      "мен": 5611,
      "тра": 5612,
      "ным": 5613,
      "род": 5614,
      "сно": 5615,
      "стро": 5616,
      "ис": 5617,
      "слу": 5618,
      "лько": 5619,
      "жно": 5620,
      "дер": 5621,
      "нных": 5622,
      "боль": 5623,
      "дру": 5624,
      "вто": 5625,
      "18": 5626,
      "ак": 5627,
      "вет": 5628,
      "нные": 5629,
      "бли": 5630,
      "лись": 5631,
      "вя": 5632,
      "хи": 5633,
      "ное": 5634,
      "рас": 5635,
      "ром": 5636,
      "фор": 5637,
      "ющи": 5638,
      "пол": 5639,
      "лей": 5640,
      "лось": 5641,
      "пла": 5642,
      "ник": 5643,
      "in": 5644,
      "an": 5645,
      "вши": 5646,
      "ную": 5647,
      "спе": 5648,
      "ей": 5649,
      "также": 5650,
      "три": 5651,
      "каза": 5652,
      "нача": 5653,
      "было": 5654,
      "стоя": 5655,
      "пы": 5656,
      "нный": 5657,
      "зу": 5658,
      "ев": 5659,
      "мер": 5660,
      "ман": 5661,
      "ская": 5662,
      "ция": 5663,
      "ней": 5664,
      "их": 5665,
      "нима": 5666,
      "лет": 5667,
      "бра": 5668,
      "кры": 5669,
      "шь": 5670,
      "сы": 5671,
      "чу": 5672,
      "нию": 5673,
      "рь": 5674,
      "полу": 5675,
      "рии": 5676,
      "ские": 5677,
      "гру": 5678,
      "кт": 5679,
      "име": 5680,
      "on": 5681,
      "чем": 5682,
      "кто": 5683,
      "соста": 5684,
      "сооб": 5685,
      "ника": 5686,
      "исто": 5687,
      "стви": 5688,
      "пар": 5689,
      "en": 5690,
      "или": 5691,
      "бря": 5692,
      "жде": 5693,
      "сре": 5694,
      "смо": 5695,
      "чно": 5696,
      "дей": 5697,
      "кру": 5698,
      "нной": 5699,
      "тельно": 5700,
      "нием": 5701,
      "сли": 5702,
      "вое": 5703,
      "вал": 5704,
      "кре": 5705,
      "вать": 5706,
      "время": 5707,
      "мне": 5708,
      "гово": 5709,
      "рай": 5710,
      "дет": 5711,
      "нее": 5712,
      "дела": 5713,
      "оста": 5714,
      "стре": 5715,
      "тиче": 5716,
      "00": 5717,
      "меня": 5718,
      "они": 5719,
      "ском": 5720,
      "когда": 5721,
      "ar": 5722,
      "зда": 5723,
      "уча": 5724,
      "уже": 5725,
      "свя": 5726,
      "дя": 5727,
      "ран": 5728,
      "лове": 5729,
      "кар": 5730,
      "вз": 5731,
      "им": 5732,
      "дом": 5733,
      "дь": 5734,
      "199": 5735,
      "была": 5736,
      "мар": 5737,
      "нд": 5738,
      "были": 5739,
      "пле": 5740,
      "al": 5741,
      "обла": 5742,
      "тем": 5743,
      "фа": 5744,
      "кла": 5745,
      "дар": 5746,
      "меча": 5747,
      "вра": 5748,
      "бя": 5749,
      "боле": 5750,
      "сла": 5751,
      "только": 5752,
      "кан": 5753,
      "вания": 5754,
      "or": 5755,
      "es": 5756,
      "нк": 5757,
      "вая": 5758,
      "тру": 5759,
      "ются": 5760,
      "челове": 5761,
      "того": 5762,
      "голо": 5763,
      "вла": 5764,
      "образ": 5765,
      "поли": 5766,
      "жда": 5767,
      "дин": 5768,
      "нта": 5769,
      "рой": 5770,
      "вые": 5771,
      "ству": 5772,
      "цы": 5773,
      "мини": 5774,
      "меж": 5775,
      "этом": 5776,
      "писа": 5777,
      "жен": 5778,
      "дов": 5779,
      "th": 5780,
      "логи": 5781,
      "ем": 5782,
      "жу": 5783,
      "год": 5784,
      "произ": 5785,
      "ники": 5786,
      "явля": 5787,
      "нным": 5788,
      "селе": 5789,
      "ниче": 5790,
      "рт": 5791,
      "испо": 5792,
      "вод": 5793,
      "жет": 5794,
      "яви": 5795,
      "нет": 5796,
      "прави": 5797,
      "вый": 5798,
      "сер": 5799,
      "само": 5800,
      "пло": 5801,
      "объ": 5802,
      "сов": 5803,
      "нного": 5804,
      "вых": 5805,
      "лли": 5806,
      "рия": 5807,
      "клю": 5808,
      "россии": 5809,
      "лё": 5810,
      "тур": 5811,
      "между": 5812,
      "льно": 5813,
      "цент": 5814,
      "авто": 5815,
      "тор": 5816,
      "фо": 5817,
      "чере": 5818,
      "лек": 5819,
      "горо": 5820,
      "иг": 5821,
      "орга": 5822,
      "предста": 5823,
      "шо": 5824,
      "веде": 5825,
      "st": 5826,
      "нако": 5827,
      "эк": 5828,
      "теле": 5829,
      "ян": 5830,
      "над": 5831,
      "10": 5832,
      "at": 5833,
      "вно": 5834,
      "сказа": 5835,
      "зыва": 5836,
      "ября": 5837,
      "ут": 5838,
      "обще": 5839,
      "россий": 5840,
      "которые": 5841,
      "него": 5842,
      "где": 5843,
      "графи": 5844,
      "циаль": 5845,
      "17": 5846,
      "ску": 5847,
      "сты": 5848,
      "более": 5849,
      "вание": 5850,
      "кро": 5851,
      "можно": 5852,
      "ными": 5853,
      "чё": 5854,
      "15": 5855,
      "виде": 5856,
      "тя": 5857,
      "вели": 5858,
      "работа": 5859,
      "них": 5860,
      "194": 5861,
      "который": 5862,
      "бор": 5863,
      "вс": 5864,
      "хра": 5865,
      "цию": 5866,
      "ch": 5867,
      "ложе": 5868,
      "лки": 5869,
      "вали": 5870,
      "ников": 5871,
      "деле": 5872,
      "коман": 5873,
      "юще": 5874,
      "ности": 5875,
      "ссы": 5876,
      "198": 5877,
      "чтобы": 5878,
      "води": 5879,
      "сторо": 5880,
      "чер": 5881,
      "пера": 5882,
      "ское": 5883,
      "публи": 5884,
      "сообща": 5885,
      "цу": 5886,
      "ию": 5887,
      "лен": 5888,
      "бер": 5889,
      "эти": 5890,
      "поз": 5891,
      "укра": 5892,
      "вич": 5893,
      "12": 5894,
      "может": 5895,
      "тели": 5896,
      "примеча": 5897,
      "телей": 5898,
      "коло": 5899,
      "нем": 5900,
      "кри": 5901,
      "ху": 5902,
      "обра": 5903,
      "спи": 5904,
      "теля": 5905,
      "сей": 5906,
      "груп": 5907,
      "компа": 5908,
      "госу": 5909,
      "ность": 5910,
      "пя": 5911,
      "получи": 5912,
      "проце": 5913,
      "ново": 5914,
      "re": 5915,
      "без": 5916,
      "ним": 5917,
      "ему": 5918,
      "таки": 5919,
      "чь": 5920,
      "обо": 5921,
      "нка": 5922,
      "государ": 5923,
      "бри": 5924,
      "тия": 5925,
      "ii": 5926,
      "16": 5927,
      "её": 5928,
      "филь": 5929,
      "ван": 5930,
      "сред": 5931,
      "будет": 5932,
      "тера": 5933,
      "is": 5934,
      "изве": 5935,
      "кор": 5936,
      "соб": 5937,
      "мени": 5938,
      "правле": 5939,
      "кого": 5940,
      "ональ": 5941,
      "примечания": 5942,
      "ic": 5943,
      "шу": 5944,
      "следо": 5945,
      "образо": 5946,
      "если": 5947,
      "слова": 5948,
      "послед": 5949,
      "други": 5950,
      "лов": 5951,
      "держа": 5952,
      "тех": 5953,
      "нул": 5954,
      "стру": 5955,
      "ад": 5956,
      "ro": 5957,
      "жиз": 5958,
      "нау": 5959,
      "форма": 5960,
      "стан": 5961,
      "ским": 5962,
      "мет": 5963,
      "созда": 5964,
      "области": 5965,
      "цо": 5966,
      "однако": 5967,
      "197": 5968,
      "бой": 5969,
      "ос": 5970,
      "рев": 5971,
      "чита": 5972,
      "гля": 5973,
      "ственно": 5974,
      "этого": 5975,
      "рен": 5976,
      "мь": 5977,
      "дви": 5978,
      "риа": 5979,
      "органи": 5980,
      "el": 5981,
      "неско": 5982,
      "подо": 5983,
      "наз": 5984,
      "ее": 5985,
      "бро": 5986,
      "нер": 5987,
      "14": 5988,
      "мери": 5989,
      "мой": 5990,
      "сша": 5991,
      "стал": 5992,
      "рус": 5993,
      "доро": 5994,
      "верси": 5995,
      "обе": 5996,
      "ден": 5997,
      "просто": 5998,
      "ав": 5999,
      "помо": 6000,
      "пор": 6001,
      "it": 6002,
      "еди": 6003,
      "196": 6004,
      "город": 6005,
      "откры": 6006,
      "там": 6007,
      "бле": 6008,
      "еще": 6009,
      "льзо": 6010,
      "дра": 6011,
      "тил": 6012,
      "вар": 6013,
      "вает": 6014,
      "вше": 6015,
      "тан": 6016,
      "13": 6017,
      "прези": 6018,
      "игра": 6019,
      "кли": 6020,
      "ках": 6021,
      "офи": 6022,
      "труд": 6023,
      "отно": 6024,
      "фран": 6025,
      "совет": 6026,
      "которо": 6027,
      "мест": 6028,
      "гер": 6029,
      "извест": 6030,
      "the": 6031,
      "даже": 6032,
      "рей": 6033,
      "лом": 6034,
      "ек": 6035,
      "нения": 6036,
      "тура": 6037,
      "коро": 6038,
      "чемпи": 6039,
      "дж": 6040,
      "льта": 6041,
      "рес": 6042,
      "день": 6043,
      "человек": 6044,
      "рак": 6045,
      "нали": 6046,
      "народ": 6047,
      "амери": 6048,
      "ответ": 6049,
      "али": 6050,
      "вого": 6051,
      "оне": 6052,
      "действи": 6053,
      "алек": 6054,
      "мат": 6055,
      "рая": 6056,
      "милли": 6057,
      "сни": 6058,
      "говори": 6059,
      "уни": 6060,
      "уче": 6061,
      "мина": 6062,
      "щё": 6063,
      "мента": 6064,
      "жения": 6065,
      "тно": 6066,
      "два": 6067,
      "систе": 6068,
      "коно": 6069,
      "населе": 6070,
      "евро": 6071,
      "чет": 6072,
      "ций": 6073,
      "раль": 6074,
      "реги": 6075,
      "le": 6076,
      "сме": 6077,
      "через": 6078,
      "точ": 6079,
      "нг": 6080,
      "куль": 6081,
      "вым": 6082,
      "сса": 6083,
      "глаза": 6084,
      "является": 6085,
      "дея": 6086,
      "дель": 6087,
      "сель": 6088,
      "согла": 6089,
      "буду": 6090,
      "той": 6091,
      "22": 6092,
      "поло": 6093,
      "нови": 6094,
      "один": 6095,
      "вета": 6096,
      "против": 6097,
      "тро": 6098,
      "лия": 6099,
      "ал": 6100,
      "зем": 6101,
      "кий": 6102,
      "195": 6103,
      "суще": 6104,
      "осно": 6105,
      "резу": 6106,
      "вот": 6107,
      "ками": 6108,
      "мира": 6109,
      "моск": 6110,
      "запа": 6111,
      "нару": 6112,
      "дже": 6113,
      "мии": 6114,
      "результа": 6115,
      "этот": 6116,
      "193": 6117,
      "место": 6118,
      "находи": 6119,
      "реше": 6120,
      "пока": 6121,
      "тво": 6122,
      "рий": 6123,
      "себя": 6124,
      "сай": 6125,
      "шко": 6126,
      "лич": 6127,
      "оче": 6128,
      "мир": 6129,
      "ссо": 6130,
      "всё": 6131,
      "уда": 6132,
      "ёл": 6133,
      "побе": 6134,
      "распо": 6135,
      "глав": 6136,
      "вопро": 6137,
      "хот": 6138,
      "рито": 6139,
      "приня": 6140,
      "сообщает": 6141,
      "состоя": 6142,
      "ью": 6143,
      "шел": 6144,
      "дума": 6145,
      "am": 6146,
      "наци": 6147,
      "ходя": 6148,
      "месте": 6149,
      "луч": 6150,
      "us": 6151,
      "представи": 6152,
      "бре": 6153,
      "нная": 6154,
      "больше": 6155,
      "быть": 6156,
      "спа": 6157,
      "био": 6158,
      "гли": 6159,
      "много": 6160,
      "заяви": 6161,
      "гре": 6162,
      "бур": 6163,
      "ких": 6164,
      "право": 6165,
      "as": 6166,
      "высо": 6167,
      "11": 6168,
      "скую": 6169,
      "ol": 6170,
      "ств": 6171,
      "мая": 6172,
      "зя": 6173,
      "станов": 6174,
      "восто": 6175,
      "пыта": 6176,
      "коми": 6177,
      "которых": 6178,
      "сотруд": 6179,
      "террито": 6180,
      "ходит": 6181,
      "вне": 6182,
      "дву": 6183,
      "тебя": 6184,
      "хе": 6185,
      "пря": 6186,
      "сам": 6187,
      "ющий": 6188,
      "роди": 6189,
      "города": 6190,
      "встре": 6191,
      "вший": 6192,
      "час": 6193,
      "доста": 6194,
      "ссылки": 6195,
      "фина": 6196,
      "хоро": 6197,
      "шта": 6198,
      "кол": 6199,
      "ёр": 6200,
      "цев": 6201,
      "шка": 6202,
      "несколько": 6203,
      "продол": 6204,
      "25": 6205,
      "стью": 6206,
      "ору": 6207,
      "ход": 6208,
      "опера": 6209,
      "числе": 6210,
      "мент": 6211,
      "вала": 6212,
      "ср": 6213,
      "стер": 6214,
      "явле": 6215,
      "нулся": 6216,
      "честве": 6217,
      "част": 6218,
      "миче": 6219,
      "эта": 6220,
      "очень": 6221,
      "министра": 6222,
      "американ": 6223,
      "тин": 6224,
      "сков": 6225,
      "дли": 6226,
      "чение": 6227,
      "около": 6228,
      "кие": 6229,
      "бла": 6230,
      "язы": 6231,
      "мно": 6232,
      "струк": 6233,
      "информа": 6234,
      "высту": 6235,
      "выпу": 6236,
      "il": 6237,
      "деву": 6238,
      "фу": 6239,
      "инте": 6240,
      "президе": 6241,
      "окру": 6242,
      "ющих": 6243,
      "руко": 6244,
      "хва": 6245,
      "30": 6246,
      "дерев": 6247,
      "есть": 6248,
      "осо": 6249,
      "ion": 6250,
      "даль": 6251,
      "нное": 6252,
      "тыся": 6253,
      "района": 6254,
      "дё": 6255,
      "организа": 6256,
      "ях": 6257,
      "гене": 6258,
      "став": 6259,
      "уби": 6260,
      "ющие": 6261,
      "un": 6262,
      "нской": 6263,
      "могу": 6264,
      "украи": 6265,
      "чения": 6266,
      "сдела": 6267,
      "интер": 6268,
      "поль": 6269,
      "разви": 6270,
      "нико": 6271,
      "возможно": 6272,
      "счита": 6273,
      "грам": 6274,
      "лан": 6275,
      "лага": 6276,
      "поч": 6277,
      "конт": 6278,
      "шла": 6279,
      "улы": 6280,
      "de": 6281,
      "изда": 6282,
      "нского": 6283,
      "om": 6284,
      "окт": 6285,
      "литера": 6286,
      "чув": 6287,
      "ряд": 6288,
      "каж": 6289,
      "государстве": 6290,
      "жение": 6291,
      "строи": 6292,
      "дека": 6293,
      "мате": 6294,
      "ешь": 6295,
      "ещё": 6296,
      "участ": 6297,
      "пери": 6298,
      "цер": 6299,
      "сил": 6300,
      "прия": 6301,
      "клу": 6302,
      "кое": 6303,
      "дели": 6304,
      "заме": 6305,
      "сент": 6306,
      "сан": 6307,
      "21": 6308,
      "работ": 6309,
      "воло": 6310,
      "пода": 6311,
      "ac": 6312,
      "кси": 6313,
      "кая": 6314,
      "всего": 6315,
      "смотре": 6316,
      "защи": 6317,
      "графия": 6318,
      "ез": 6319,
      "цио": 6320,
      "основ": 6321,
      "игро": 6322,
      "туры": 6323,
      "тен": 6324,
      "сейчас": 6325,
      "случа": 6326,
      "пози": 6327,
      "составля": 6328,
      "муж": 6329,
      "части": 6330,
      "шая": 6331,
      "семь": 6332,
      "чной": 6333,
      "емы": 6334,
      "музы": 6335,
      "ат": 6336,
      "of": 6337,
      "цион": 6338,
      "тран": 6339,
      "кур": 6340,
      "официаль": 6341,
      "одно": 6342,
      "гор": 6343,
      "стов": 6344,
      "сказал": 6345,
      "шения": 6346,
      "использо": 6347,
      "занима": 6348,
      "бан": 6349,
      "вклю": 6350,
      "своей": 6351,
      "янва": 6352,
      "стои": 6353,
      "оте": 6354,
      "исследо": 6355,
      "сбор": 6356,
      "эле": 6357,
      "пара": 6358,
      "переда": 6359,
      "эн": 6360,
      "которая": 6361,
      "нтов": 6362,
      "ню": 6363,
      "ством": 6364,
      "23": 6365,
      "шли": 6366,
      "жур": 6367,
      "фак": 6368,
      "ter": 6369,
      "дно": 6370,
      "следу": 6371,
      "нами": 6372,
      "состав": 6373,
      "свобо": 6374,
      "вну": 6375,
      "бира": 6376,
      "кам": 6377,
      "чего": 6378,
      "ших": 6379,
      "вол": 6380,
      "лишь": 6381,
      "ктор": 6382,
      "националь": 6383,
      "самы": 6384,
      "перед": 6385,
      "сня": 6386,
      "тии": 6387,
      "отве": 6388,
      "авгу": 6389,
      "тета": 6390,
      "ссср": 6391,
      "тирова": 6392,
      "сом": 6393,
      "ули": 6394,
      "свою": 6395,
      "вос": 6396,
      "санд": 6397,
      "гро": 6398,
      "нец": 6399,
      "тий": 6400,
      "ген": 6401,
      "ём": 6402,
      "моло": 6403,
      "ur": 6404,
      "24": 6405,
      "мор": 6406,
      "щу": 6407,
      "ed": 6408,
      "мере": 6409,
      "универси": 6410,
      "тут": 6411,
      "чемпиона": 6412,
      "щая": 6413,
      "ждения": 6414,
      "хов": 6415,
      "участи": 6416,
      "истори": 6417,
      "мов": 6418,
      "прав": 6419,
      "часть": 6420,
      "реши": 6421,
      "значи": 6422,
      "тай": 6423,
      "обы": 6424,
      "спор": 6425,
      "эконо": 6426,
      "глу": 6427,
      "чина": 6428,
      "позво": 6429,
      "учи": 6430,
      "феде": 6431,
      "призна": 6432,
      "кни": 6433,
      "et": 6434,
      "ранее": 6435,
      "фут": 6436,
      "кана": 6437,
      "дии": 6438,
      "международ": 6439,
      "вил": 6440,
      "тей": 6441,
      "джа": 6442,
      "and": 6443,
      "чен": 6444,
      "ческих": 6445,
      "вается": 6446,
      "апре": 6447,
      "служ": 6448,
      "усло": 6449,
      "ing": 6450,
      "нными": 6451,
      "данным": 6452,
      "тон": 6453,
      "бло": 6454,
      "стей": 6455,
      "свои": 6456,
      "администра": 6457,
      "тек": 6458,
      "км": 6459,
      "большо": 6460,
      "сою": 6461,
      "вую": 6462,
      "рам": 6463,
      "правитель": 6464,
      "вом": 6465,
      "александ": 6466,
      "мон": 6467,
      "среди": 6468,
      "жил": 6469,
      "време": 6470,
      "ческой": 6471,
      "ок": 6472,
      "республи": 6473,
      "оказа": 6474,
      "друго": 6475,
      "крас": 6476,
      "програм": 6477,
      "шло": 6478,
      "ница": 6479,
      "словам": 6480,
      "отме": 6481,
      "блю": 6482,
      "ита": 6483,
      "москов": 6484,
      "расс": 6485,
      "хотя": 6486,
      "меся": 6487,
      "ший": 6488,
      "проис": 6489,
      "поня": 6490,
      "войны": 6491,
      "смер": 6492,
      "тому": 6493,
      "шки": 6494,
      "всех": 6495,
      "конце": 6496,
      "кова": 6497,
      "ig": 6498,
      "тот": 6499,
      "жизни": 6500,
      "стя": 6501,
      "которой": 6502,
      "кло": 6503,
      "две": 6504,
      "история": 6505,
      "поддер": 6506,
      "долла": 6507,
      "шей": 6508,
      "этой": 6509,
      "люби": 6510,
      "заявил": 6511,
      "пример": 6512,
      "вшись": 6513,
      "руб": 6514,
      "февра": 6515,
      "круп": 6516,
      "ra": 6517,
      "компании": 6518,
      "ске": 6519,
      "стать": 6520,
      "нности": 6521,
      "веро": 6522,
      "гражда": 6523,
      "льный": 6524,
      "тие": 6525,
      "рье": 6526,
      "взгля": 6527,
      "двух": 6528,
      "проек": 6529,
      "слы": 6530,
      "онов": 6531,
      "строе": 6532,
      "совер": 6533,
      "перь": 6534,
      "влади": 6535,
      "успе": 6536,
      "нение": 6537,
      "источ": 6538,
      "себе": 6539,
      "окон": 6540,
      "вместе": 6541,
      "ступи": 6542,
      "ана": 6543,
      "гов": 6544,
      "ака": 6545,
      "кс": 6546,
      "нский": 6547,
      "тебе": 6548,
      "вести": 6549,
      "щения": 6550,
      "бом": 6551,
      "кроме": 6552,
      "этому": 6553,
      "вших": 6554,
      "женщи": 6555,
      "тить": 6556,
      "26": 6557,
      "пом": 6558,
      "ток": 6559,
      "разу": 6560,
      "дво": 6561,
      "худо": 6562,
      "ваться": 6563,
      "испол": 6564,
      "дома": 6565,
      "тогда": 6566,
      "памя": 6567,
      "зде": 6568,
      "начала": 6569,
      "затем": 6570,
      "пунк": 6571,
      "строй": 6572,
      "дел": 6573,
      "режи": 6574,
      "теперь": 6575,
      "зави": 6576,
      "настоя": 6577,
      "архи": 6578,
      "льных": 6579,
      "фон": 6580,
      "дой": 6581,
      "управле": 6582,
      "бере": 6583,
      "28": 6584,
      "бело": 6585,
      "нитель": 6586,
      "2010": 6587,
      "ья": 6588,
      "мину": 6589,
      "льные": 6590,
      "чле": 6591,
      "зии": 6592,
      "оли": 6593,
      "зер": 6594,
      "вен": 6595,
      "стар": 6596,
      "первый": 6597,
      "льной": 6598,
      "диви": 6599,
      "бое": 6600,
      "27": 6601,
      "нам": 6602,
      "вшие": 6603,
      "ино": 6604,
      "50": 6605,
      "хозя": 6606,
      "января": 6607,
      "рю": 6608,
      "показа": 6609,
      "бар": 6610,
      "районе": 6611,
      "верну": 6612,
      "услови": 6613,
      "щение": 6614,
      "меди": 6615,
      "ничего": 6616,
      "вался": 6617,
      "ким": 6618,
      "моби": 6619,
      "iv": 6620,
      "декабря": 6621,
      "времени": 6622,
      "чему": 6623,
      "нор": 6624,
      "ведения": 6625,
      "форми": 6626,
      "экс": 6627,
      "мей": 6628,
      "первые": 6629,
      "вают": 6630,
      "кус": 6631,
      "вари": 6632,
      "опре": 6633,
      "потом": 6634,
      "всегда": 6635,
      "сен": 6636,
      "ради": 6637,
      "улыб": 6638,
      "дро": 6639,
      "всем": 6640,
      "грани": 6641,
      "июля": 6642,
      "ческого": 6643,
      "актив": 6644,
      "марта": 6645,
      "ожи": 6646,
      "спорт": 6647,
      "цией": 6648,
      "чных": 6649,
      "сро": 6650,
      "мин": 6651,
      "хоте": 6652,
      "лег": 6653,
      "тысяч": 6654,
      "гото": 6655,
      "ровать": 6656,
      "нах": 6657,
      "ляр": 6658,
      "простра": 6659,
      "май": 6660,
      "вин": 6661,
      "вид": 6662,
      "насе": 6663,
      "тики": 6664,
      "скому": 6665,
      "октября": 6666,
      "совета": 6667,
      "верх": 6668,
      "мпи": 6669,
      "которого": 6670,
      "гло": 6671,
      "la": 6672,
      "льного": 6673,
      "сут": 6674,
      "способ": 6675,
      "сол": 6676,
      "нном": 6677,
      "скими": 6678,
      "нова": 6679,
      "лез": 6680,
      "сообщи": 6681,
      "нин": 6682,
      "рез": 6683,
      "сентября": 6684,
      "банка": 6685,
      "тери": 6686,
      "мол": 6687,
      "кино": 6688,
      "других": 6689,
      "29": 6690,
      "снова": 6691,
      "шие": 6692,
      "дит": 6693,
      "ави": 6694,
      "человека": 6695,
      "годы": 6696,
      "тора": 6697,
      "профе": 6698,
      "im": 6699,
      "нес": 6700,
      "190": 6701,
      "второй": 6702,
      "века": 6703,
      "телем": 6704,
      "своего": 6705,
      "заня": 6706,
      "страны": 6707,
      "доку": 6708,
      "пада": 6709,
      "долларов": 6710,
      "свой": 6711,
      "няя": 6712,
      "станови": 6713,
      "стала": 6714,
      "банк": 6715,
      "седа": 6716,
      "политиче": 6717,
      "ници": 6718,
      "произо": 6719,
      "августа": 6720,
      "ноября": 6721,
      "след": 6722,
      "украины": 6723,
      "стало": 6724,
      "ил": 6725,
      "июня": 6726,
      "жной": 6727,
      "принима": 6728,
      "четы": 6729,
      "харак": 6730,
      "низ": 6731,
      "инсти": 6732,
      "дости": 6733,
      "здесь": 6734,
      "см": 6735,
      "мости": 6736,
      "ia": 6737,
      "площа": 6738,
      "лин": 6739,
      "лья": 6740,
      "территории": 6741,
      "почти": 6742,
      "ер": 6743,
      "включа": 6744,
      "бю": 6745,
      "дово": 6746,
      "гео": 6747,
      "шёл": 6748,
      "гри": 6749,
      "вшего": 6750,
      "друг": 6751,
      "миро": 6752,
      "деятельно": 6753,
      "пробле": 6754,
      "щих": 6755,
      "могут": 6756,
      "ватель": 6757,
      "соответ": 6758,
      "нове": 6759,
      "связа": 6760,
      "аб": 6761,
      "пута": 6762,
      "най": 6763,
      "деся": 6764,
      "апреля": 6765,
      "лай": 6766,
      "акаде": 6767,
      "эй": 6768,
      "шин": 6769,
      "коли": 6770,
      "роль": 6771,
      "ожида": 6772,
      "ступ": 6773,
      "взя": 6774,
      "нас": 6775,
      "зву": 6776,
      "именно": 6777,
      "становле": 6778,
      "ческие": 6779,
      "получил": 6780,
      "боли": 6781,
      "нную": 6782,
      "назна": 6783,
      "ne": 6784,
      "долж": 6785,
      "выше": 6786,
      "пасно": 6787,
      "закры": 6788,
      "понима": 6789,
      "работы": 6790,
      "почему": 6791,
      "должно": 6792,
      "щий": 6793,
      "туа": 6794,
      "id": 6795,
      "награ": 6796,
      "метров": 6797,
      "север": 6798,
      "сим": 6799,
      "необ": 6800,
      "нью": 6801,
      "циали": 6802,
      "ог": 6803,
      "джи": 6804,
      "нула": 6805,
      "дина": 6806,
      "связи": 6807,
      "ссе": 6808,
      "ником": 6809,
      "ведь": 6810,
      "годах": 6811,
      "мом": 6812,
      "чей": 6813,
      "тал": 6814,
      "чный": 6815,
      "лии": 6816,
      "российской": 6817,
      "очере": 6818,
      "нил": 6819,
      "сон": 6820,
      "продолжа": 6821,
      "многи": 6822,
      "сохра": 6823,
      "2009": 6824,
      "гар": 6825,
      "2008": 6826,
      "изи": 6827,
      "ческий": 6828,
      "находится": 6829,
      "оборо": 6830,
      "шего": 6831,
      "сере": 6832,
      "един": 6833,
      "население": 6834,
      "тря": 6835,
      "ent": 6836,
      "пусти": 6837,
      "оце": 6838,
      "рё": 6839,
      "прин": 6840,
      "ясь": 6841,
      "воро": 6842,
      "называ": 6843,
      "строитель": 6844,
      "рублей": 6845,
      "направле": 6846,
      "зве": 6847,
      "будут": 6848,
      "пись": 6849,
      "бора": 6850,
      "отмеча": 6851,
      "дело": 6852,
      "долго": 6853,
      "одной": 6854,
      "степе": 6855,
      "появи": 6856,
      "пал": 6857,
      "сю": 6858,
      "аге": 6859,
      "мед": 6860,
      "стой": 6861,
      "туре": 6862,
      "группы": 6863,
      "lo": 6864,
      "мыш": 6865,
      "февраля": 6866,
      "помощ": 6867,
      "безо": 6868,
      "to": 6869,
      "тет": 6870,
      "2011": 6871,
      "село": 6872,
      "необходи": 6873,
      "ностью": 6874,
      "ссии": 6875,
      "искус": 6876,
      "зависи": 6877,
      "проти": 6878,
      "авиа": 6879,
      "сайте": 6880,
      "тами": 6881,
      "стри": 6882,
      "дия": 6883,
      "качестве": 6884,
      "каз": 6885,
      "силь": 6886,
      "поте": 6887,
      "куда": 6888,
      "точно": 6889,
      "составе": 6890,
      "ходе": 6891,
      "обви": 6892,
      "населё": 6893,
      "иск": 6894,
      "холо": 6895,
      "ir": 6896,
      "2012": 6897,
      "100": 6898,
      "зре": 6899,
      "спро": 6900,
      "сра": 6901,
      "щее": 6902,
      "финан": 6903,
      "запад": 6904,
      "све": 6905,
      "поста": 6906,
      "президент": 6907,
      "девушка": 6908,
      "нок": 6909,
      "носи": 6910,
      "согласно": 6911,
      "тах": 6912,
      "хозяй": 6913,
      "пли": 6914,
      "написа": 6915,
      "своих": 6916,
      "результате": 6917,
      "отли": 6918,
      "сце": 6919,
      "стали": 6920,
      "прода": 6921,
      "юсь": 6922,
      "сона": 6923,
      "ствует": 6924,
      "возду": 6925,
      "тар": 6926,
      "пять": 6927,
      "поги": 6928,
      "2014": 6929,
      "um": 6930,
      "пой": 6931,
      "интере": 6932,
      "ющего": 6933,
      "решение": 6934,
      "ванием": 6935,
      "ющей": 6936,
      "40": 6937,
      "ива": 6938,
      "участие": 6939,
      "деревня": 6940,
      "чил": 6941,
      "поддерж": 6942,
      "bo": 6943,
      "рую": 6944,
      "потре": 6945,
      "зада": 6946,
      "кле": 6947,
      "собой": 6948,
      "дире": 6949,
      "маль": 6950,
      "твер": 6951,
      "готов": 6952,
      "пен": 6953,
      "лежа": 6954,
      "производ": 6955,
      "ктро": 6956,
      "бов": 6957,
      "стороны": 6958,
      "населения": 6959,
      "чные": 6960,
      "чка": 6961,
      "ен": 6962,
      "собра": 6963,
      "шим": 6964,
      "другие": 6965,
      "тки": 6966,
      "жела": 6967,
      "центра": 6968,
      "зако": 6969,
      "ad": 6970,
      "заклю": 6971,
      "нность": 6972,
      "которое": 6973,
      "городе": 6974,
      "чество": 6975,
      "логии": 6976,
      "зации": 6977,
      "внима": 6978,
      "лев": 6979,
      "сегод": 6980,
      "сегодня": 6981,
      "надо": 6982,
      "истории": 6983,
      "такой": 6984,
      "пора": 6985,
      "жить": 6986,
      "жизнь": 6987,
      "лик": 6988,
      "плани": 6989,
      "рф": 6990,
      "ag": 6991,
      "скры": 6992,
      "сум": 6993,
      "золо": 6994,
      "реки": 6995,
      "рядом": 6996,
      "ред": 6997,
      "пей": 6998,
      "клад": 6999,
      "отноше": 7000,
      "ясни": 7001,
      "период": 7002,
      "украин": 7003,
      "власти": 7004,
      "административ": 7005,
      "2007": 7006,
      "олимпи": 7007,
      "189": 7008,
      "выпол": 7009,
      "расположе": 7010,
      "ган": 7011,
      "тный": 7012,
      "ph": 7013,
      "оп": 7014,
      "еха": 7015,
      "сне": 7016,
      "2015": 7017,
      "утвер": 7018,
      "слав": 7019,
      "ито": 7020,
      "охра": 7021,
      "нё": 7022,
      "хода": 7023,
      "руки": 7024,
      "англи": 7025,
      "тяже": 7026,
      "писи": 7027,
      "коле": 7028,
      "чного": 7029,
      "литература": 7030,
      "кора": 7031,
      "комна": 7032,
      "электро": 7033,
      "поле": 7034,
      "миха": 7035,
      "уров": 7036,
      "момент": 7037,
      "нить": 7038,
      "мень": 7039,
      "вере": 7040,
      "дре": 7041,
      "музыка": 7042,
      "квар": 7043,
      "деля": 7044,
      "физи": 7045,
      "матиче": 7046,
      "различ": 7047,
      "ut": 7048,
      "свет": 7049,
      "агент": 7050,
      "дней": 7051,
      "влия": 7052,
      "se": 7053,
      "федера": 7054,
      "нуть": 7055,
      "ори": 7056,
      "петер": 7057,
      "комму": 7058,
      "2013": 7059,
      "аре": 7060,
      "вало": 7061,
      "тоже": 7062,
      "правля": 7063,
      "сами": 7064,
      "ктора": 7065,
      "обеспе": 7066,
      "имени": 7067,
      "пожа": 7068,
      "наи": 7069,
      "людей": 7070,
      "началь": 7071,
      "игры": 7072,
      "ствия": 7073,
      "ёт": 7074,
      "приз": 7075,
      "ффе": 7076,
      "тый": 7077,
      "кажды": 7078,
      "чки": 7079,
      "нки": 7080,
      "генера": 7081,
      "мец": 7082,
      "льзу": 7083,
      "начале": 7084,
      "обнару": 7085,
      "ябре": 7086,
      "поселе": 7087,
      "компания": 7088,
      "закон": 7089,
      "составляет": 7090,
      "держи": 7091,
      "ющим": 7092,
      "особе": 7093,
      "безопасно": 7094,
      "ствовал": 7095,
      "коне": 7096,
      "анти": 7097,
      "япо": 7098,
      "ie": 7099,
      "эр": 7100,
      "одна": 7101,
      "жё": 7102,
      "2006": 7103,
      "лла": 7104,
      "рования": 7105,
      "стр": 7106,
      "удо": 7107,
      "название": 7108,
      "скоре": 7109,
      "дне": 7110,
      "спу": 7111,
      "причи": 7112,
      "ситуа": 7113,
      "пала": 7114,
      "использу": 7115,
      "паль": 7116,
      "прово": 7117,
      "фра": 7118,
      "цей": 7119,
      "биография": 7120,
      "поэтому": 7121,
      "таким": 7122,
      "треть": 7123,
      "игроки": 7124,
      "бург": 7125,
      "мене": 7126,
      "соеди": 7127,
      "представля": 7128,
      "герма": 7129,
      "губер": 7130,
      "шую": 7131,
      "2016": 7132,
      "вери": 7133,
      "казыва": 7134,
      "бай": 7135,
      "ье": 7136,
      "ост": 7137,
      "карье": 7138,
      "зов": 7139,
      "энер": 7140,
      "суд": 7141,
      "оде": 7142,
      "шен": 7143,
      "кую": 7144,
      "маши": 7145,
      "республики": 7146,
      "депута": 7147,
      "щего": 7148,
      "сила": 7149,
      "одного": 7150,
      "материа": 7151,
      "посе": 7152,
      "рует": 7153,
      "никогда": 7154,
      "потому": 7155,
      "диа": 7156,
      "сок": 7157,
      "стоит": 7158,
      "подоб": 7159,
      "ation": 7160,
      "матри": 7161,
      "роли": 7162,
      "часто": 7163,
      "фото": 7164,
      "фро": 7165,
      "котором": 7166,
      "процентов": 7167,
      "стана": 7168,
      "тол": 7169,
      "встреча": 7170,
      "веду": 7171,
      "обя": 7172,
      "щие": 7173,
      "ката": 7174,
      "60": 7175,
      "президента": 7176,
      "лий": 7177,
      "университета": 7178,
      "уро": 7179,
      "газ": 7180,
      "служи": 7181,
      "россия": 7182,
      "рели": 7183,
      "ложение": 7184,
      "турни": 7185,
      "ум": 7186,
      "расте": 7187,
      "co": 7188,
      "францу": 7189,
      "мона": 7190,
      "миллиар": 7191,
      "быстро": 7192,
      "фика": 7193,
      "специаль": 7194,
      "вить": 7195,
      "возвра": 7196,
      "pr": 7197,
      "дня": 7198,
      "вай": 7199,
      "прак": 7200,
      "тая": 7201,
      "фер": 7202,
      "ницы": 7203,
      "благода": 7204,
      "зад": 7205,
      "проду": 7206,
      "широ": 7207,
      "начал": 7208,
      "немец": 7209,
      "образом": 7210,
      "уди": 7211,
      "бежа": 7212,
      "мог": 7213,
      "частности": 7214,
      "iii": 7215,
      "помина": 7216,
      "ждение": 7217,
      "ственный": 7218,
      "места": 7219,
      "трен": 7220,
      "новый": 7221,
      "печа": 7222,
      "яр": 7223,
      "фло": 7224,
      "район": 7225,
      "обяза": 7226,
      "гей": 7227,
      "рин": 7228,
      "распростра": 7229,
      "мость": 7230,
      "премь": 7231,
      "журна": 7232,
      "группа": 7233,
      "тика": 7234,
      "фильм": 7235,
      "компле": 7236,
      "ce": 7237,
      "руковод": 7238,
      "вопрос": 7239,
      "ному": 7240,
      "убий": 7241,
      "пита": 7242,
      "дал": 7243,
      "музе": 7244,
      "фри": 7245,
      "лон": 7246,
      "лый": 7247,
      "тка": 7248,
      "вед": 7249,
      "одним": 7250,
      "наблю": 7251,
      "ul": 7252,
      "основа": 7253,
      "организации": 7254,
      "проводи": 7255,
      "тных": 7256,
      "нен": 7257,
      "ект": 7258,
      "теа": 7259,
      "голов": 7260,
      "2000": 7261,
      "мето": 7262,
      "разме": 7263,
      "вались": 7264,
      "мия": 7265,
      "ствие": 7266,
      "te": 7267,
      "подня": 7268,
      "менты": 7269,
      "заявле": 7270,
      "тю": 7271,
      "хорошо": 7272,
      "рок": 7273,
      "четыре": 7274,
      "рами": 7275,
      "начина": 7276,
      "сразу": 7277,
      "ap": 7278,
      "кали": 7279,
      "красно": 7280,
      "ступле": 7281,
      "либо": 7282,
      "син": 7283,
      "британ": 7284,
      "вода": 7285,
      "первой": 7286,
      "регу": 7287,
      "специали": 7288,
      "2005": 7289,
      "свое": 7290,
      "наде": 7291,
      "смотря": 7292,
      "худож": 7293,
      "автомоби": 7294,
      "види": 7295,
      "com": 7296,
      "объек": 7297,
      "завер": 7298,
      "лицо": 7299,
      "получа": 7300,
      "действия": 7301,
      "ствии": 7302,
      "имеет": 7303,
      "рода": 7304,
      "ква": 7305,
      "эль": 7306,
      "предпо": 7307,
      "этих": 7308,
      "скоро": 7309,
      "сколь": 7310,
      "лле": 7311,
      "нужно": 7312,
      "отделе": 7313,
      "спек": 7314,
      "социаль": 7315,
      "гии": 7316,
      "должен": 7317,
      "жных": 7318,
      "техно": 7319,
      "188": 7320,
      "2002": 7321,
      "тихо": 7322,
      "слыша": 7323,
      "воору": 7324,
      "впервые": 7325,
      "поме": 7326,
      "дох": 7327,
      "стол": 7328,
      "рамках": 7329,
      "кура": 7330,
      "аэ": 7331,
      "2004": 7332,
      "мало": 7333,
      "большой": 7334,
      "течение": 7335,
      "руководи": 7336,
      "работал": 7337,
      "задержа": 7338,
      "испа": 7339,
      "сез": 7340,
      "опубли": 7341,
      "муници": 7342,
      "круг": 7343,
      "вел": 7344,
      "миллионов": 7345,
      "армии": 7346,
      "попу": 7347,
      "тё": 7348,
      "институ": 7349,
      "sp": 7350,
      "ственных": 7351,
      "олимпий": 7352,
      "цов": 7353,
      "тила": 7354,
      "годов": 7355,
      "такие": 7356,
      "централь": 7357,
      "серд": 7358,
      "тили": 7359,
      "постоя": 7360,
      "иль": 7361,
      "мм": 7362,
      "председа": 7363,
      "экономи": 7364,
      "оди": 7365,
      "праз": 7366,
      "ваний": 7367,
      "функ": 7368,
      "каждый": 7369,
      "ственной": 7370,
      "геро": 7371,
      "секре": 7372,
      "пресс": 7373,
      "мышле": 7374,
      "пользо": 7375,
      "экономиче": 7376,
      "француз": 7377,
      "лета": 7378,
      "эт": 7379,
      "шение": 7380,
      "оконча": 7381,
      "описа": 7382,
      "доба": 7383,
      "отказа": 7384,
      "волю": 7385,
      "лад": 7386,
      "партии": 7387,
      "техниче": 7388,
      "лок": 7389,
      "неф": 7390,
      "тых": 7391,
      "мужчи": 7392,
      "чёт": 7393,
      "относи": 7394,
      "кило": 7395,
      "2017": 7396,
      "голос": 7397,
      "31": 7398,
      "град": 7399,
      "эту": 7400,
      "ай": 7401,
      "ri": 7402,
      "например": 7403,
      "желез": 7404,
      "вов": 7405,
      "анали": 7406,
      "известно": 7407,
      "тые": 7408,
      "тради": 7409,
      "нар": 7410,
      "новой": 7411,
      "времен": 7412,
      "гам": 7413,
      "нему": 7414,
      "шком": 7415,
      "умер": 7416,
      "зво": 7417,
      "мах": 7418,
      "тельной": 7419,
      "безопасности": 7420,
      "обре": 7421,
      "управления": 7422,
      "карти": 7423,
      "менее": 7424,
      "буд": 7425,
      "щую": 7426,
      "этим": 7427,
      "дми": 7428,
      "жды": 7429,
      "давно": 7430,
      "бал": 7431,
      "имя": 7432,
      "системы": 7433,
      "сове": 7434,
      "вале": 7435,
      "2018": 7436,
      "противо": 7437,
      "экспер": 7438,
      "случае": 7439,
      "кня": 7440,
      "ma": 7441,
      "os": 7442,
      "процента": 7443,
      "тео": 7444,
      "александр": 7445,
      "иде": 7446,
      "эффе": 7447,
      "кви": 7448,
      "гна": 7449,
      "журнали": 7450,
      "li": 7451,
      "права": 7452,
      "дали": 7453,
      "уз": 7454,
      "щей": 7455,
      "победи": 7456,
      "паре": 7457,
      "пси": 7458,
      "лам": 7459,
      "ночь": 7460,
      "своим": 7461,
      "ci": 7462,
      "глава": 7463,
      "35": 7464,
      "зирова": 7465,
      "обеща": 7466,
      "вшей": 7467,
      "чная": 7468,
      "собы": 7469,
      "которую": 7470,
      "юго": 7471,
      "принад": 7472,
      "информации": 7473,
      "док": 7474,
      "пят": 7475,
      "вили": 7476,
      "выми": 7477,
      "нена": 7478,
      "лень": 7479,
      "чить": 7480,
      "москве": 7481,
      "персона": 7482,
      "лучше": 7483,
      "велико": 7484,
      "центр": 7485,
      "og": 7486,
      "кнул": 7487,
      "пали": 7488,
      "другой": 7489,
      "северо": 7490,
      "дале": 7491,
      "шно": 7492,
      "гом": 7493,
      "увиде": 7494,
      "увели": 7495,
      "меха": 7496,
      "уси": 7497,
      "допол": 7498,
      "продук": 7499,
      "ru": 7500,
      "двер": 7501,
      "ближа": 7502,
      "смерти": 7503,
      "187": 7504,
      "близ": 7505,
      "запре": 7506,
      "культур": 7507,
      "съ": 7508,
      "щен": 7509,
      "чуть": 7510,
      "вей": 7511,
      "возгла": 7512,
      "учё": 7513,
      "евич": 7514,
      "ственного": 7515,
      "несколь": 7516,
      "реаль": 7517,
      "жный": 7518,
      "жили": 7519,
      "бир": 7520,
      "ристи": 7521,
      "мого": 7522,
      "люди": 7523,
      "сборной": 7524,
      "граждан": 7525,
      "деньги": 7526,
      "союза": 7527,
      "бол": 7528,
      "юри": 7529,
      "фк": 7530,
      "тельный": 7531,
      "некоторые": 7532,
      "чик": 7533,
      "позволя": 7534,
      "расска": 7535,
      "подтвер": 7536,
      "дон": 7537,
      "внутрен": 7538,
      "граф": 7539,
      "xx": 7540,
      "ева": 7541,
      "сад": 7542,
      "шку": 7543,
      "новости": 7544,
      "цен": 7545,
      "федерации": 7546,
      "владимир": 7547,
      "европей": 7548,
      "лица": 7549,
      "ix": 7550,
      "отечестве": 7551,
      "ющая": 7552,
      "родился": 7553,
      "семей": 7554,
      "демо": 7555,
      "входит": 7556,
      "зло": 7557,
      "двига": 7558,
      "настоящее": 7559,
      "нулась": 7560,
      "рома": 7561,
      "посмотре": 7562,
      "em": 7563,
      "слишком": 7564,
      "лит": 7565,
      "ун": 7566,
      "валась": 7567,
      "стран": 7568,
      "равно": 7569,
      "реда": 7570,
      "паде": 7571,
      "эм": 7572,
      "новые": 7573,
      "зь": 7574,
      "дной": 7575,
      "автор": 7576,
      "дю": 7577,
      "совреме": 7578,
      "ot": 7579,
      "джон": 7580,
      "чие": 7581,
      "тельства": 7582,
      "кер": 7583,
      "чай": 7584,
      "зма": 7585,
      "тически": 7586,
      "пов": 7587,
      "борь": 7588,
      "облада": 7589,
      "клет": 7590,
      "весь": 7591,
      "выра": 7592,
      "кин": 7593,
      "2001": 7594,
      "брита": 7595,
      "ступа": 7596,
      "ходят": 7597,
      "проект": 7598,
      "медици": 7599,
      "похо": 7600,
      "2003": 7601,
      "работу": 7602,
      "какой": 7603,
      "хан": 7604,
      "министер": 7605,
      "нра": 7606,
      "поку": 7607,
      "da": 7608,
      "пункты": 7609,
      "ht": 7610,
      "проте": 7611,
      "ата": 7612,
      "представле": 7613,
      "немного": 7614,
      "ними": 7615,
      "спокой": 7616,
      "оно": 7617,
      "бел": 7618,
      "конечно": 7619,
      "ard": 7620,
      "ом": 7621,
      "ческая": 7622,
      "новь": 7623,
      "ап": 7624,
      "собира": 7625,
      "твор": 7626,
      "сказать": 7627,
      "гами": 7628,
      "таких": 7629,
      "орде": 7630,
      "муще": 7631,
      "выпуск": 7632,
      "xv": 7633,
      "соверше": 7634,
      "йти": 7635,
      "тельных": 7636,
      "ждё": 7637,
      "альбо": 7638,
      "голову": 7639,
      "рию": 7640,
      "op": 7641,
      "рёх": 7642,
      "друга": 7643,
      "минут": 7644,
      "клуб": 7645,
      "требо": 7646,
      "огра": 7647,
      "80": 7648,
      "взгляд": 7649,
      "вшая": 7650,
      "ct": 7651,
      "никами": 7652,
      "жные": 7653,
      "акти": 7654,
      "команды": 7655,
      "стати": 7656,
      "вновь": 7657,
      "церков": 7658,
      "шед": 7659,
      "преду": 7660,
      "изра": 7661,
      "уч": 7662,
      "вок": 7663,
      "существо": 7664,
      "лые": 7665,
      "макси": 7666,
      "коллек": 7667,
      "газе": 7668,
      "for": 7669,
      "кса": 7670,
      "зоне": 7671,
      "будь": 7672,
      "знаю": 7673,
      "отра": 7674,
      "вообще": 7675,
      "являются": 7676,
      "назад": 7677,
      "памят": 7678,
      "дать": 7679,
      "ess": 7680,
      "кос": 7681,
      "воды": 7682,
      "пути": 7683,
      "рах": 7684,
      "хочу": 7685,
      "формирова": 7686,
      "торы": 7687,
      "мас": 7688,
      "никола": 7689,
      "совсем": 7690,
      "бель": 7691,
      "000": 7692,
      "указа": 7693,
      "ментов": 7694,
      "объеди": 7695,
      "ницу": 7696,
      "франции": 7697,
      "дида": 7698,
      "парла": 7699,
      "москвы": 7700,
      "приме": 7701,
      "подчер": 7702,
      "подписа": 7703,
      "театра": 7704,
      "парень": 7705,
      "so": 7706,
      "отдель": 7707,
      "сторон": 7708,
      "освобо": 7709,
      "российский": 7710,
      "содержа": 7711,
      "дий": 7712,
      "четвер": 7713,
      "догово": 7714,
      "руку": 7715,
      "ваются": 7716,
      "be": 7717,
      "выс": 7718,
      "оз": 7719,
      "торов": 7720,
      "новых": 7721,
      "словно": 7722,
      "видео": 7723,
      "исклю": 7724,
      "малень": 7725,
      "стом": 7726,
      "кварти": 7727,
      "компози": 7728,
      "союз": 7729,
      "количество": 7730,
      "пос": 7731,
      "разработ": 7732,
      "бес": 7733,
      "стату": 7734,
      "санкт": 7735,
      "нового": 7736,
      "езда": 7737,
      "особенно": 7738,
      "дова": 7739,
      "кандида": 7740,
      "позже": 7741,
      "нке": 7742,
      "2022": 7743,
      "советский": 7744,
      "попы": 7745,
      "вд": 7746,
      "вза": 7747,
      "фило": 7748,
      "70": 7749,
      "фигу": 7750,
      "шее": 7751,
      "ото": 7752,
      "находя": 7753,
      "сообще": 7754,
      "такое": 7755,
      "оружи": 7756,
      "список": 7757,
      "вида": 7758,
      "самого": 7759,
      "ныне": 7760,
      "шет": 7761,
      "мире": 7762,
      "должны": 7763,
      "ers": 7764,
      "езд": 7765,
      "лой": 7766,
      "узна": 7767,
      "зом": 7768,
      "чал": 7769,
      "поро": 7770,
      "удалось": 7771,
      "тной": 7772,
      "иска": 7773,
      "чёр": 7774,
      "уточ": 7775,
      "сообщил": 7776,
      "взры": 7777,
      "сказала": 7778,
      "186": 7779,
      "нина": 7780,
      "верхов": 7781,
      "сче": 7782,
      "благо": 7783,
      "дить": 7784,
      "ир": 7785,
      "данные": 7786,
      "нув": 7787,
      "2019": 7788,
      "ссыл": 7789,
      "кредит": 7790,
      "отправи": 7791,
      "законо": 7792,
      "пари": 7793,
      "джо": 7794,
      "мнению": 7795,
      "мимо": 7796,
      "метра": 7797,
      "прошло": 7798,
      "емых": 7799,
      "многие": 7800,
      "реа": 7801,
      "хар": 7802,
      "лых": 7803,
      "професси": 7804,
      "великобрита": 7805,
      "ланд": 7806,
      "вании": 7807,
      "дис": 7808,
      "обычно": 7809,
      "изме": 7810,
      "региона": 7811,
      "внеш": 7812,
      "населённые": 7813,
      "биз": 7814,
      "кара": 7815,
      "дере": 7816,
      "большин": 7817,
      "библи": 7818,
      "лл": 7819,
      "гг": 7820,
      "слуша": 7821,
      "тельные": 7822,
      "никто": 7823,
      "дмитри": 7824,
      "доступ": 7825,
      "ён": 7826,
      "построе": 7827,
      "выбо": 7828,
      "45": 7829,
      "бен": 7830,
      "москва": 7831,
      "дри": 7832,
      "od": 7833,
      "цами": 7834,
      "мое": 7835,
      "край": 7836,
      "дил": 7837,
      "детей": 7838,
      "образования": 7839,
      "жется": 7840,
      "заста": 7841,
      "сериа": 7842,
      "команди": 7843,
      "хотел": 7844,
      "предло": 7845,
      "несмотря": 7846,
      "дыха": 7847,
      "вли": 7848,
      "ющее": 7849,
      "микро": 7850,
      "прожи": 7851,
      "предприя": 7852,
      "пет": 7853,
      "мари": 7854,
      "прекра": 7855,
      "тельного": 7856,
      "вам": 7857,
      "ведение": 7858,
      "федераль": 7859,
      "живот": 7860,
      "второ": 7861,
      "сми": 7862,
      "куб": 7863,
      "бас": 7864,
      "жена": 7865,
      "гос": 7866,
      "замести": 7867,
      "футболи": 7868,
      "режисс": 7869,
      "вернулся": 7870,
      "правда": 7871,
      "ниях": 7872,
      "министр": 7873,
      "1990": 7874,
      "член": 7875,
      "потеря": 7876,
      "отметил": 7877,
      "пру": 7878,
      "экспе": 7879,
      "руется": 7880,
      "полностью": 7881,
      "округа": 7882,
      "мага": 7883,
      "ниц": 7884,
      "наиболее": 7885,
      "независи": 7886,
      "пти": 7887,
      "эффек": 7888,
      "выз": 7889,
      "китай": 7890,
      "предоста": 7891,
      "лем": 7892,
      "деб": 7893,
      "военно": 7894,
      "германии": 7895,
      "культуры": 7896,
      "вокруг": 7897,
      "сама": 7898,
      "2020": 7899,
      "мель": 7900,
      "академии": 7901,
      "одо": 7902,
      "чар": 7903,
      "церкви": 7904,
      "посколь": 7905,
      "ведом": 7906,
      "логия": 7907,
      "жителей": 7908,
      "куро": 7909,
      "реме": 7910,
      "епи": 7911,
      "брать": 7912,
      "финансо": 7913,
      "мной": 7914,
      "ара": 7915,
      "new": 7916,
      "осуще": 7917,
      "нович": 7918,
      "установле": 7919,
      "терро": 7920,
      "древ": 7921,
      "ближай": 7922,
      "профессо": 7923,
      "сфе": 7924,
      "станции": 7925,
      "телями": 7926,
      "втор": 7927,
      "изобра": 7928,
      "суб": 7929,
      "выда": 7930,
      "бит": 7931,
      "европы": 7932,
      "рази": 7933,
      "зова": 7934,
      "чества": 7935,
      "сын": 7936,
      "которым": 7937,
      "сделать": 7938,
      "демон": 7939,
      "вече": 7940,
      "нили": 7941,
      "зия": 7942,
      "празд": 7943,
      "1999": 7944,
      "лях": 7945,
      "площадь": 7946,
      "поскольку": 7947,
      "цель": 7948,
      "погиб": 7949,
      "утвержда": 7950,
      "кате": 7951,
      "казах": 7952,
      "генерал": 7953,
      "пуска": 7954,
      "нику": 7955,
      "ab": 7956,
      "сек": 7957,
      "движения": 7958,
      "будто": 7959,
      "наук": 7960,
      "службы": 7961,
      "поки": 7962,
      "ow": 7963,
      "система": 7964,
      "тик": 7965,
      "развития": 7966,
      "нескольких": 7967,
      "форм": 7968,
      "реали": 7969,
      "сыгра": 7970,
      "спорта": 7971,
      "ровал": 7972,
      "ствовать": 7973,
      "полови": 7974,
      "медле": 7975,
      "вила": 7976,
      "импера": 7977,
      "государства": 7978,
      "примерно": 7979,
      "ряда": 7980,
      "региональ": 7981,
      "sh": 7982,
      "лиде": 7983,
      "риаль": 7984,
      "сайт": 7985,
      "премьер": 7986,
      "ам": 7987,
      "производи": 7988,
      "первого": 7989,
      "секу": 7990,
      "степени": 7991,
      "объяви": 7992,
      "промышле": 7993,
      "сторону": 7994,
      "отсут": 7995,
      "тело": 7996,
      "шах": 7997,
      "школы": 7998,
      "горя": 7999,
      "тился": 8000,
      "судь": 8001,
      "класси": 8002,
      "англий": 8003,
      "колле": 8004,
      "оши": 8005,
      "поселения": 8006,
      "бок": 8007,
      "думал": 8008,
      "ствуют": 8009,
      "чным": 8010,
      "требу": 8011,
      "полно": 8012,
      "жей": 8013,
      "сколько": 8014,
      "мета": 8015,
      "пост": 8016,
      "90": 8017,
      "еписко": 8018,
      "di": 8019,
      "совмест": 8020,
      "шем": 8021,
      "нера": 8022,
      "гон": 8023,
      "сельского": 8024,
      "аэро": 8025,
      "возмо": 8026,
      "ходил": 8027,
      "рс": 8028,
      "устрой": 8029,
      "выступа": 8030,
      "защит": 8031,
      "боро": 8032,
      "попро": 8033,
      "имуще": 8034,
      "скри": 8035,
      "дверь": 8036,
      "сед": 8037,
      "плат": 8038,
      "фильмы": 8039,
      "препода": 8040,
      "нос": 8041,
      "36": 8042,
      "конф": 8043,
      "останови": 8044,
      "позд": 8045,
      "превра": 8046,
      "учре": 8047,
      "фици": 8048,
      "правительства": 8049,
      "вес": 8050,
      "поряд": 8051,
      "кажется": 8052,
      "бля": 8053,
      "ствен": 8054,
      "сср": 8055,
      "зам": 8056,
      "зай": 8057,
      "лко": 8058,
      "представители": 8059,
      "захва": 8060,
      "отношения": 8061,
      "звез": 8062,
      "вспо": 8063,
      "наконец": 8064,
      "ственные": 8065,
      "решил": 8066,
      "сердце": 8067,
      "водо": 8068,
      "вся": 8069,
      "кров": 8070,
      "меч": 8071,
      "внутри": 8072,
      "тали": 8073,
      "включая": 8074,
      "села": 8075,
      "темпера": 8076,
      "поступи": 8077,
      "мак": 8078,
      "чемпионата": 8079,
      "мэ": 8080,
      "число": 8081,
      "ber": 8082,
      "кому": 8083,
      "пяти": 8084,
      "определе": 8085,
      "стен": 8086,
      "всю": 8087,
      "37": 8088,
      "льная": 8089,
      "суда": 8090,
      "жного": 8091,
      "еты": 8092,
      "деятельность": 8093,
      "жит": 8094,
      "пове": 8095,
      "предполага": 8096,
      "посвя": 8097,
      "иногда": 8098,
      "дор": 8099,
      "транспорт": 8100,
      "кими": 8101,
      "уго": 8102,
      "отечественной": 8103,
      "това": 8104,
      "условия": 8105,
      "чку": 8106,
      "играл": 8107,
      "тике": 8108,
      "королев": 8109,
      "художе": 8110,
      "воду": 8111,
      "валось": 8112,
      "заслу": 8113,
      "ческое": 8114,
      "сор": 8115,
      "миллиона": 8116,
      "столи": 8117,
      "клуба": 8118,
      "ферен": 8119,
      "вас": 8120,
      "радио": 8121,
      "привле": 8122,
      "est": 8123,
      "джей": 8124,
      "art": 8125,
      "деятельности": 8126,
      "парта": 8127,
      "ниж": 8128,
      "графии": 8129,
      "первым": 8130,
      "тела": 8131,
      "типа": 8132,
      "импе": 8133,
      "тию": 8134,
      "популяр": 8135,
      "стно": 8136,
      "леку": 8137,
      "льное": 8138,
      "представитель": 8139,
      "версии": 8140,
      "любов": 8141,
      "ревно": 8142,
      "провер": 8143,
      "дене": 8144,
      "часов": 8145,
      "еже": 8146,
      "38": 8147,
      "прямо": 8148,
      "объя": 8149,
      "подро": 8150,
      "угро": 8151,
      "ge": 8152,
      "уме": 8153,
      "пишет": 8154,
      "хро": 8155,
      "лог": 8156,
      "ваясь": 8157,
      "услу": 8158,
      "жении": 8159,
      "последний": 8160,
      "эп": 8161,
      "48": 8162,
      "избра": 8163,
      "мать": 8164,
      "национальной": 8165,
      "ление": 8166,
      "улыба": 8167,
      "мили": 8168,
      "озе": 8169,
      "185": 8170,
      "зав": 8171,
      "вления": 8172,
      "исследования": 8173,
      "навер": 8174,
      "общи": 8175,
      "разделе": 8176,
      "благодаря": 8177,
      "тельным": 8178,
      "цвет": 8179,
      "серь": 8180,
      "современ": 8181,
      "ссылкой": 8182,
      "хом": 8183,
      "опа": 8184,
      "солю": 8185,
      "холод": 8186,
      "жерт": 8187,
      "проекта": 8188,
      "чает": 8189,
      "ада": 8190,
      "поце": 8191,
      "абсолю": 8192,
      "перво": 8193,
      "кал": 8194,
      "последние": 8195,
      "корпу": 8196,
      "ограниче": 8197,
      "характери": 8198,
      "pro": 8199,
      "нит": 8200,
      "характер": 8201,
      "тым": 8202,
      "войска": 8203,
      "жан": 8204,
      "остро": 8205,
      "положи": 8206,
      "улица": 8207,
      "мои": 8208,
      "ложения": 8209,
      "смотри": 8210,
      "вшиеся": 8211,
      "фили": 8212,
      "оба": 8213,
      "ran": 8214,
      "гори": 8215,
      "провин": 8216,
      "вии": 8217,
      "револю": 8218,
      "all": 8219,
      "поне": 8220,
      "нному": 8221,
      "чное": 8222,
      "решения": 8223,
      "зри": 8224,
      "фан": 8225,
      "фильма": 8226,
      "команду": 8227,
      "контра": 8228,
      "ленин": 8229,
      "руют": 8230,
      "били": 8231,
      "qu": 8232,
      "действительно": 8233,
      "пью": 8234,
      "внимание": 8235,
      "чном": 8236,
      "1941": 8237,
      "обсу": 8238,
      "расследо": 8239,
      "акции": 8240,
      "постра": 8241,
      "ватели": 8242,
      "брю": 8243,
      "вскоре": 8244,
      "возможность": 8245,
      "земли": 8246,
      "вит": 8247,
      "реша": 8248,
      "каса": 8249,
      "рим": 8250,
      "man": 8251,
      "зин": 8252,
      "1945": 8253,
      "расши": 8254,
      "карту": 8255,
      "ov": 8256,
      "форму": 8257,
      "ist": 8258,
      "лично": 8259,
      "зан": 8260,
      "конца": 8261,
      "стране": 8262,
      "привы": 8263,
      "дипло": 8264,
      "циа": 8265,
      "спортив": 8266,
      "расстоя": 8267,
      "дальней": 8268,
      "великой": 8269,
      "подозре": 8270,
      "вышел": 8271,
      "34": 8272,
      "краси": 8273,
      "вшим": 8274,
      "каби": 8275,
      "нев": 8276,
      "медаль": 8277,
      "иностра": 8278,
      "кафе": 8279,
      "таль": 8280,
      "инже": 8281,
      "каме": 8282,
      "маги": 8283,
      "дево": 8284,
      "рав": 8285,
      "имо": 8286,
      "коль": 8287,
      "убе": 8288,
      "подготов": 8289,
      "хоче": 8290,
      "самых": 8291,
      "мс": 8292,
      "ид": 8293,
      "возра": 8294,
      "бого": 8295,
      "роман": 8296,
      "присут": 8297,
      "вича": 8298,
      "спаси": 8299,
      "рассматри": 8300,
      "ственное": 8301,
      "ления": 8302,
      "вероя": 8303,
      "1998": 8304,
      "нибудь": 8305,
      "учеб": 8306,
      "мощ": 8307,
      "бил": 8308,
      "брь": 8309,
      "мых": 8310,
      "ционных": 8311,
      "сергей": 8312,
      "сокра": 8313,
      "нике": 8314,
      "циях": 8315,
      "чески": 8316,
      "боя": 8317,
      "брат": 8318,
      "зм": 8319,
      "осе": 8320,
      "уничто": 8321,
      "лого": 8322,
      "кори": 8323,
      "отец": 8324,
      "сена": 8325,
      "con": 8326,
      "премии": 8327,
      "намере": 8328,
      "дент": 8329,
      "возник": 8330,
      "государственного": 8331,
      "говорил": 8332,
      "рос": 8333,
      "очередь": 8334,
      "случай": 8335,
      "осущест": 8336,
      "писы": 8337,
      "слов": 8338,
      "мыс": 8339,
      "нрави": 8340,
      "ta": 8341,
      "работать": 8342,
      "ционной": 8343,
      "чемпион": 8344,
      "дан": 8345,
      "сия": 8346,
      "пытался": 8347,
      "волосы": 8348,
      "столько": 8349,
      "ощу": 8350,
      "самым": 8351,
      "мировой": 8352,
      "пил": 8353,
      "неё": 8354,
      "ио": 8355,
      "помощью": 8356,
      "корот": 8357,
      "фин": 8358,
      "лес": 8359,
      "кир": 8360,
      "контро": 8361,
      "маг": 8362,
      "кп": 8363,
      "данных": 8364,
      "медленно": 8365,
      "поля": 8366,
      "свиде": 8367,
      "хоть": 8368,
      "условиях": 8369,
      "уи": 8370,
      "силы": 8371,
      "президен": 8372,
      "цар": 8373,
      "ул": 8374,
      "итоге": 8375,
      "up": 8376,
      "меро": 8377,
      "добро": 8378,
      "ine": 8379,
      "комен": 8380,
      "надца": 8381,
      "1944": 8382,
      "олимпийских": 8383,
      "агентство": 8384,
      "чать": 8385,
      "тельное": 8386,
      "похоро": 8387,
      "моно": 8388,
      "ремо": 8389,
      "некоторых": 8390,
      "1991": 8391,
      "игр": 8392,
      "дороги": 8393,
      "эд": 8394,
      "уголов": 8395,
      "дополнитель": 8396,
      "полков": 8397,
      "ёз": 8398,
      "сильно": 8399,
      "передает": 8400,
      "крупней": 8401,
      "вместо": 8402,
      "ведё": 8403,
      "тные": 8404,
      "достаточно": 8405,
      "цве": 8406,
      "ходить": 8407,
      "область": 8408,
      "середи": 8409,
      "валь": 8410,
      "соревно": 8411,
      "знал": 8412,
      "свер": 8413,
      "сообщается": 8414,
      "рань": 8415,
      "официальный": 8416,
      "шке": 8417,
      "пасса": 8418,
      "коммер": 8419,
      "1996": 8420,
      "делать": 8421,
      "должна": 8422,
      "др": 8423,
      "петербург": 8424,
      "трех": 8425,
      "фести": 8426,
      "джу": 8427,
      "средства": 8428,
      "вопросы": 8429,
      "креди": 8430,
      "йор": 8431,
      "тури": 8432,
      "мана": 8433,
      "47": 8434,
      "великобритании": 8435,
      "1997": 8436,
      "честь": 8437,
      "моя": 8438,
      "конструк": 8439,
      "торго": 8440,
      "операции": 8441,
      "ус": 8442,
      "компью": 8443,
      "говорить": 8444,
      "сезона": 8445,
      "нда": 8446,
      "39": 8447,
      "оны": 8448,
      "рование": 8449,
      "ира": 8450,
      "альбом": 8451,
      "взаимо": 8452,
      "ign": 8453,
      "наблюда": 8454,
      "обслужи": 8455,
      "вдруг": 8456,
      "прости": 8457,
      "нице": 8458,
      "рис": 8459,
      "воль": 8460,
      "массо": 8461,
      "измени": 8462,
      "клие": 8463,
      "назначен": 8464,
      "вление": 8465,
      "мяг": 8466,
      "льян": 8467,
      "линии": 8468,
      "пля": 8469,
      "гром": 8470,
      "разру": 8471,
      "ok": 8472,
      "сотрудники": 8473,
      "горь": 8474,
      "института": 8475,
      "перегово": 8476,
      "1994": 8477,
      "вана": 8478,
      "жением": 8479,
      "1992": 8480,
      "общества": 8481,
      "огром": 8482,
      "туру": 8483,
      "ложен": 8484,
      "мысли": 8485,
      "формы": 8486,
      "серии": 8487,
      "бин": 8488,
      "78": 8489,
      "ужа": 8490,
      "зачем": 8491,
      "мани": 8492,
      "32": 8493,
      "хол": 8494,
      "переписи": 8495,
      "сначала": 8496,
      "тала": 8497,
      "программы": 8498,
      "месяца": 8499,
      "молеку": 8500,
      "моря": 8501,
      "мию": 8502,
      "нюю": 8503,
      "млад": 8504,
      "цвета": 8505,
      "хло": 8506,
      "источники": 8507,
      "довольно": 8508,
      "сцена": 8509,
      "технологи": 8510,
      "помощи": 8511,
      "киев": 8512,
      "сить": 8513,
      "секрета": 8514,
      "нель": 8515,
      "мок": 8516,
      "жем": 8517,
      "2021": 8518,
      "жены": 8519,
      "скре": 8520,
      "пассажи": 8521,
      "дут": 8522,
      "ческим": 8523,
      "крови": 8524,
      "говоря": 8525,
      "чел": 8526,
      "развитие": 8527,
      "жным": 8528,
      "me": 8529,
      "порт": 8530,
      "российского": 8531,
      "bn": 8532,
      "счет": 8533,
      "водя": 8534,
      "дат": 8535,
      "эко": 8536,
      "ниже": 8537,
      "ссия": 8538,
      "такого": 8539,
      "чика": 8540,
      "издание": 8541,
      "всей": 8542,
      "обороны": 8543,
      "чек": 8544,
      "комитета": 8545,
      "вёл": 8546,
      "итальян": 8547,
      "скон": 8548,
      "норма": 8549,
      "изо": 8550,
      "бога": 8551,
      "сна": 8552,
      "недо": 8553,
      "1980": 8554,
      "австра": 8555,
      "самой": 8556,
      "работе": 8557,
      "приш": 8558,
      "кке": 8559,
      "читы": 8560,
      "получила": 8561,
      "нье": 8562,
      "тена": 8563,
      "чении": 8564,
      "глаз": 8565,
      "ина": 8566,
      "генераль": 8567,
      "жало": 8568,
      "члены": 8569,
      "тона": 8570,
      "газета": 8571,
      "принял": 8572,
      "луй": 8573,
      "нился": 8574,
      "принадлежа": 8575,
      "рил": 8576,
      "нули": 8577,
      "лым": 8578,
      "орден": 8579,
      "библиоте": 8580,
      "исче": 8581,
      "американский": 8582,
      "российских": 8583,
      "раньше": 8584,
      "статисти": 8585,
      "нила": 8586,
      "щим": 8587,
      "летний": 8588,
      "1995": 8589,
      "дальше": 8590,
      "спросил": 8591,
      "бывший": 8592,
      "какие": 8593,
      "пале": 8594,
      "различных": 8595,
      "жная": 8596,
      "средств": 8597,
      "происходит": 8598,
      "гия": 8599,
      "непо": 8600,
      "профессиональ": 8601,
      "интерфак": 8602,
      "каждо": 8603,
      "выступле": 8604,
      "принци": 8605,
      "летом": 8606,
      "льным": 8607,
      "зывает": 8608,
      "буде": 8609,
      "беспо": 8610,
      "воспо": 8611,
      "множе": 8612,
      "сделал": 8613,
      "лах": 8614,
      "мые": 8615,
      "сети": 8616,
      "ственным": 8617,
      "спустя": 8618,
      "предлага": 8619,
      "чную": 8620,
      "городской": 8621,
      "мг": 8622,
      "сем": 8623,
      "тысячи": 8624,
      "bl": 8625,
      "чо": 8626,
      "сигна": 8627,
      "никам": 8628,
      "одну": 8629,
      "av": 8630,
      "стандар": 8631,
      "шер": 8632,
      "лау": 8633,
      "сур": 8634,
      "главный": 8635,
      "yo": 8636,
      "окончил": 8637,
      "чены": 8638,
      "знако": 8639,
      "управля": 8640,
      "опубликова": 8641,
      "чемпионате": 8642,
      "ассо": 8643,
      "моз": 8644,
      "конкур": 8645,
      "награды": 8646,
      "увере": 8647,
      "дэ": 8648,
      "шил": 8649,
      "mar": 8650,
      "поверх": 8651,
      "мастер": 8652,
      "чиво": 8653,
      "яв": 8654,
      "ванию": 8655,
      "филосо": 8656,
      "суль": 8657,
      "легко": 8658,
      "публика": 8659,
      "корре": 8660,
      "острова": 8661,
      "нией": 8662,
      "сп": 8663,
      "русский": 8664,
      "фир": 8665,
      "серви": 8666,
      "женщин": 8667,
      "46": 8668,
      "сток": 8669,
      "ell": 8670,
      "xix": 8671,
      "одино": 8672,
      "однов": 8673,
      "тит": 8674,
      "1943": 8675,
      "сел": 8676,
      "мужчина": 8677,
      "радо": 8678,
      "большая": 8679,
      "трёх": 8680,
      "ровали": 8681,
      "солн": 8682,
      "нём": 8683,
      "und": 8684,
      "поддержи": 8685,
      "петербур": 8686,
      "речь": 8687,
      "команда": 8688,
      "au": 8689,
      "sk": 8690,
      "цем": 8691,
      "неве": 8692,
      "миллиарда": 8693,
      "33": 8694,
      "49": 8695,
      "вшийся": 8696,
      "проз": 8697,
      "преступле": 8698,
      "правительство": 8699,
      "инфра": 8700,
      "щем": 8701,
      "здания": 8702,
      "пригла": 8703,
      "чая": 8704,
      "cor": 8705,
      "мл": 8706,
      "матче": 8707,
      "доме": 8708,
      "главы": 8709,
      "простран": 8710,
      "тари": 8711,
      "1993": 8712,
      "образование": 8713,
      "аппара": 8714,
      "наро": 8715,
      "парт": 8716,
      "приобре": 8717,
      "жо": 8718,
      "география": 8719,
      "перио": 8720,
      "получили": 8721,
      "емый": 8722,
      "тической": 8723,
      "ian": 8724,
      "живо": 8725,
      "архитек": 8726,
      "ноги": 8727,
      "похи": 8728,
      "многих": 8729,
      "моей": 8730,
      "жал": 8731,
      "губерна": 8732,
      "шеп": 8733,
      "рекомен": 8734,
      "лат": 8735,
      "начально": 8736,
      "новая": 8737,
      "карты": 8738,
      "телям": 8739,
      "гал": 8740,
      "ae": 8741,
      "гвар": 8742,
      "отношении": 8743,
      "порту": 8744,
      "совершенно": 8745,
      "терпе": 8746,
      "избира": 8747,
      "одновреме": 8748,
      "брига": 8749,
      "патри": 8750,
      "капита": 8751,
      "тельство": 8752,
      "спасибо": 8753,
      "фы": 8754,
      "титу": 8755,
      "доров": 8756,
      "isbn": 8757,
      "монасты": 8758,
      "тного": 8759,
      "одном": 8760,
      "кубка": 8761,
      "располага": 8762,
      "инстру": 8763,
      "проведе": 8764,
      "ровки": 8765,
      "несе": 8766,
      "тепло": 8767,
      "русской": 8768,
      "озна": 8769,
      "иници": 8770,
      "документа": 8771,
      "напом": 8772,
      "департа": 8773,
      "няется": 8774,
      "молча": 8775,
      "55": 8776,
      "завод": 8777,
      "играх": 8778,
      "метал": 8779,
      "рый": 8780,
      "ук": 8781,
      "думы": 8782,
      "пользу": 8783,
      "реж": 8784,
      "замет": 8785,
      "пан": 8786,
      "веще": 8787,
      "первая": 8788,
      "глубо": 8789,
      "бассей": 8790,
      "ваю": 8791,
      "ответил": 8792,
      "лая": 8793,
      "помимо": 8794,
      "командо": 8795,
      "ip": 8796,
      "значит": 8797,
      "нс": 8798,
      "ура": 8799,
      "государственной": 8800,
      "фф": 8801,
      "самый": 8802,
      "доволь": 8803,
      "эффектив": 8804,
      "центре": 8805,
      "произошло": 8806,
      "ck": 8807,
      "инициа": 8808,
      "мый": 8809,
      "опять": 8810,
      "коре": 8811,
      "мысле": 8812,
      "страте": 8813,
      "тором": 8814,
      "тобой": 8815,
      "1970": 8816,
      "владе": 8817,
      "матча": 8818,
      "директор": 8819,
      "ума": 8820,
      "ay": 8821,
      "столк": 8822,
      "кта": 8823,
      "позиции": 8824,
      "факуль": 8825,
      "становится": 8826,
      "ие": 8827,
      "инци": 8828,
      "we": 8829,
      "песни": 8830,
      "спра": 8831,
      "моро": 8832,
      "ant": 8833,
      "крова": 8834,
      "болез": 8835,
      "капи": 8836,
      "sch": 8837,
      "направи": 8838,
      "самом": 8839,
      "южной": 8840,
      "ябрь": 8841,
      "люблю": 8842,
      "частью": 8843,
      "гель": 8844,
      "участники": 8845,
      "катего": 8846,
      "шек": 8847,
      "приходи": 8848,
      "цкий": 8849,
      "андре": 8850,
      "футболь": 8851,
      "емые": 8852,
      "телекана": 8853,
      "семье": 8854,
      "уж": 8855,
      "констан": 8856,
      "тете": 8857,
      "брон": 8858,
      "go": 8859,
      "арти": 8860,
      "демокра": 8861,
      "могли": 8862,
      "выну": 8863,
      "северной": 8864,
      "разных": 8865,
      "муниципа": 8866,
      "десяти": 8867,
      "первых": 8868,
      "pe": 8869,
      "конкре": 8870,
      "основном": 8871,
      "пришлось": 8872,
      "туда": 8873,
      "тую": 8874,
      "ставки": 8875,
      "enter": 8876,
      "экспери": 8877,
      "напря": 8878,
      "своими": 8879,
      "доль": 8880,
      "получить": 8881,
      "одновременно": 8882,
      "75": 8883,
      "тировал": 8884,
      "резко": 8885,
      "упомина": 8886,
      "удар": 8887,
      "плохо": 8888,
      "опы": 8889,
      "лена": 8890,
      "баты": 8891,
      "соответству": 8892,
      "старо": 8893,
      "говорит": 8894,
      "евре": 8895,
      "позднее": 8896,
      "пить": 8897,
      "педа": 8898,
      "случи": 8899,
      "жности": 8900,
      "ано": 8901,
      "работает": 8902,
      "объясни": 8903,
      "44": 8904,
      "ционного": 8905,
      "футбо": 8906,
      "последствии": 8907,
      "мероприя": 8908,
      "вью": 8909,
      "станет": 8910,
      "1989": 8911,
      "1960": 8912,
      "напомина": 8913,
      "происхо": 8914,
      "вшихся": 8915,
      "лиза": 8916,
      "проблемы": 8917,
      "языке": 8918,
      "позволи": 8919,
      "яро": 8920,
      "двор": 8921,
      "лер": 8922,
      "зон": 8923,
      "согласи": 8924,
      "рекла": 8925,
      "няет": 8926,
      "чением": 8927,
      "тических": 8928,
      "вице": 8929,
      "щении": 8930,
      "железно": 8931,
      "ниями": 8932,
      "ями": 8933,
      "доктор": 8934,
      "церковь": 8935,
      "неожида": 8936,
      "ik": 8937,
      "марш": 8938,
      "инфраструк": 8939,
      "нять": 8940,
      "кэ": 8941,
      "впоследствии": 8942,
      "берегу": 8943,
      "гах": 8944,
      "оператив": 8945,
      "хокке": 8946,
      "начали": 8947,
      "изуче": 8948,
      "земле": 8949,
      "империи": 8950,
      "результаты": 8951,
      "ill": 8952,
      "чувство": 8953,
      "горе": 8954,
      "метро": 8955,
      "ющими": 8956,
      "железнодоро": 8957,
      "плате": 8958,
      "безу": 8959,
      "фами": 8960,
      "испыта": 8961,
      "симво": 8962,
      "выпускники": 8963,
      "лиги": 8964,
      "сили": 8965,
      "180": 8966,
      "бак": 8967,
      "58": 8968,
      "ете": 8969,
      "досто": 8970,
      "конферен": 8971,
      "кладби": 8972,
      "удоб": 8973,
      "визи": 8974,
      "повто": 8975,
      "азер": 8976,
      "информацию": 8977,
      "чий": 8978,
      "лами": 8979,
      "женщины": 8980,
      "сова": 8981,
      "вёр": 8982,
      "штаб": 8983,
      "тина": 8984,
      "оо": 8985,
      "чена": 8986,
      "возбу": 8987,
      "возь": 8988,
      "выбора": 8989,
      "вела": 8990,
      "девя": 8991,
      "своем": 8992,
      "шев": 8993,
      "близи": 8994,
      "дам": 8995,
      "дрей": 8996,
      "войск": 8997,
      "основе": 8998,
      "рассказал": 8999,
      "прото": 9000,
      "рик": 9001,
      "ak": 9002,
      "смог": 9003,
      "байджа": 9004,
      "ческую": 9005,
      "хотелось": 9006,
      "улице": 9007,
      "ладо": 9008,
      "азербайджа": 9009,
      "серебря": 9010,
      "большинство": 9011,
      "гина": 9012,
      "зал": 9013,
      "своё": 9014,
      "говор": 9015,
      "язык": 9016,
      "действу": 9017,
      "номе": 9018,
      "тику": 9019,
      "he": 9020,
      "герой": 9021,
      "рина": 9022,
      "кай": 9023,
      "актри": 9024,
      "преды": 9025,
      "чено": 9026,
      "оч": 9027,
      "спон": 9028,
      "1942": 9029,
      "рон": 9030,
      "бь": 9031,
      "рачи": 9032,
      "ям": 9033,
      "путе": 9034,
      "оке": 9035,
      "блоки": 9036,
      "практически": 9037,
      "прокура": 9038,
      "институт": 9039,
      "бах": 9040,
      "выход": 9041,
      "ционный": 9042,
      "улыбнулся": 9043,
      "браз": 9044,
      "гости": 9045,
      "чит": 9046,
      "пару": 9047,
      "ах": 9048,
      "расположен": 9049,
      "полиции": 9050,
      "полицей": 9051,
      "педаго": 9052,
      "участвовал": 9053,
      "губы": 9054,
      "здание": 9055,
      "названием": 9056,
      "днев": 9057,
      "разве": 9058,
      "книги": 9059,
      "ver": 9060,
      "ётся": 9061,
      "понял": 9062,
      "жила": 9063,
      "значения": 9064,
      "израиль": 9065,
      "сах": 9066,
      "первом": 9067,
      "советского": 9068,
      "рк": 9069,
      "ственности": 9070,
      "завтра": 9071,
      "должность": 9072,
      "баш": 9073,
      "рован": 9074,
      "такая": 9075,
      "афри": 9076,
      "вень": 9077,
      "приро": 9078,
      "начало": 9079,
      "стях": 9080,
      "кав": 9081,
      "рить": 9082,
      "православ": 9083,
      "месяцев": 9084,
      "зей": 9085,
      "важно": 9086,
      "государственный": 9087,
      "преж": 9088,
      "аресто": 9089,
      "прос": 9090,
      "ехал": 9091,
      "деятель": 9092,
      "говорится": 9093,
      "транс": 9094,
      "действие": 9095,
      "механиз": 9096,
      "море": 9097,
      "городского": 9098,
      "преступ": 9099,
      "тории": 9100,
      "разно": 9101,
      "могла": 9102,
      "осуществля": 9103,
      "ука": 9104,
      "законода": 9105,
      "тная": 9106,
      "вздох": 9107,
      "65": 9108,
      "голу": 9109,
      "мигра": 9110,
      "искусства": 9111,
      "самолё": 9112,
      "смерть": 9113,
      "иван": 9114,
      "движение": 9115,
      "номина": 9116,
      "выгля": 9117,
      "меньше": 9118,
      "ордена": 9119,
      "сообщалось": 9120,
      "николай": 9121,
      "служа": 9122,
      "целью": 9123,
      "ждать": 9124,
      "силу": 9125,
      "ционе": 9126,
      "интернет": 9127,
      "путь": 9128,
      "вело": 9129,
      "приводи": 9130,
      "br": 9131,
      "установи": 9132,
      "присоеди": 9133,
      "кен": 9134,
      "глазами": 9135,
      "шить": 9136,
      "ходили": 9137,
      "зар": 9138,
      "начи": 9139,
      "зап": 9140,
      "авст": 9141,
      "лабора": 9142,
      "пило": 9143,
      "прежде": 9144,
      "ктором": 9145,
      "первое": 9146,
      "восточной": 9147,
      "первую": 9148,
      "ошиб": 9149,
      "италии": 9150,
      "гали": 9151,
      "уста": 9152,
      "люб": 9153,
      "уса": 9154,
      "рассмо": 9155,
      "найти": 9156,
      "уве": 9157,
      "рых": 9158,
      "ace": 9159,
      "процесс": 9160,
      "подчи": 9161,
      "месяц": 9162,
      "чат": 9163,
      "тива": 9164,
      "края": 9165,
      "интерфакс": 9166,
      "ладно": 9167,
      "гой": 9168,
      "воде": 9169,
      "интервью": 9170,
      "установ": 9171,
      "чики": 9172,
      "сочи": 9173,
      "далеко": 9174,
      "мур": 9175,
      "чался": 9176,
      "хай": 9177,
      "сотрудников": 9178,
      "знаешь": 9179,
      "дочь": 9180,
      "гает": 9181,
      "московской": 9182,
      "жений": 9183,
      "сотрудниче": 9184,
      "женный": 9185,
      "экра": 9186,
      "циями": 9187,
      "услыша": 9188,
      "голосо": 9189,
      "ционные": 9190,
      "уровне": 9191,
      "срок": 9192,
      "интерес": 9193,
      "домой": 9194,
      "женщина": 9195,
      "протя": 9196,
      "голове": 9197,
      "помощь": 9198,
      "веща": 9199,
      "преимуще": 9200,
      "действий": 9201,
      "вро": 9202,
      "дили": 9203,
      "тёр": 9204,
      "1988": 9205,
      "швей": 9206,
      "кала": 9207,
      "тое": 9208,
      "хам": 9209,
      "выпусти": 9210,
      "опублико": 9211,
      "команд": 9212,
      "белору": 9213,
      "пав": 9214,
      "42": 9215,
      "прош": 9216,
      "mo": 9217,
      "химиче": 9218,
      "one": 9219,
      "слово": 9220,
      "af": 9221,
      "чих": 9222,
      "университет": 9223,
      "выпуска": 9224,
      "зор": 9225,
      "ваши": 9226,
      "труда": 9227,
      "другими": 9228,
      "лондо": 9229,
      "жает": 9230,
      "500": 9231,
      "михаил": 9232,
      "судеб": 9233,
      "рубе": 9234,
      "падает": 9235,
      "память": 9236,
      "александра": 9237,
      "чинов": 9238,
      "представителей": 9239,
      "bi": 9240,
      "литератур": 9241,
      "плу": 9242,
      "тельная": 9243,
      "редак": 9244,
      "объявле": 9245,
      "замеча": 9246,
      "изменения": 9247,
      "новым": 9248,
      "рождения": 9249,
      "клетки": 9250,
      "комиссии": 9251,
      "wor": 9252,
      "рот": 9253,
      "зывать": 9254,
      "оби": 9255,
      "тельности": 9256,
      "предвари": 9257,
      "виль": 9258,
      "стья": 9259,
      "правоохра": 9260,
      "яко": 9261,
      "оказыва": 9262,
      "забо": 9263,
      "крым": 9264,
      "01": 9265,
      "кля": 9266,
      "фла": 9267,
      "режиссёр": 9268,
      "аа": 9269,
      "тара": 9270,
      "нут": 9271,
      "рит": 9272,
      "фикации": 9273,
      "ссу": 9274,
      "видел": 9275,
      "мото": 9276,
      "ющую": 9277,
      "кисло": 9278,
      "председатель": 9279,
      "герцо": 9280,
      "ind": 9281,
      "align": 9282,
      "пес": 9283,
      "ключе": 9284,
      "музей": 9285,
      "необходимо": 9286,
      "кает": 9287,
      "бара": 9288,
      "стю": 9289,
      "памяти": 9290,
      "стка": 9291,
      "юно": 9292,
      "нении": 9293,
      "знамени": 9294,
      "мум": 9295,
      "код": 9296,
      "пенси": 9297,
      "трав": 9298,
      "сезоне": 9299,
      "нья": 9300,
      "главного": 9301,
      "сюда": 9302,
      "ex": 9303,
      "нельзя": 9304,
      "есте": 9305,
      "неизвест": 9306,
      "ческом": 9307,
      "жешь": 9308,
      "плане": 9309,
      "никаких": 9310,
      "като": 9311,
      "мино": 9312,
      "сих": 9313,
      "профессор": 9314,
      "частли": 9315,
      "имеют": 9316,
      "ходила": 9317,
      "сви": 9318,
      "po": 9319,
      "порта": 9320,
      "активи": 9321,
      "ох": 9322,
      "самое": 9323,
      "тиков": 9324,
      "километров": 9325,
      "лежит": 9326,
      "jo": 9327,
      "утра": 9328,
      "дмитрий": 9329,
      "воздуш": 9330,
      "класса": 9331,
      "религи": 9332,
      "возможности": 9333,
      "col": 9334,
      "нены": 9335,
      "разли": 9336,
      "квадра": 9337,
      "gen": 9338,
      "геор": 9339,
      "ждён": 9340,
      "глазах": 9341,
      "закончи": 9342,
      "мым": 9343,
      "заявление": 9344,
      "предыду": 9345,
      "no": 9346,
      "чемпионат": 9347,
      "берт": 9348,
      "высоко": 9349,
      "обеспечи": 9350,
      "марте": 9351,
      "маршру": 9352,
      "ава": 9353,
      "зали": 9354,
      "сосед": 9355,
      "вышла": 9356,
      "обору": 9357,
      "неодно": 9358,
      "оказался": 9359,
      "эксперты": 9360,
      "стями": 9361,
      "теат": 9362,
      "план": 9363,
      "поэ": 9364,
      "девушки": 9365,
      "семьи": 9366,
      "поддержку": 9367,
      "конфлик": 9368,
      "здра": 9369,
      "следующий": 9370,
      "выбра": 9371,
      "скорее": 9372,
      "обуче": 9373,
      "fe": 9374,
      "уг": 9375,
      "бек": 9376,
      "написал": 9377,
      "ститу": 9378,
      "миллиардов": 9379,
      "издания": 9380,
      "посо": 9381,
      "покры": 9382,
      "середине": 9383,
      "пото": 9384,
      "ната": 9385,
      "серге": 9386,
      "устой": 9387,
      "кат": 9388,
      "дож": 9389,
      "созна": 9390,
      "кома": 9391,
      "son": 9392,
      "катери": 9393,
      "производства": 9394,
      "повыше": 9395,
      "обнов": 9396,
      "номер": 9397,
      "эки": 9398,
      "любовь": 9399,
      "дав": 9400,
      "петро": 9401,
      "события": 9402,
      "ассоциа": 9403,
      "ляции": 9404,
      "санк": 9405,
      "ive": 9406,
      "льд": 9407,
      "шоу": 9408,
      "учили": 9409,
      "анна": 9410,
      "летних": 9411,
      "следует": 9412,
      "лак": 9413,
      "психо": 9414,
      "иди": 9415,
      "тилле": 9416,
      "зья": 9417,
      "дца": 9418,
      "газа": 9419,
      "свобод": 9420,
      "артилле": 9421,
      "русского": 9422,
      "супер": 9423,
      "московского": 9424,
      "магази": 9425,
      "выбор": 9426,
      "военной": 9427,
      "тел": 9428,
      "ваны": 9429,
      "подвер": 9430,
      "яс": 9431,
      "знает": 9432,
      "отмечает": 9433,
      "влияние": 9434,
      "ight": 9435,
      "лучший": 9436,
      "чувству": 9437,
      "оформ": 9438,
      "пуга": 9439,
      "видов": 9440,
      "постоянно": 9441,
      "заседа": 9442,
      "льном": 9443,
      "press": 9444,
      "вене": 9445,
      "раза": 9446,
      "тренер": 9447,
      "ry": 9448,
      "мгнове": 9449,
      "другим": 9450,
      "сило": 9451,
      "наверное": 9452,
      "плю": 9453,
      "космиче": 9454,
      "губернии": 9455,
      "сибир": 9456,
      "руках": 9457,
      "циони": 9458,
      "синг": 9459,
      "счастли": 9460,
      "хии": 9461,
      "реак": 9462,
      "андрей": 9463,
      "сообщили": 9464,
      "нений": 9465,
      "обраща": 9466,
      "данный": 9467,
      "вателей": 9468,
      "ковой": 9469,
      "востоке": 9470,
      "ситуации": 9471,
      "вынужде": 9472,
      "1987": 9473,
      "кампа": 9474,
      "секун": 9475,
      "стьян": 9476,
      "лье": 9477,
      "река": 9478,
      "кл": 9479,
      "занимает": 9480,
      "начальник": 9481,
      "обрати": 9482,
      "ленинград": 9483,
      "матери": 9484,
      "правоохранитель": 9485,
      "смотрел": 9486,
      "1986": 9487,
      "подразделе": 9488,
      "систем": 9489,
      "доказа": 9490,
      "поддержа": 9491,
      "доби": 9492,
      "погибли": 9493,
      "языка": 9494,
      "стрелко": 9495,
      "ракет": 9496,
      "вступи": 9497,
      "муль": 9498,
      "предупре": 9499,
      "стры": 9500,
      "возрасте": 9501,
      "казалось": 9502,
      "кораб": 9503,
      "двумя": 9504,
      "мае": 9505,
      "писатель": 9506,
      "создания": 9507,
      "король": 9508,
      "возвраща": 9509,
      "идет": 9510,
      "конститу": 9511,
      "террори": 9512,
      "умере": 9513,
      "рекор": 9514,
      "представляет": 9515,
      "гим": 9516,
      "эпи": 9517,
      "декабре": 9518,
      "шесть": 9519,
      "школе": 9520,
      "регуляр": 9521,
      "лейтена": 9522,
      "регионе": 9523,
      "теку": 9524,
      "модели": 9525,
      "карьера": 9526,
      "ственная": 9527,
      "второго": 9528,
      "контак": 9529,
      "сезон": 9530,
      "жную": 9531,
      "вляет": 9532,
      "пры": 9533,
      "сентябре": 9534,
      "разработа": 9535,
      "строительство": 9536,
      "боеви": 9537,
      "300": 9538,
      "вклад": 9539,
      "мвд": 9540,
      "эл": 9541,
      "контракт": 9542,
      "ченко": 9543,
      "кладбище": 9544,
      "руководством": 9545,
      "гий": 9546,
      "бей": 9547,
      "главным": 9548,
      "применя": 9549,
      "шаг": 9550,
      "протяже": 9551,
      "евге": 9552,
      "1930": 9553,
      "ландии": 9554,
      "опла": 9555,
      "семья": 9556,
      "рыв": 9557,
      "tim": 9558,
      "do": 9559,
      "емого": 9560,
      "цкого": 9561,
      "чиков": 9562,
      "ity": 9563,
      "военных": 9564,
      "тине": 9565,
      "большое": 9566,
      "чета": 9567,
      "тиши": 9568,
      "полка": 9569,
      "джор": 9570,
      "часа": 9571,
      "информация": 9572,
      "васи": 9573,
      "исчез": 9574,
      "креп": 9575,
      "64": 9576,
      "считает": 9577,
      "щена": 9578,
      "хор": 9579,
      "подру": 9580,
      "национа": 9581,
      "отца": 9582,
      "комнату": 9583,
      "делё": 9584,
      "мую": 9585,
      "дивизи": 9586,
      "лова": 9587,
      "заболе": 9588,
      "финанси": 9589,
      "перевод": 9590,
      "положение": 9591,
      "деревни": 9592,
      "pl": 9593,
      "ого": 9594,
      "aw": 9595,
      "цеп": 9596,
      "российская": 9597,
      "гря": 9598,
      "членов": 9599,
      "ари": 9600,
      "1920": 9601,
      "тельность": 9602,
      "1950": 9603,
      "январе": 9604,
      "коммента": 9605,
      "57": 9606,
      "фар": 9607,
      "посмотрел": 9608,
      "1985": 9609,
      "спец": 9610,
      "головой": 9611,
      "air": 9612,
      "западной": 9613,
      "которому": 9614,
      "ждении": 9615,
      "99": 9616,
      "дай": 9617,
      "претен": 9618,
      "температура": 9619,
      "1940": 9620,
      "школа": 9621,
      "лидер": 9622,
      "двое": 9623,
      "лице": 9624,
      "сеть": 9625,
      "нских": 9626,
      "стреми": 9627,
      "емой": 9628,
      "вечером": 9629,
      "меша": 9630,
      "нападе": 9631,
      "юр": 9632,
      "лёг": 9633,
      "администрации": 9634,
      "лка": 9635,
      "значение": 9636,
      "пах": 9637,
      "заместитель": 9638,
      "сда": 9639,
      "управление": 9640,
      "мати": 9641,
      "подроб": 9642,
      "екатери": 9643,
      "выступал": 9644,
      "vi": 9645,
      "дят": 9646,
      "поднима": 9647,
      "христи": 9648,
      "мужчин": 9649,
      "владель": 9650,
      "сопрово": 9651,
      "климат": 9652,
      "кет": 9653,
      "министерства": 9654,
      "духов": 9655,
      "молоды": 9656,
      "нейро": 9657,
      "добы": 9658,
      "сведения": 9659,
      "ющихся": 9660,
      "политики": 9661,
      "ack": 9662,
      "43": 9663,
      "пау": 9664,
      "позволяет": 9665,
      "улицы": 9666,
      "пору": 9667,
      "gu": 9668,
      "рд": 9669,
      "находятся": 9670,
      "center": 9671,
      "национального": 9672,
      "банков": 9673,
      "1984": 9674,
      "бывшего": 9675,
      "социали": 9676,
      "спосо": 9677,
      "берг": 9678,
      "хочет": 9679,
      "дебю": 9680,
      "находился": 9681,
      "news": 9682,
      "итогам": 9683,
      "повы": 9684,
      "вшее": 9685,
      "саске": 9686,
      "сумму": 9687,
      "другу": 9688,
      "лож": 9689,
      "продю": 9690,
      "тём": 9691,
      "октябре": 9692,
      "посё": 9693,
      "официально": 9694,
      "йо": 9695,
      "образу": 9696,
      "ственном": 9697,
      "национальный": 9698,
      "предела": 9699,
      "восстановле": 9700,
      "ca": 9701,
      "разо": 9702,
      "сомне": 9703,
      "русские": 9704,
      "отлича": 9705,
      "кризи": 9706,
      "момента": 9707,
      "органов": 9708,
      "поддержки": 9709,
      "последу": 9710,
      "нял": 9711,
      "класс": 9712,
      "состоянии": 9713,
      "основной": 9714,
      "кот": 9715,
      "студен": 9716,
      "серьез": 9717,
      "использовать": 9718,
      "воспи": 9719,
      "вив": 9720,
      "утром": 9721,
      "трудо": 9722,
      "никах": 9723,
      "стам": 9724,
      "бр": 9725,
      "цикло": 9726,
      "ww": 9727,
      "нском": 9728,
      "песня": 9729,
      "неболь": 9730,
      "компаний": 9731,
      "нская": 9732,
      "дивизии": 9733,
      "хри": 9734,
      "верховного": 9735,
      "41": 9736,
      "полномо": 9737,
      "кад": 9738,
      "мел": 9739,
      "вни": 9740,
      "завое": 9741,
      "щик": 9742,
      "произведе": 9743,
      "ele": 9744,
      "войне": 9745,
      "членом": 9746,
      "прой": 9747,
      "создание": 9748,
      "стоял": 9749,
      "меры": 9750,
      "описание": 9751,
      "наме": 9752,
      "общей": 9753,
      "der": 9754,
      "службу": 9755,
      "должности": 9756,
      "ологи": 9757,
      "домаш": 9758,
      "cl": 9759,
      "ющиеся": 9760,
      "статус": 9761,
      "ноябре": 9762,
      "матч": 9763,
      "святого": 9764,
      "нько": 9765,
      "анто": 9766,
      "жители": 9767,
      "остров": 9768,
      "позна": 9769,
      "ющем": 9770,
      "заметил": 9771,
      "1939": 9772,
      "тием": 9773,
      "фаль": 9774,
      "источник": 9775,
      "понять": 9776,
      "апреле": 9777,
      "пки": 9778,
      "осторо": 9779,
      "веке": 9780,
      "тать": 9781,
      "сара": 9782,
      "японии": 9783,
      "игру": 9784,
      "лиц": 9785,
      "наруто": 9786,
      "адво": 9787,
      "сар": 9788,
      "зеле": 9789,
      "тические": 9790,
      "играть": 9791,
      "пострада": 9792,
      "нется": 9793,
      "существует": 9794,
      "алексе": 9795,
      "прозра": 9796,
      "путеше": 9797,
      "цели": 9798,
      "концер": 9799,
      "полк": 9800,
      "участник": 9801,
      "активно": 9802,
      "ненави": 9803,
      "участников": 9804,
      "делу": 9805,
      "увеличи": 9806,
      "точки": 9807,
      "na": 9808,
      "новое": 9809,
      "ставку": 9810,
      "ими": 9811,
      "щены": 9812,
      "вру": 9813,
      "вариан": 9814,
      "распре": 9815,
      "науки": 9816,
      "нака": 9817,
      "школу": 9818,
      "предпринима": 9819,
      "ауди": 9820,
      "мик": 9821,
      "пласти": 9822,
      "ственность": 9823,
      "измене": 9824,
      "августе": 9825,
      "снима": 9826,
      "брата": 9827,
      "прось": 9828,
      "заявили": 9829,
      "штат": 9830,
      "бизне": 9831,
      "менедже": 9832,
      "чия": 9833,
      "вось": 9834,
      "гидро": 9835,
      "штра": 9836,
      "бежать": 9837,
      "шар": 9838,
      "комплекс": 9839,
      "дую": 9840,
      "стоимость": 9841,
      "лаге": 9842,
      "ниям": 9843,
      "редко": 9844,
      "альбома": 9845,
      "мато": 9846,
      "научно": 9847,
      "фильме": 9848,
      "66": 9849,
      "местных": 9850,
      "император": 9851,
      "экипа": 9852,
      "опу": 9853,
      "кратно": 9854,
      "скор": 9855,
      "взрыв": 9856,
      "истре": 9857,
      "фоне": 9858,
      "жив": 9859,
      "неде": 9860,
      "ho": 9861,
      "отделение": 9862,
      "осу": 9863,
      "вами": 9864,
      "чём": 9865,
      "выясни": 9866,
      "взял": 9867,
      "нета": 9868,
      "протяжении": 9869,
      "группи": 9870,
      "футболист": 9871,
      "ps": 9872,
      "столь": 9873,
      "взглядом": 9874,
      "бл": 9875,
      "гале": 9876,
      "лян": 9877,
      "нуж": 9878,
      "еги": 9879,
      "аф": 9880,
      "дами": 9881,
      "крепле": 9882,
      "85": 9883,
      "провинции": 9884,
      "планирова": 9885,
      "среду": 9886,
      "компьютер": 9887,
      "изви": 9888,
      "бронзо": 9889,
      "техники": 9890,
      "служба": 9891,
      "туаль": 9892,
      "партий": 9893,
      "ters": 9894,
      "кей": 9895,
      "блон": 9896,
      "считается": 9897,
      "территориаль": 9898,
      "аналоги": 9899,
      "сказали": 9900,
      "форме": 9901,
      "оль": 9902,
      "удиви": 9903,
      "ve": 9904,
      "тивы": 9905,
      "лега": 9906,
      "фикси": 9907,
      "вина": 9908,
      "статьи": 9909,
      "модель": 9910,
      "газеты": 9911,
      "парня": 9912,
      "тыс": 9913,
      "запи": 9914,
      "150": 9915,
      "военного": 9916,
      "ence": 9917,
      "сотрудник": 9918,
      "госпо": 9919,
      "переме": 9920,
      "серва": 9921,
      "потен": 9922,
      "заяв": 9923,
      "относится": 9924,
      "старший": 9925,
      "международного": 9926,
      "дети": 9927,
      "системе": 9928,
      "мило": 9929,
      "вт": 9930,
      "появле": 9931,
      "алексей": 9932,
      "новую": 9933,
      "рад": 9934,
      "зен": 9935,
      "чности": 9936,
      "руководство": 9937,
      "тт": 9938,
      "уровня": 9939,
      "мид": 9940,
      "уилья": 9941,
      "ешься": 9942,
      "оказалось": 9943,
      "иностранных": 9944,
      "рукой": 9945,
      "льности": 9946,
      "рост": 9947,
      "сит": 9948,
      "католи": 9949,
      "добавил": 9950,
      "su": 9951,
      "пропа": 9952,
      "анато": 9953,
      "епар": 9954,
      "1979": 9955,
      "площади": 9956,
      "предприятия": 9957,
      "временем": 9958,
      "дев": 9959,
      "думать": 9960,
      "вшегося": 9961,
      "июне": 9962,
      "капитан": 9963,
      "семи": 9964,
      "йте": 9965,
      "рынка": 9966,
      "иллю": 9967,
      "деть": 9968,
      "другом": 9969,
      "производство": 9970,
      "вь": 9971,
      "привет": 9972,
      "пусть": 9973,
      "чке": 9974,
      "тации": 9975,
      "указыва": 9976,
      "василь": 9977,
      "ort": 9978,
      "понедель": 9979,
      "тического": 9980,
      "мужчины": 9981,
      "ds": 9982,
      "1917": 9983,
      "недели": 9984,
      "энерге": 9985,
      "област": 9986,
      "большого": 9987,
      "ливо": 9988,
      "окончания": 9989,
      "исследователь": 9990,
      "откуда": 9991,
      "трам": 9992,
      "ich": 9993,
      "супру": 9994,
      "архе": 9995,
      "трене": 9996,
      "синте": 9997,
      "полковник": 9998,
      "зака": 9999,
      "определя": 10000,
      "оцени": 10001,
      "эмо": 10002,
      "округ": 10003,
      "выборах": 10004,
      "развед": 10005,
      "записи": 10006,
      "тиру": 10007,
      "видно": 10008,
      "двери": 10009,
      "ждений": 10010,
      "михай": 10011,
      "уровень": 10012,
      "76": 10013,
      "епископ": 10014,
      "скло": 10015,
      "инвести": 10016,
      "инженер": 10017,
      "ур": 10018,
      "1982": 10019,
      "назвал": 10020,
      "июле": 10021,
      "пун": 10022,
      "ядер": 10023,
      "целом": 10024,
      "феврале": 10025,
      "ера": 10026,
      "тим": 10027,
      "ствовали": 10028,
      "многочисле": 10029,
      "влен": 10030,
      "ближе": 10031,
      "рем": 10032,
      "ходы": 10033,
      "рее": 10034,
      "смех": 10035,
      "текст": 10036,
      "реб": 10037,
      "жать": 10038,
      "ходов": 10039,
      "рук": 10040,
      "сравне": 10041,
      "актёр": 10042,
      "тным": 10043,
      "зация": 10044,
      "соревнования": 10045,
      "воздуха": 10046,
      "1983": 10047,
      "напомним": 10048,
      "оригина": 10049,
      "59": 10050,
      "здоров": 10051,
      "директора": 10052,
      "кавале": 10053,
      "проходит": 10054,
      "произведения": 10055,
      "ure": 10056,
      "наказа": 10057,
      "шими": 10058,
      "корпора": 10059,
      "млн": 10060,
      "оборудо": 10061,
      "гну": 10062,
      "юриди": 10063,
      "посёлок": 10064,
      "своему": 10065,
      "стара": 10066,
      "среднего": 10067,
      "ros": 10068,
      "лина": 10069,
      "мело": 10070,
      "тыми": 10071,
      "1973": 10072,
      "сюжет": 10073,
      "ke": 10074,
      "чили": 10075,
      "полне": 10076,
      "едва": 10077,
      "веря": 10078,
      "религиоз": 10079,
      "рым": 10080,
      "рица": 10081,
      "алфа": 10082,
      "последнее": 10083,
      "гно": 10084,
      "жду": 10085,
      "56": 10086,
      "пье": 10087,
      "владимира": 10088,
      "превы": 10089,
      "доб": 10090,
      "стами": 10091,
      "чными": 10092,
      "основные": 10093,
      "демонстри": 10094,
      "считают": 10095,
      "gr": 10096,
      "шать": 10097,
      "if": 10098,
      "1918": 10099,
      "разби": 10100,
      "фей": 10101,
      "заявля": 10102,
      "клеток": 10103,
      "тюрь": 10104,
      "гол": 10105,
      "агентства": 10106,
      "воскре": 10107,
      "соли": 10108,
      "per": 10109,
      "исполнитель": 10110,
      "газо": 10111,
      "средняя": 10112,
      "чувствовал": 10113,
      "посла": 10114,
      "исти": 10115,
      "победы": 10116,
      "лайн": 10117,
      "баталь": 10118,
      "продолжи": 10119,
      "воспомина": 10120,
      "изуча": 10121,
      "испании": 10122,
      "нести": 10123,
      "бори": 10124,
      "дера": 10125,
      "повре": 10126,
      "отличие": 10127,
      "вариа": 10128,
      "дона": 10129,
      "чению": 10130,
      "предме": 10131,
      "1981": 10132,
      "par": 10133,
      "небо": 10134,
      "темно": 10135,
      "увидел": 10136,
      "имел": 10137,
      "документы": 10138,
      "копи": 10139,
      "шести": 10140,
      "турнира": 10141,
      "трени": 10142,
      "друзья": 10143,
      "шает": 10144,
      "рат": 10145,
      "парламента": 10146,
      "торгов": 10147,
      "схва": 10148,
      "фср": 10149,
      "оружия": 10150,
      "ани": 10151,
      "телефо": 10152,
      "университете": 10153,
      "защиты": 10154,
      "центральной": 10155,
      "кои": 10156,
      "вор": 10157,
      "помочь": 10158,
      "стаби": 10159,
      "доче": 10160,
      "партия": 10161,
      "смогу": 10162,
      "лиш": 10163,
      "думаю": 10164,
      "рука": 10165,
      "клады": 10166,
      "ёв": 10167,
      "прибы": 10168,
      "1976": 10169,
      "премия": 10170,
      "куп": 10171,
      "контроль": 10172,
      "филип": 10173,
      "конку": 10174,
      "1975": 10175,
      "летов": 10176,
      "стади": 10177,
      "кух": 10178,
      "дёт": 10179,
      "фана": 10180,
      "мена": 10181,
      "появилась": 10182,
      "норве": 10183,
      "мю": 10184,
      "историю": 10185,
      "денег": 10186,
      "израи": 10187,
      "попа": 10188,
      "соору": 10189,
      "эсто": 10190,
      "рсфср": 10191,
      "фр": 10192,
      "спаса": 10193,
      "взро": 10194,
      "достижения": 10195,
      "fo": 10196,
      "деревне": 10197,
      "метри": 10198,
      "марки": 10199,
      "архите": 10200,
      "мекси": 10201,
      "регули": 10202,
      "попыт": 10203,
      "смотреть": 10204,
      "льную": 10205,
      "inter": 10206,
      "имму": 10207,
      "ковского": 10208,
      "парламент": 10209,
      "88": 10210,
      "оон": 10211,
      "уезда": 10212,
      "сохрани": 10213,
      "карьеру": 10214,
      "гора": 10215,
      "организо": 10216,
      "границы": 10217,
      "уо": 10218,
      "отда": 10219,
      "сант": 10220,
      "третий": 10221,
      "моги": 10222,
      "нку": 10223,
      "плот": 10224,
      "стане": 10225,
      "1972": 10226,
      "причиной": 10227,
      "бина": 10228,
      "неделю": 10229,
      "оном": 10230,
      "выборов": 10231,
      "ресур": 10232,
      "состоит": 10233,
      "пр": 10234,
      "шенко": 10235,
      "территория": 10236,
      "поколе": 10237,
      "зывают": 10238,
      "1968": 10239,
      "лето": 10240,
      "автобу": 10241,
      "победу": 10242,
      "акций": 10243,
      "зв": 10244,
      "встречи": 10245,
      "украине": 10246,
      "видеть": 10247,
      "истреби": 10248,
      "проведения": 10249,
      "принять": 10250,
      "сот": 10251,
      "отмечают": 10252,
      "красной": 10253,
      "обвиня": 10254,
      "фре": 10255,
      "связь": 10256,
      "штаба": 10257,
      "пунктов": 10258,
      "потребо": 10259,
      "неу": 10260,
      "состояние": 10261,
      "печат": 10262,
      "ковых": 10263,
      "дента": 10264,
      "летия": 10265,
      "жки": 10266,
      "очеред": 10267,
      "пуль": 10268,
      "футболу": 10269,
      "1971": 10270,
      "дворе": 10271,
      "записа": 10272,
      "чувства": 10273,
      "окружа": 10274,
      "пел": 10275,
      "вероятно": 10276,
      "нувшись": 10277,
      "выпла": 10278,
      "ass": 10279,
      "кем": 10280,
      "проблем": 10281,
      "строительства": 10282,
      "организация": 10283,
      "видимо": 10284,
      "бизнес": 10285,
      "понедельник": 10286,
      "стые": 10287,
      "1978": 10288,
      "подчеркнул": 10289,
      "рынке": 10290,
      "чаще": 10291,
      "возглавля": 10292,
      "станция": 10293,
      "179": 10294,
      "известен": 10295,
      "кости": 10296,
      "спут": 10297,
      "ичи": 10298,
      "элек": 10299,
      "внезап": 10300,
      "груди": 10301,
      "сексу": 10302,
      "свободы": 10303,
      "спокойно": 10304,
      "ала": 10305,
      "шве": 10306,
      "запу": 10307,
      "обер": 10308,
      "художник": 10309,
      "ора": 10310,
      "приняли": 10311,
      "отдела": 10312,
      "тельную": 10313,
      "постепе": 10314,
      "нуться": 10315,
      "менте": 10316,
      "щиков": 10317,
      "значительно": 10318,
      "зависимости": 10319,
      "ченных": 10320,
      "ens": 10321,
      "жном": 10322,
      "вернуть": 10323,
      "давай": 10324,
      "дни": 10325,
      "ровка": 10326,
      "ang": 10327,
      "христиан": 10328,
      "космо": 10329,
      "гать": 10330,
      "int": 10331,
      "1965": 10332,
      "природ": 10333,
      "географи": 10334,
      "хочешь": 10335,
      "09": 10336,
      "штата": 10337,
      "пункт": 10338,
      "эли": 10339,
      "зрения": 10340,
      "атмо": 10341,
      "исследований": 10342,
      "вечер": 10343,
      "базе": 10344,
      "сына": 10345,
      "конец": 10346,
      "завода": 10347,
      "секретарь": 10348,
      "счёт": 10349,
      "книга": 10350,
      "телю": 10351,
      "soci": 10352,
      "заверши": 10353,
      "мал": 10354,
      "брал": 10355,
      "устра": 10356,
      "поясни": 10357,
      "ежегод": 10358,
      "сквозь": 10359,
      "относительно": 10360,
      "какая": 10361,
      "скуль": 10362,
      "ходу": 10363,
      "сва": 10364,
      "оса": 10365,
      "бами": 10366,
      "музыкан": 10367,
      "экономики": 10368,
      "мака": 10369,
      "ворачи": 10370,
      "лока": 10371,
      "1977": 10372,
      "выста": 10373,
      "приложение": 10374,
      "неоднократно": 10375,
      "рения": 10376,
      "посёл": 10377,
      "электри": 10378,
      "тсу": 10379,
      "появились": 10380,
      "совместно": 10381,
      "циклопе": 10382,
      "принято": 10383,
      "проблема": 10384,
      "кровати": 10385,
      "названия": 10386,
      "используется": 10387,
      "грузи": 10388,
      "гляды": 10389,
      "насле": 10390,
      "животных": 10391,
      "преда": 10392,
      "wi": 10393,
      "всему": 10394,
      "дие": 10395,
      "вспом": 10396,
      "открыл": 10397,
      "международной": 10398,
      "05": 10399,
      "ребе": 10400,
      "хмы": 10401,
      "дум": 10402,
      "08": 10403,
      "военные": 10404,
      "говорят": 10405,
      "последова": 10406,
      "флота": 10407,
      "руками": 10408,
      "стики": 10409,
      "1967": 10410,
      "регистри": 10411,
      "раскры": 10412,
      "расстоянии": 10413,
      "площад": 10414,
      "скульп": 10415,
      "театр": 10416,
      "провести": 10417,
      "машины": 10418,
      "сможет": 10419,
      "жизне": 10420,
      "забы": 10421,
      "обратно": 10422,
      "порядке": 10423,
      "странах": 10424,
      "периода": 10425,
      "предо": 10426,
      "груз": 10427,
      "1963": 10428,
      "фона": 10429,
      "видела": 10430,
      "объектов": 10431,
      "рожде": 10432,
      "ссов": 10433,
      "сб": 10434,
      "полага": 10435,
      "коммен": 10436,
      "обвинения": 10437,
      "lin": 10438,
      "валю": 10439,
      "путин": 10440,
      "скончался": 10441,
      "алфави": 10442,
      "нач": 10443,
      "1937": 10444,
      "1966": 10445,
      "непосред": 10446,
      "1938": 10447,
      "эксплу": 10448,
      "pa": 10449,
      "верить": 10450,
      "множество": 10451,
      "сул": 10452,
      "шан": 10453,
      "рово": 10454,
      "международных": 10455,
      "европе": 10456,
      "интересо": 10457,
      "вест": 10458,
      "циональ": 10459,
      "черно": 10460,
      "ас": 10461,
      "77": 10462,
      "предложил": 10463,
      "тье": 10464,
      "mus": 10465,
      "соответствии": 10466,
      "вут": 10467,
      "ложении": 10468,
      "1974": 10469,
      "короля": 10470,
      "ческими": 10471,
      "моего": 10472,
      "белоруссии": 10473,
      "употре": 10474,
      "губ": 10475,
      "комнате": 10476,
      "вец": 10477,
      "твори": 10478,
      "занял": 10479,
      "вера": 10480,
      "цам": 10481,
      "самостоя": 10482,
      "депутат": 10483,
      "произошел": 10484,
      "стров": 10485,
      "отмечается": 10486,
      "картины": 10487,
      "инде": 10488,
      "пь": 10489,
      "известные": 10490,
      "by": 10491,
      "пересе": 10492,
      "звание": 10493,
      "программа": 10494,
      "очередной": 10495,
      "сельсовета": 10496,
      "муниципали": 10497,
      "тип": 10498,
      "2023": 10499,
      "кторов": 10500,
      "журнал": 10501,
      "мою": 10502,
      "введе": 10503,
      "винов": 10504,
      "рые": 10505,
      "наш": 10506,
      "карта": 10507,
      "материалов": 10508,
      "солне": 10509,
      "фё": 10510,
      "посту": 10511,
      "лович": 10512,
      "рассмотре": 10513,
      "десять": 10514,
      "зим": 10515,
      "англии": 10516,
      "вшейся": 10517,
      "генри": 10518,
      "подгото": 10519,
      "числа": 10520,
      "различные": 10521,
      "ba": 10522,
      "решили": 10523,
      "арен": 10524,
      "резер": 10525,
      "контине": 10526,
      "астро": 10527,
      "руса": 10528,
      "использование": 10529,
      "gro": 10530,
      "мария": 10531,
      "сопроти": 10532,
      "крупных": 10533,
      "оппози": 10534,
      "ate": 10535,
      "шься": 10536,
      "найде": 10537,
      "напада": 10538,
      "широко": 10539,
      "06": 10540,
      "образователь": 10541,
      "комплек": 10542,
      "мелки": 10543,
      "версия": 10544,
      "вард": 10545,
      "возле": 10546,
      "местного": 10547,
      "нидер": 10548,
      "квали": 10549,
      "пятницу": 10550,
      "российские": 10551,
      "структура": 10552,
      "сочета": 10553,
      "1969": 10554,
      "режиссё": 10555,
      "персо": 10556,
      "содержи": 10557,
      "вашинг": 10558,
      "1964": 10559,
      "my": 10560,
      "виктор": 10561,
      "американской": 10562,
      "тере": 10563,
      "разда": 10564,
      "модер": 10565,
      "лями": 10566,
      "динами": 10567,
      "чила": 10568,
      "программ": 10569,
      "02": 10570,
      "зато": 10571,
      "инду": 10572,
      "кине": 10573,
      "энциклопе": 10574,
      "начальника": 10575,
      "воскресе": 10576,
      "мане": 10577,
      "провёл": 10578,
      "увидеть": 10579,
      "04": 10580,
      "рованы": 10581,
      "исполни": 10582,
      "ситуация": 10583,
      "чность": 10584,
      "определё": 10585,
      "балан": 10586,
      "хотела": 10587,
      "кровь": 10588,
[...]
