{
  "version": "1.0",
  "truncation": null,
  "padding": null,
  "added_tokens": [
    {
      "id": 0,
      "content": "[PAD]",
      "single_word": false,
      "lstrip": false,
      "rstrip": false,
      "normalized": false,
      "special": true
    },
    {
      "id": 1,
      "content": "[UNK]",
      "single_word": false,
      "lstrip": false,
      "rstrip": false,
      "normalized": false,
      "special": true
    }
  ],
  "normalizer": {
    "type": "Sequence",
    "normalizers": [
      {
        "type": "Lowercase"
      }
    ]
  },
  "pre_tokenizer": {
    "type": "Sequence",
    "pretokenizers": [
      {
        "type": "Whitespace"
      },
      {
        "type": "Punctuation",
        "behavior": "Isolated"
      }
    ]
  },
  "post_processor": null,
  "decoder": null,
  "model": {
    "type": "BPE",
    "dropout": null,
    "unk_token": "[UNK]",
    "continuing_subword_prefix": null,
    "end_of_word_suffix": null,
    "fuse_unk": false,
    "byte_fallback": false,
    "ignore_merges": false,
    "vocab": {
      "[PAD]": 0,
      "[UNK]": 1,
      "\u0002": 2,
      "\u0003": 3,
      "\u0004": 4,
      "\u000f": 5,
      "!": 6,
      "\"": 7,
      "#": 8,
      "$": 9,
      "%": 10,
      "&": 11,
      "'": 12,
      "(": 13,
      ")": 14,
      "*": 15,
      "+": 16,
      ",": 17,
      "-": 18,
      ".": 19,
      "/": 20,
      "0": 21,
      "1": 22,
      "2": 23,
      "3": 24,
      "4": 25,
      "5": 26,
      "6": 27,
      "7": 28,
      "8": 29,
      "9": 30,
      ":": 31,
      ";": 32,
      "<": 33,
      "=": 34,
      ">": 35,
      "?": 36,
      "@": 37,
      "[": 38,
      "\\": 39,
      "]": 40,
      "^": 41,
      "_": 42,
      "`": 43,
      "a": 44,
      "b": 45,
      "c": 46,
      "d": 47,
      "e": 48,
      "f": 49,
      "g": 50,
      "h": 51,
      "i": 52,
      "j": 53,
      "k": 54,
      "l": 55,
      "m": 56,
      "n": 57,
      "o": 58,
      "p": 59,
      "q": 60,
      "r": 61,
      "s": 62,
      "t": 63,
      "u": 64,
      "v": 65,
      "w": 66,
      "x": 67,
      "y": 68,
      "z": 69,
      "{": 70,
      "|": 71,
      "}": 72,
      "~": 73,
      "": 74,
      "": 75,
      "": 76,
      "": 77,
      "": 78,
      "": 79,
      "": 80,
      "": 81,
      "¡": 82,
      "¢": 83,
      "£": 84,
      "¤": 85,
      "¥": 86,
      "¦": 87,
      "§": 88,
      "¨": 89,
      "©": 90,
      "ª": 91,
      "«": 92,
      "¬": 93,
      "­": 94,
      "®": 95,
      "¯": 96,
      "°": 97,
      "±": 98,
      "²": 99,
      "³": 100,
      "´": 101,
      "µ": 102,
      "·": 103,
      "¸": 104,
      "¹": 105,
      "º": 106,
      "»": 107,
      "¼": 108,
      "½": 109,
      "¾": 110,
      "¿": 111,
      "×": 112,
      "ß": 113,
      "à": 114,
      "á": 115,
      "â": 116,
      "ã": 117,
      "ä": 118,
      "å": 119,
      "æ": 120,
      "ç": 121,
      "è": 122,
      "é": 123,
      "ê": 124,
      "ë": 125,
      "ì": 126,
      "í": 127,
      "î": 128,
      "ï": 129,
      "ð": 130,
      "ñ": 131,
      "ò": 132,
      "ó": 133,
      "ô": 134,
      "õ": 135,
      "ö": 136,
      "÷": 137,
      "ø": 138,
      "ù": 139,
      "ú": 140,
      "û": 141,
      "ü": 142,
      "ý": 143,
      "þ": 144,
      "ÿ": 145,
      "ā": 146,
      "ă": 147,
      "ą": 148,
      "ć": 149,
      "ĉ": 150,
      "č": 151,
      "ď": 152,
      "đ": 153,
      "ē": 154,
      "ĕ": 155,
      "ė": 156,
      "ę": 157,
      "ě": 158,
      "ĝ": 159,
      "ğ": 160,
      "ġ": 161,
      "ģ": 162,
      "ĥ": 163,
      "ħ": 164,
      "ĩ": 165,
      "ī": 166,
      "ĭ": 167,
      "į": 168,
      "ı": 169,
      "ĵ": 170,
      "ķ": 171,
      "ĸ": 172,
      "ĺ": 173,
      "ļ": 174,
      "ľ": 175,
      "ŀ": 176,
      "ł": 177,
      "ń": 178,
      "ņ": 179,
      "ň": 180,
      "ŋ": 181,
      "ō": 182,
      "ŏ": 183,
      "ő": 184,
      "œ": 185,
      "ŕ": 186,
      "ŗ": 187,
      "ř": 188,
      "ś": 189,
      "ŝ": 190,
      "ş": 191,
      "š": 192,
      "ţ": 193,
      "ť": 194,
      "ũ": 195,
      "ū": 196,
      "ŭ": 197,
      "ů": 198,
      "ű": 199,
      "ų": 200,
      "ŵ": 201,
      "ŷ": 202,
      "ź": 203,
      "ż": 204,
      "ž": 205,
      "ſ": 206,
      "ƃ": 207,
      "ƅ": 208,
      "ƌ": 209,
      "ƒ": 210,
      "ƕ": 211,
      "ơ": 212,
      "ƣ": 213,
      "ƨ": 214,
      "ư": 215,
      "ƴ": 216,
      "ƶ": 217,
      "ƽ": 218,
      "ƿ": 219,
      "ǁ": 220,
      "ǂ": 221,
      "ǃ": 222,
      "ǎ": 223,
      "ǐ": 224,
      "ǒ": 225,
      "ǔ": 226,
      "ǘ": 227,
      "ǚ": 228,
      "ǜ": 229,
      "ǝ": 230,
      "ǣ": 231,
      "ǥ": 232,
      "ǩ": 233,
      "ǫ": 234,
      "ǯ": 235,
      "ǰ": 236,
      "ǵ": 237,
      "ǹ": 238,
      "ȁ": 239,
      "ș": 240,
      "ț": 241,
      "ȝ": 242,
      "ȟ": 243,
      "ȥ": 244,
      "ȧ": 245,
      "ȭ": 246,
      "ȯ": 247,
      "ȷ": 248,
      "ɀ": 249,
      "ɋ": 250,
      "ɐ": 251,
      "ɑ": 252,
      "ɒ": 253,
      "ɓ": 254,
      "ɔ": 255,
      "ɕ": 256,
      "ɖ": 257,
      "ɗ": 258,
      "ɘ": 259,
      "ə": 260,
      "ɛ": 261,
      "ɟ": 262,
      "ɠ": 263,
      "ɡ": 264,
      "ɣ": 265,
      "ɤ": 266,
      "ɦ": 267,
      "ɨ": 268,
      "ɪ": 269,
      "ɫ": 270,
      "ɬ": 271,
      "ɯ": 272,
      "ɰ": 273,
      "ɲ": 274,
      "ɵ": 275,
      "ɸ": 276,
      "ɺ": 277,
      "ɾ": 278,
      "ʀ": 279,
      "ʁ": 280,
      "ʃ": 281,
      "ʆ": 282,
      "ʉ": 283,
      "ʊ": 284,
      "ʋ": 285,
      "ʌ": 286,
      "ʎ": 287,
      "ʏ": 288,
      "ʐ": 289,
      "ʑ": 290,
      "ʒ": 291,
      "ʔ": 292,
      "ʕ": 293,
      "ʘ": 294,
      "ʙ": 295,
      "ʝ": 296,
      "ʟ": 297,
      "ʣ": 298,
      "ʤ": 299,
      "ʥ": 300,
      "ʧ": 301,
      "ʨ": 302,
      "ʰ": 303,
      "ʲ": 304,
      "ʷ": 305,
      "ʹ": 306,
      "ʺ": 307,
      "ʻ": 308,
      "ʼ": 309,
      "ʽ": 310,
      "ʾ": 311,
      "ʿ": 312,
      "ˁ": 313,
      "ˆ": 314,
      "ˇ": 315,
      "ˈ": 316,
      "ˊ": 317,
      "ˌ": 318,
      "ː": 319,
      "ˑ": 320,
      "˗": 321,
      "˘": 322,
      "˚": 323,
      "˝": 324,
      "ˠ": 325,
      "ˢ": 326,
      "ˤ": 327,
      "̀": 328,
      "́": 329,
      "̂": 330,
      "̃": 331,
      "̄": 332,
      "̅": 333,
      "̆": 334,
      "̇": 335,
      "̈": 336,
      "̊": 337,
      "̋": 338,
      "̌": 339,
      "̍": 340,
      "̐": 341,
      "̑": 342,
      "̓": 343,
      "̕": 344,
      "̜": 345,
      "̞": 346,
      "̟": 347,
      "̠": 348,
      "̢": 349,
      "̣": 350,
      "̤": 351,
      "̥": 352,
      "̦": 353,
      "̧": 354,
      "̨": 355,
      "̩": 356,
      "̪": 357,
      "̮": 358,
      "̯": 359,
      "̱": 360,
      "̲": 361,
      "̶": 362,
      "̹": 363,
      "̺": 364,
      "̻": 365,
      "̽": 366,
      "͂": 367,
      "ͅ": 368,
      "͊": 369,
      "͑": 370,
      "͗": 371,
      "͘": 372,
      "͜": 373,
      "͟": 374,
      "͡": 375,
      "ͣ": 376,
      "ͤ": 377,
      "΄": 378,
      "ΐ": 379,
      "ά": 380,
      "έ": 381,
      "ή": 382,
      "ί": 383,
      "ΰ": 384,
      "α": 385,
      "β": 386,
      "γ": 387,
      "δ": 388,
      "ε": 389,
      "ζ": 390,
      "η": 391,
      "θ": 392,
      "ι": 393,
      "κ": 394,
      "λ": 395,
      "μ": 396,
      "ν": 397,
      "ξ": 398,
      "ο": 399,
      "π": 400,
      "ρ": 401,
      "ς": 402,
      "σ": 403,
      "τ": 404,
      "υ": 405,
      "φ": 406,
      "χ": 407,
      "ψ": 408,
      "ω": 409,
      "ϊ": 410,
      "ϋ": 411,
      "ό": 412,
      "ύ": 413,
      "ώ": 414,
      "ϐ": 415,
      "ϙ": 416,
      "ϝ": 417,
      "ϣ": 418,
      "ϩ": 419,
      "ϫ": 420,
      "ϭ": 421,
      "ϰ": 422,
      "а": 423,
      "б": 424,
      "в": 425,
      "г": 426,
      "д": 427,
      "е": 428,
      "ж": 429,
      "з": 430,
      "и": 431,
      "й": 432,
      "к": 433,
      "л": 434,
      "м": 435,
      "н": 436,
      "о": 437,
      "п": 438,
      "р": 439,
      "с": 440,
      "т": 441,
      "у": 442,
      "ф": 443,
      "х": 444,
      "ц": 445,
      "ч": 446,
      "ш": 447,
      "щ": 448,
      "ъ": 449,
      "ы": 450,
      "ь": 451,
      "э": 452,
      "ю": 453,
      "я": 454,
      "ѐ": 455,
      "ё": 456,
      "ђ": 457,
      "ѓ": 458,
      "є": 459,
      "ѕ": 460,
      "і": 461,
      "ї": 462,
      "ј": 463,
      "љ": 464,
      "њ": 465,
      "ћ": 466,
      "ќ": 467,
      "ѝ": 468,
      "ў": 469,
      "џ": 470,
      "ѡ": 471,
      "ѣ": 472,
      "ѥ": 473,
      "ѧ": 474,
      "ѩ": 475,
      "ѫ": 476,
      "ѭ": 477,
      "ѯ": 478,
      "ѱ": 479,
      "ѳ": 480,
      "ѵ": 481,
      "ѷ": 482,
      "ѹ": 483,
      "ѿ": 484,
      "҂": 485,
      "҃": 486,
      "ҍ": 487,
      "ґ": 488,
      "ғ": 489,
      "ҕ": 490,
      "җ": 491,
      "ҙ": 492,
      "қ": 493,
      "ҝ": 494,
      "ҟ": 495,
      "ҡ": 496,
      "ң": 497,
      "ҥ": 498,
      "ҧ": 499,
      "ҩ": 500,
      "ҫ": 501,
      "ү": 502,
      "ұ": 503,
      "ҳ": 504,
      "ҷ": 505,
      "ҹ": 506,
      "һ": 507,
      "ӄ": 508,
      "ӆ": 509,
      "ӈ": 510,
      "ӊ": 511,
      "ӏ": 512,
      "ӑ": 513,
      "ӓ": 514,
      "ӕ": 515,
      "ӗ": 516,
      "ә": 517,
      "ӝ": 518,
      "ӟ": 519,
      "ӡ": 520,
      "ӣ": 521,
      "ӥ": 522,
      "ӧ": 523,
      "ө": 524,
      "ӭ": 525,
      "ӯ": 526,
      "ӱ": 527,
      "ӳ": 528,
      "ӵ": 529,
      "ӷ": 530,
      "ӹ": 531,
      "ԁ": 532,
      "ԃ": 533,
      "ԅ": 534,
      "ԇ": 535,
      "ԉ": 536,
      "ԋ": 537,
      "ԍ": 538,
      "ԏ": 539,
      "ԑ": 540,
      "ԓ": 541,
      "ԕ": 542,
      "ԗ": 543,
      "ԙ": 544,
      "ԝ": 545,
      "ԥ": 546,
      "ԧ": 547,
      "ԫ": 548,
      "՛": 549,
      "՝": 550,
      "ա": 551,
      "բ": 552,
      "գ": 553,
      "դ": 554,
      "ե": 555,
      "զ": 556,
      "է": 557,
      "ը": 558,
      "թ": 559,
      "ի": 560,
      "լ": 561,
      "խ": 562,
      "ծ": 563,
      "կ": 564,
      "հ": 565,
      "ձ": 566,
      "ղ": 567,
      "ճ": 568,
      "մ": 569,
      "յ": 570,
      "ն": 571,
      "շ": 572,
      "ո": 573,
      "չ": 574,
      "պ": 575,
      "ջ": 576,
      "ռ": 577,
      "ս": 578,
      "վ": 579,
      "տ": 580,
      "ր": 581,
      "ց": 582,
      "ւ": 583,
      "փ": 584,
      "ք": 585,
      "օ": 586,
      "և": 587,
      "։": 588,
      "֫": 589,
      "ְ": 590,
      "ֲ": 591,
      "ִ": 592,
      "ֵ": 593,
      "ֶ": 594,
      "ַ": 595,
      "ָ": 596,
      "ֹ": 597,
      "ּ": 598,
      "־": 599,
      "ֿ": 600,
      "ׁ": 601,
      "ׂ": 602,
      "א": 603,
      "ב": 604,
      "ג": 605,
      "ד": 606,
      "ה": 607,
      "ו": 608,
      "ז": 609,
      "ח": 610,
      "ט": 611,
      "י": 612,
      "ך": 613,
      "כ": 614,
      "ל": 615,
      "ם": 616,
      "מ": 617,
      "ן": 618,
      "נ": 619,
      "ס": 620,
      "ע": 621,
      "ף": 622,
      "פ": 623,
      "ץ": 624,
      "צ": 625,
      "ק": 626,
      "ר": 627,
      "ש": 628,
      "ת": 629,
      "װ": 630,
      "ױ": 631,
      "ײ": 632,
      "׳": 633,
      "״": 634,
      "،": 635,
      "؟": 636,
      "ء": 637,
      "آ": 638,
      "أ": 639,
      "ؤ": 640,
      "إ": 641,
      "ئ": 642,
      "ا": 643,
      "ب": 644,
      "ة": 645,
      "ت": 646,
      "ث": 647,
      "ج": 648,
      "ح": 649,
      "خ": 650,
      "د": 651,
      "ذ": 652,
      "ر": 653,
      "ز": 654,
      "س": 655,
      "ش": 656,
      "ص": 657,
      "ض": 658,
      "ط": 659,
      "ظ": 660,
      "ع": 661,
      "غ": 662,
      "ؿ": 663,
      "ـ": 664,
      "ف": 665,
      "ق": 666,
      "ك": 667,
      "ل": 668,
      "م": 669,
      "ن": 670,
      "ه": 671,
      "و": 672,
      "ى": 673,
      "ي": 674,
      "ً": 675,
      "ٌ": 676,
      "ٍ": 677,
      "َ": 678,
      "ُ": 679,
      "ِ": 680,
      "ّ": 681,
      "ْ": 682,
      "ٔ": 683,
      "ٗ": 684,
      "٠": 685,
      "ٱ": 686,
      "ٹ": 687,
      "ٽ": 688,
      "پ": 689,
      "ڄ": 690,
      "چ": 691,
      "ڈ": 692,
      "ڑ": 693,
      "ړ": 694,
      "ژ": 695,
      "ڠ": 696,
      "ک": 697,
      "ڪ": 698,
      "ګ": 699,
      "ڬ": 700,
      "گ": 701,
      "ں": 702,
      "ھ": 703,
      "ہ": 704,
      "ی": 705,
      "ێ": 706,
      "ې": 707,
      "ە": 708,
      "۩": 709,
      "۰": 710,
      "۱": 711,
      "۲": 712,
      "۳": 713,
      "۴": 714,
      "۵": 715,
      "۶": 716,
      "۷": 717,
      "۸": 718,
      "۹": 719,
      "ܐ": 720,
      "ܒ": 721,
      "ܕ": 722,
      "ܗ": 723,
      "ܘ": 724,
      "ܚ": 725,
      "ܛ": 726,
      "ܝ": 727,
      "ܟ": 728,
      "ܠ": 729,
      "ܡ": 730,
      "ܢ": 731,
      "ܣ": 732,
      "ܦ": 733,
      "ܨ": 734,
      "ܪ": 735,
      "ܬ": 736,
      "ܵ": 737,
      "ܹ": 738,
      "ܺ": 739,
      "ܻ": 740,
      "ܼ": 741,
      "ܽ": 742,
      "ܿ": 743,
      "݂": 744,
      "ݜ": 745,
      "ݣ": 746,
      "ݨ": 747,
      "ݪ": 748,
      "ँ": 749,
      "ं": 750,
      "ः": 751,
      "अ": 752,
      "आ": 753,
      "इ": 754,
      "ई": 755,
      "उ": 756,
      "ऊ": 757,
      "ऋ": 758,
      "ए": 759,
      "ऑ": 760,
      "क": 761,
      "ख": 762,
      "ग": 763,
      "घ": 764,
      "ङ": 765,
      "च": 766,
      "ज": 767,
      "ञ": 768,
      "ट": 769,
      "ठ": 770,
      "ड": 771,
      "ढ": 772,
      "ण": 773,
      "त": 774,
      "थ": 775,
      "द": 776,
      "ध": 777,
      "न": 778,
      "प": 779,
      "फ": 780,
      "ब": 781,
      "भ": 782,
      "म": 783,
      "य": 784,
      "र": 785,
      "ल": 786,
      "ळ": 787,
      "व": 788,
      "श": 789,
      "ष": 790,
      "स": 791,
      "ह": 792,
      "़": 793,
      "ा": 794,
      "ि": 795,
      "ी": 796,
      "ु": 797,
      "ू": 798,
      "ृ": 799,
      "े": 800,
      "ै": 801,
      "ॉ": 802,
      "ो": 803,
      "्": 804,
      "ॐ": 805,
      "।": 806,
      "॥": 807,
      "०": 808,
      "१": 809,
      "॰": 810,
      "ং": 811,
      "আ": 812,
      "উ": 813,
      "ক": 814,
      "খ": 815,
      "গ": 816,
      "জ": 817,
      "ঞ": 818,
      "ত": 819,
      "থ": 820,
      "দ": 821,
      "ন": 822,
      "ব": 823,
      "ম": 824,
      "য": 825,
      "র": 826,
      "ল": 827,
      "শ": 828,
      "ষ": 829,
      "স": 830,
      "হ": 831,
      "়": 832,
      "া": 833,
      "ি": 834,
      "ী": 835,
      "ু": 836,
      "্": 837,
      "ৰ": 838,
      "৳": 839,
      "ਅ": 840,
      "ਆ": 841,
      "ਈ": 842,
      "ਉ": 843,
      "ਔ": 844,
      "ਕ": 845,
      "ਖ": 846,
      "ਠ": 847,
      "ਣ": 848,
      "ਤ": 849,
      "ਨ": 850,
      "ਮ": 851,
      "ਰ": 852,
      "ਲ": 853,
      "ਾ": 854,
      "ੀ": 855,
      "ੌ": 856,
      "ક": 857,
      "ગ": 858,
      "ચ": 859,
      "ણ": 860,
      "ધ": 861,
      "ર": 862,
      "ળ": 863,
      "ા": 864,
      "ો": 865,
      "இ": 866,
      "க": 867,
      "ச": 868,
      "ஜ": 869,
      "ஞ": 870,
      "ன": 871,
      "ப": 872,
      "ம": 873,
      "ய": 874,
      "ர": 875,
      "ல": 876,
      "ா": 877,
      "ி": 878,
      "ீ": 879,
      "ு": 880,
      "ூ": 881,
      "ெ": 882,
      "ே": 883,
      "ை": 884,
      "ொ": 885,
      "ோ": 886,
      "ௌ": 887,
      "்": 888,
      "ం": 889,
      "బ": 890,
      "ల": 891,
      "ె": 892,
      "్": 893,
      "ಂ": 894,
      "ಅ": 895,
      "ಆ": 896,
      "ಒ": 897,
      "ಕ": 898,
      "ಖ": 899,
      "ಗ": 900,
      "ಚ": 901,
      "ಜ": 902,
      "ಟ": 903,
      "ಠ": 904,
      "ಡ": 905,
      "ಣ": 906,
      "ತ": 907,
      "ಥ": 908,
      "ದ": 909,
      "ಧ": 910,
      "ನ": 911,
      "ಪ": 912,
      "ಬ": 913,
      "ಮ": 914,
      "ಯ": 915,
      "ರ": 916,
      "ಲ": 917,
      "ಳ": 918,
      "ವ": 919,
      "ಶ": 920,
      "ಷ": 921,
      "ಸ": 922,
      "ಹ": 923,
      "ಾ": 924,
      "ಿ": 925,
      "ೀ": 926,
      "ು": 927,
      "ೂ": 928,
      "ೆ": 929,
      "ೇ": 930,
      "ೈ": 931,
      "ೊ": 932,
      "ೋ": 933,
      "ೌ": 934,
      "್": 935,
      "ജ": 936,
      "പ": 937,
      "ര": 938,
      "ള": 939,
      "ാ": 940,
      "ി": 941,
      "ു": 942,
      "ൈ": 943,
      "്": 944,
      "ං": 945,
      "අ": 946,
      "ඔ": 947,
      "ක": 948,
      "ග": 949,
      "ජ": 950,
      "ට": 951,
      "ත": 952,
      "ද": 953,
      "න": 954,
      "ප": 955,
      "ම": 956,
      "ය": 957,
      "ර": 958,
      "ල": 959,
      "ව": 960,
      "ශ": 961,
      "ස": 962,
      "හ": 963,
      "්": 964,
      "ා": 965,
      "ැ": 966,
      "ි": 967,
      "ී": 968,
      "ු": 969,
      "ෙ": 970,
      "ේ": 971,
      "ො": 972,
      "ก": 973,
      "ข": 974,
      "ฃ": 975,
      "ค": 976,
      "ฅ": 977,
      "ฆ": 978,
      "ง": 979,
      "จ": 980,
      "ฉ": 981,
      "ช": 982,
      "ซ": 983,
      "ญ": 984,
      "ฐ": 985,
      "ฒ": 986,
      "ณ": 987,
      "ด": 988,
      "ต": 989,
      "ถ": 990,
      "ท": 991,
      "ธ": 992,
      "น": 993,
      "บ": 994,
      "ป": 995,
      "ผ": 996,
      "ฝ": 997,
      "พ": 998,
      "ฟ": 999,
      "ภ": 1000,
      "ม": 1001,
      "ย": 1002,
      "ร": 1003,
      "ล": 1004,
      "ว": 1005,
      "ศ": 1006,
      "ษ": 1007,
      "ส": 1008,
      "ห": 1009,
      "ฬ": 1010,
      "อ": 1011,
      "ฮ": 1012,
      "ฯ": 1013,
      "ะ": 1014,
      "ั": 1015,
      "า": 1016,
      "ำ": 1017,
      "ิ": 1018,
      "ี": 1019,
      "ื": 1020,
      "ุ": 1021,
      "ู": 1022,
      "ฺ": 1023,
      "เ": 1024,
      "แ": 1025,
      "โ": 1026,
      "ใ": 1027,
      "ไ": 1028,
      "ๆ": 1029,
      "็": 1030,
      "่": 1031,
      "้": 1032,
      "๋": 1033,
      "์": 1034,
      "ํ": 1035,
      "๑": 1036,
      "་": 1037,
      "།": 1038,
      "ཁ": 1039,
      "ག": 1040,
      "ང": 1041,
      "ཆ": 1042,
      "ཎ": 1043,
      "ཏ": 1044,
      "ཐ": 1045,
      "ད": 1046,
      "ན": 1047,
      "པ": 1048,
      "བ": 1049,
      "མ": 1050,
      "ཙ": 1051,
      "ཝ": 1052,
      "ཡ": 1053,
      "ར": 1054,
      "ཤ": 1055,
      "ཥ": 1056,
      "ས": 1057,
      "ཧ": 1058,
      "ཨ": 1059,
      "ཱ": 1060,
      "ི": 1061,
      "ུ": 1062,
      "ེ": 1063,
      "ོ": 1064,
      "ཾ": 1065,
      "ྒ": 1066,
      "ྔ": 1067,
      "ྗ": 1068,
      "ྟ": 1069,
      "ྤ": 1070,
      "ྨ": 1071,
      "ྭ": 1072,
      "ྱ": 1073,
      "ྲ": 1074,
      "ྴ": 1075,
      "ྷ": 1076,
      "က": 1077,
      "ခ": 1078,
      "င": 1079,
      "တ": 1080,
      "ထ": 1081,
      "ပ": 1082,
      "ဗ": 1083,
      "မ": 1084,
      "ရ": 1085,
      "ိ": 1086,
      "ီ": 1087,
      "ု": 1088,
      "ေ": 1089,
      "ဲ": 1090,
      "ံ": 1091,
      "း": 1092,
      "်": 1093,
      "ြ": 1094,
      "ွ": 1095,
      "ှ": 1096,
      "ၵ": 1097,
      "ၶ": 1098,
      "ႆ": 1099,
      "ႈ": 1100,
      "ა": 1101,
      "ბ": 1102,
      "გ": 1103,
      "დ": 1104,
      "ე": 1105,
      "ვ": 1106,
      "ზ": 1107,
      "თ": 1108,
      "ი": 1109,
      "კ": 1110,
      "ლ": 1111,
      "მ": 1112,
      "ნ": 1113,
      "ო": 1114,
      "პ": 1115,
      "ჟ": 1116,
      "რ": 1117,
      "ს": 1118,
      "ტ": 1119,
      "უ": 1120,
      "ფ": 1121,
      "ქ": 1122,
      "ღ": 1123,
      "ყ": 1124,
      "შ": 1125,
      "ჩ": 1126,
      "ც": 1127,
      "ძ": 1128,
      "წ": 1129,
      "ჭ": 1130,
      "ხ": 1131,
      "ჯ": 1132,
      "ჰ": 1133,
      "ჲ": 1134,
      "መ": 1135,
      "ሙ": 1136,
      "ሚ": 1137,
      "ማ": 1138,
      "ሜ": 1139,
      "ም": 1140,
      "ሞ": 1141,
      "ሟ": 1142,
      "ን": 1143,
      "ዕ": 1144,
      "ዳ": 1145,
      "ጉ": 1146,
      "ጊ": 1147,
      "ፙ": 1148,
      "ᐊ": 1149,
      "ᐋ": 1150,
      "ᒃ": 1151,
      "ᓄ": 1152,
      "ᓐ": 1153,
      "ᓯ": 1154,
      "ᔪ": 1155,
      "ᕙ": 1156,
      "ᕿ": 1157,
      "ᖅ": 1158,
      "ᚢ": 1159,
      "ᚣ": 1160,
      "ᚤ": 1161,
      "ᚥ": 1162,
      "ᚹ": 1163,
      "ᚺ": 1164,
      "ᚻ": 1165,
      "ᚼ": 1166,
      "ᛋ": 1167,
      "ᛏ": 1168,
      "ᛡ": 1169,
      "ᝀ": 1170,
      "ᝁ": 1171,
      "ᝂ": 1172,
      "ᝃ": 1173,
      "ᝄ": 1174,
      "ᝅ": 1175,
      "ᝆ": 1176,
      "ᝇ": 1177,
      "ᝈ": 1178,
      "ᝉ": 1179,
      "ᝊ": 1180,
      "ᝋ": 1181,
      "ᝌ": 1182,
      "ᝍ": 1183,
      "ᝎ": 1184,
      "ᝏ": 1185,
      "ᝐ": 1186,
      "ᝑ": 1187,
      "ᝒ": 1188,
      "ᝓ": 1189,
      "ក": 1190,
      "គ": 1191,
      "ង": 1192,
      "ជ": 1193,
      "ដ": 1194,
      "ណ": 1195,
      "ត": 1196,
      "ទ": 1197,
      "ន": 1198,
      "ប": 1199,
      "ម": 1200,
      "រ": 1201,
      "ល": 1202,
      "ស": 1203,
      "ា": 1204,
      "ិ": 1205,
      "ី": 1206,
      "ុ": 1207,
      "ួ": 1208,
      "ោ": 1209,
      "ំ": 1210,
      "ះ": 1211,
      "់": 1212,
      "្": 1213,
      "៛": 1214,
      "᠎": 1215,
      "ᠠ": 1216,
      "ᠤ": 1217,
      "ᠬ": 1218,
      "ᠭ": 1219,
      "ᠯ": 1220,
      "ᠰ": 1221,
      "ᠲ": 1222,
      "ᠷ": 1223,
      "ᴀ": 1224,
      "ᵊ": 1225,
      "ᵛ": 1226,
      "ᵞ": 1227,
      "ᶻ": 1228,
      "᷃": 1229,
      "ḋ": 1230,
      "ḍ": 1231,
      "ḏ": 1232,
      "ḑ": 1233,
      "ḗ": 1234,
      "ḥ": 1235,
      "ḫ": 1236,
      "ḭ": 1237,
      "ḱ": 1238,
      "ḳ": 1239,
      "ḵ": 1240,
      "ḷ": 1241,
      "ḿ": 1242,
      "ṁ": 1243,
      "ṃ": 1244,
      "ṅ": 1245,
      "ṇ": 1246,
      "ṍ": 1247,
      "ṑ": 1248,
      "ṓ": 1249,
      "ṙ": 1250,
      "ṛ": 1251,
      "ṡ": 1252,
      "ṣ": 1253,
      "ṭ": 1254,
      "ṯ": 1255,
      "ṷ": 1256,
      "ṹ": 1257,
      "ṽ": 1258,
      "ṿ": 1259,
      "ẓ": 1260,
      "ẖ": 1261,
      "ẗ": 1262,
      "ẟ": 1263,
      "ạ": 1264,
      "ả": 1265,
      "ấ": 1266,
      "ầ": 1267,
      "ậ": 1268,
      "ắ": 1269,
      "ẹ": 1270,
      "ẻ": 1271,
      "ẽ": 1272,
      "ế": 1273,
      "ề": 1274,
      "ể": 1275,
      "ễ": 1276,
      "ệ": 1277,
      "ỉ": 1278,
      "ị": 1279,
      "ọ": 1280,
      "ố": 1281,
      "ồ": 1282,
      "ổ": 1283,
      "ộ": 1284,
      "ớ": 1285,
      "ờ": 1286,
      "ợ": 1287,
      "ụ": 1288,
      "ủ": 1289,
      "ứ": 1290,
      "ừ": 1291,
      "ử": 1292,
      "ữ": 1293,
      "ự": 1294,
      "ỳ": 1295,
      "ỷ": 1296,
      "ỹ": 1297,
      "ἀ": 1298,
      "ἁ": 1299,
      "ἄ": 1300,
      "ἅ": 1301,
      "ἐ": 1302,
      "ἑ": 1303,
      "ἔ": 1304,
      "ἕ": 1305,
      "ἠ": 1306,
      "ἡ": 1307,
      "ἢ": 1308,
      "ἤ": 1309,
      "ἦ": 1310,
      "ἰ": 1311,
      "ἱ": 1312,
      "ἴ": 1313,
      "ἵ": 1314,
      "ἶ": 1315,
      "ἷ": 1316,
      "ὀ": 1317,
      "ὁ": 1318,
      "ὄ": 1319,
      "ὅ": 1320,
      "ὐ": 1321,
      "ὑ": 1322,
      "ὔ": 1323,
      "ὕ": 1324,
      "ὢ": 1325,
      "ὰ": 1326,
      "ὲ": 1327,
      "ὴ": 1328,
      "ὶ": 1329,
      "ὸ": 1330,
      "ὺ": 1331,
      "ὼ": 1332,
      "ᾀ": 1333,
      "ᾰ": 1334,
      "ᾱ": 1335,
      "ᾳ": 1336,
      "ᾶ": 1337,
      "᾿": 1338,
      "ῃ": 1339,
      "ῆ": 1340,
      "ῑ": 1341,
      "ῖ": 1342,
      "ῥ": 1343,
      "ῦ": 1344,
      "ῳ": 1345,
      "ῶ": 1346,
      "ῷ": 1347,
      "῾": 1348,
      "​": 1349,
      "‌": 1350,
      "‍": 1351,
      "‎": 1352,
      "‏": 1353,
      "‐": 1354,
      "‑": 1355,
      "‒": 1356,
      "–": 1357,
      "—": 1358,
      "―": 1359,
      "‖": 1360,
      "‘": 1361,
      "’": 1362,
      "‚": 1363,
      "‛": 1364,
      "“": 1365,
      "”": 1366,
      "„": 1367,
      "†": 1368,
      "‡": 1369,
      "•": 1370,
      "․": 1371,
      "‥": 1372,
      "…": 1373,
      "‧": 1374,
      "‪": 1375,
      "‬": 1376,
      "‭": 1377,
      "‰": 1378,
      "′": 1379,
      "″": 1380,
      "‹": 1381,
      "›": 1382,
      "‼": 1383,
      "‿": 1384,
      "⁂": 1385,
      "⁄": 1386,
      "⁈": 1387,
      "⁠": 1388,
      "⁡": 1389,
      "⁣": 1390,
      "⁰": 1391,
      "⁴": 1392,
      "⁵": 1393,
      "⁶": 1394,
      "⁸": 1395,
      "⁻": 1396,
      "₀": 1397,
      "₁": 1398,
      "₂": 1399,
      "₃": 1400,
      "₄": 1401,
      "₅": 1402,
      "₆": 1403,
      "₉": 1404,
      "₤": 1405,
      "₪": 1406,
      "€": 1407,
      "₰": 1408,
      "₴": 1409,
      "₷": 1410,
      "₹": 1411,
      "₺": 1412,
      "₽": 1413,
      "⃘": 1414,
      "ℂ": 1415,
      "℃": 1416,
      "℉": 1417,
      "ℓ": 1418,
      "℔": 1419,
      "№": 1420,
      "℗": 1421,
      "ℝ": 1422,
      "℠": 1423,
      "™": 1424,
      "ℭ": 1425,
      "ℳ": 1426,
      "ℵ": 1427,
      "⅓": 1428,
      "⅔": 1429,
      "⅛": 1430,
      "ⅰ": 1431,
      "ⅱ": 1432,
      "ⅲ": 1433,
      "ⅳ": 1434,
      "ⅴ": 1435,
      "ⅵ": 1436,
      "ↄ": 1437,
      "←": 1438,
      "↑": 1439,
      "→": 1440,
      "↓": 1441,
      "↔": 1442,
      "↖": 1443,
      "↗": 1444,
      "↘": 1445,
      "↙": 1446,
      "↠": 1447,
      "↦": 1448,
      "⇌": 1449,
      "⇑": 1450,
      "⇒": 1451,
      "⇔": 1452,
      "∀": 1453,
      "∂": 1454,
      "∃": 1455,
      "∅": 1456,
      "∆": 1457,
      "∇": 1458,
      "∈": 1459,
      "∉": 1460,
      "∎": 1461,
      "∑": 1462,
      "−": 1463,
      "∕": 1464,
      "∗": 1465,
      "∘": 1466,
      "∙": 1467,
      "√": 1468,
      "∞": 1469,
      "∠": 1470,
      "∥": 1471,
      "∧": 1472,
      "∨": 1473,
      "∩": 1474,
      "∪": 1475,
      "∫": 1476,
      "∮": 1477,
      "∴": 1478,
      "∼": 1479,
      "≅": 1480,
      "≈": 1481,
      "≠": 1482,
      "≡": 1483,
      "≤": 1484,
      "≥": 1485,
      "≫": 1486,
      "≲": 1487,
      "⊂": 1488,
      "⊃": 1489,
      "⊆": 1490,
      "⊇": 1491,
      "⊕": 1492,
      "⊙": 1493,
      "⊥": 1494,
      "⋅": 1495,
      "⋊": 1496,
      "⌀": 1497,
      "⌶": 1498,
      "⏛": 1499,
      "①": 1500,
      "ⓐ": 1501,
      "ⓤ": 1502,
      "⓪": 1503,
      "─": 1504,
      "│": 1505,
      "┌": 1506,
      "┐": 1507,
      "└": 1508,
      "┘": 1509,
      "├": 1510,
      "┤": 1511,
      "┬": 1512,
      "┴": 1513,
      "┼": 1514,
      "▁": 1515,
      "█": 1516,
      "■": 1517,
      "□": 1518,
      "▪": 1519,
      "▶": 1520,
      "○": 1521,
      "◌": 1522,
      "●": 1523,
      "◦": 1524,
      "◯": 1525,
      "◻": 1526,
      "☂": 1527,
      "★": 1528,
      "☆": 1529,
      "☉": 1530,
      "☊": 1531,
      "☋": 1532,
      "☑": 1533,
      "☕": 1534,
      "☝": 1535,
      "☮": 1536,
      "☵": 1537,
      "☺": 1538,
      "♀": 1539,
      "♁": 1540,
      "♂": 1541,
      "♃": 1542,
      "♈": 1543,
      "♠": 1544,
      "♥": 1545,
      "♦": 1546,
      "♪": 1547,
      "♭": 1548,
      "♯": 1549,
      "⚡": 1550,
      "⚢": 1551,
      "⚣": 1552,
      "⚭": 1553,
      "⚽": 1554,
      "⛤": 1555,
      "⛥": 1556,
      "⛦": 1557,
      "⛧": 1558,
      "✈": 1559,
      "✌": 1560,
      "✚": 1561,
      "✝": 1562,
      "✦": 1563,
      "✨": 1564,
      "❀": 1565,
      "❣": 1566,
      "❤": 1567,
      "❬": 1568,
      "❭": 1569,
      "❸": 1570,
      "❺": 1571,
      "➖": 1572,
      "⟦": 1573,
      "⟧": 1574,
      "⟨": 1575,
      "⟩": 1576,
      "⠀": 1577,
      "⠅": 1578,
      "⠛": 1579,
      "⠩": 1580,
      "⠮": 1581,
      "⠱": 1582,
      "⠵": 1583,
      "⦁": 1584,
      "⩽": 1585,
      "⬆": 1586,
      "⭐": 1587,
      "ⰶ": 1588,
      "ⰿ": 1589,
      "ⱁ": 1590,
      "ⱂ": 1591,
      "ⱄ": 1592,
      "ⱅ": 1593,
      "ⱆ": 1594,
      "ⱌ": 1595,
      "ⱏ": 1596,
      "ⱗ": 1597,
      "ⱨ": 1598,
      "ⱪ": 1599,
      "ⱬ": 1600,
      "ⲁ": 1601,
      "ⲅ": 1602,
      "ⲇ": 1603,
      "ⲉ": 1604,
      "ⲏ": 1605,
      "ⲓ": 1606,
      "ⲕ": 1607,
      "ⲙ": 1608,
      "ⲛ": 1609,
      "ⲟ": 1610,
      "ⲡ": 1611,
      "ⲣ": 1612,
      "ⲥ": 1613,
      "ⲧ": 1614,
      "ⲩ": 1615,
      "ⲭ": 1616,
      "ⲱ": 1617,
      "ⴀ": 1618,
      "ⴁ": 1619,
      "ⴂ": 1620,
      "ⴃ": 1621,
      "ⴄ": 1622,
      "ⴅ": 1623,
      "ⴆ": 1624,
      "ⴇ": 1625,
      "ⴈ": 1626,
      "ⴉ": 1627,
      "ⴊ": 1628,
      "ⴋ": 1629,
      "ⴌ": 1630,
      "ⴍ": 1631,
      "ⴎ": 1632,
      "ⴏ": 1633,
      "ⴐ": 1634,
      "ⴑ": 1635,
      "ⴒ": 1636,
      "ⴓ": 1637,
      "ⴔ": 1638,
      "ⴕ": 1639,
      "ⴖ": 1640,
      "ⴗ": 1641,
      "ⴘ": 1642,
      "ⴙ": 1643,
      "ⴚ": 1644,
      "ⴛ": 1645,
      "ⴜ": 1646,
      "ⴝ": 1647,
      "ⴞ": 1648,
      "ⴟ": 1649,
      "ⴠ": 1650,
      "ⴡ": 1651,
      "ⴢ": 1652,
      "ⴣ": 1653,
      "ⴤ": 1654,
      "ⴥ": 1655,
      "ⴧ": 1656,
      "ⴭ": 1657,
      "ⴰ": 1658,
      "ⴼ": 1659,
      "ⴽ": 1660,
      "ⵉ": 1661,
      "ⵏ": 1662,
      "ⵙ": 1663,
      "ⵜ": 1664,
      "ⵢ": 1665,
      "ⵣ": 1666,
      "⻱": 1667,
      "、": 1668,
      "。": 1669,
      "〃": 1670,
      "々": 1671,
      "〇": 1672,
      "〈": 1673,
      "〉": 1674,
      "《": 1675,
      "》": 1676,
      "「": 1677,
      "」": 1678,
      "『": 1679,
      "』": 1680,
      "【": 1681,
      "】": 1682,
      "〜": 1683,
      "〱": 1684,
      "〲": 1685,
      "〳": 1686,
      "〴": 1687,
      "〵": 1688,
      "〻": 1689,
      "〽": 1690,
      "あ": 1691,
      "い": 1692,
      "う": 1693,
      "え": 1694,
      "お": 1695,
      "か": 1696,
      "が": 1697,
      "き": 1698,
      "ぎ": 1699,
      "く": 1700,
      "ぐ": 1701,
      "け": 1702,
      "げ": 1703,
      "こ": 1704,
      "ご": 1705,
      "さ": 1706,
      "ざ": 1707,
      "し": 1708,
      "じ": 1709,
      "す": 1710,
      "ず": 1711,
      "せ": 1712,
      "ぜ": 1713,
      "そ": 1714,
      "ぞ": 1715,
      "た": 1716,
      "だ": 1717,
      "ち": 1718,
      "ぢ": 1719,
      "っ": 1720,
      "つ": 1721,
      "づ": 1722,
      "て": 1723,
      "で": 1724,
      "と": 1725,
      "ど": 1726,
      "な": 1727,
      "に": 1728,
      "ぬ": 1729,
      "ね": 1730,
      "の": 1731,
      "は": 1732,
      "ば": 1733,
      "ひ": 1734,
      "び": 1735,
      "ぴ": 1736,
      "ふ": 1737,
      "ぶ": 1738,
      "へ": 1739,
      "べ": 1740,
      "ほ": 1741,
      "ぼ": 1742,
      "ぽ": 1743,
      "ま": 1744,
      "み": 1745,
      "む": 1746,
      "め": 1747,
      "も": 1748,
      "ゃ": 1749,
      "や": 1750,
      "ゅ": 1751,
      "ゆ": 1752,
      "ょ": 1753,
      "よ": 1754,
      "ら": 1755,
      "り": 1756,
      "る": 1757,
      "れ": 1758,
      "ろ": 1759,
      "わ": 1760,
      "ゐ": 1761,
      "ゑ": 1762,
      "を": 1763,
      "ん": 1764,
      "ゝ": 1765,
      "ゞ": 1766,
      "ァ": 1767,
      "ア": 1768,
      "ィ": 1769,
      "イ": 1770,
      "ゥ": 1771,
      "ウ": 1772,
      "ェ": 1773,
      "エ": 1774,
      "ォ": 1775,
      "オ": 1776,
      "カ": 1777,
      "ガ": 1778,
      "キ": 1779,
      "ギ": 1780,
      "ク": 1781,
      "グ": 1782,
      "ケ": 1783,
      "ゲ": 1784,
      "コ": 1785,
      "ゴ": 1786,
      "サ": 1787,
      "ザ": 1788,
      "シ": 1789,
      "ジ": 1790,
      "ス": 1791,
      "ズ": 1792,
      "セ": 1793,
      "ゼ": 1794,
      "ソ": 1795,
      "ゾ": 1796,
      "タ": 1797,
      "ダ": 1798,
      "チ": 1799,
      "ヂ": 1800,
      "ッ": 1801,
      "ツ": 1802,
      "ヅ": 1803,
      "テ": 1804,
      "デ": 1805,
      "ト": 1806,
      "ド": 1807,
      "ナ": 1808,
      "ニ": 1809,
      "ネ": 1810,
      "ノ": 1811,
      "ハ": 1812,
      "バ": 1813,
      "パ": 1814,
      "ヒ": 1815,
      "ビ": 1816,
      "ピ": 1817,
      "フ": 1818,
      "ブ": 1819,
      "プ": 1820,
      "ヘ": 1821,
      "ベ": 1822,
      "ペ": 1823,
      "ホ": 1824,
      "ボ": 1825,
      "ポ": 1826,
      "マ": 1827,
      "ミ": 1828,
      "ム": 1829,
      "メ": 1830,
      "モ": 1831,
      "ャ": 1832,
      "ヤ": 1833,
      "ュ": 1834,
      "ユ": 1835,
      "ョ": 1836,
      "ヨ": 1837,
      "ラ": 1838,
      "リ": 1839,
      "ル": 1840,
      "レ": 1841,
      "ロ": 1842,
      "ワ": 1843,
      "ヰ": 1844,
      "ヱ": 1845,
      "ヲ": 1846,
      "ン": 1847,
      "ヴ": 1848,
      "ヶ": 1849,
      "・": 1850,
      "ー": 1851,
      "ヽ": 1852,
      "ㅂ": 1853,
      "ㅇ": 1854,
      "ㅐ": 1855,
      "㲼": 1856,
      "䨺": 1857,
      "一": 1858,
      "丁": 1859,
      "七": 1860,
      "万": 1861,
      "丈": 1862,
      "三": 1863,
      "上": 1864,
      "下": 1865,
      "不": 1866,
      "与": 1867,
      "专": 1868,
      "世": 1869,
      "丘": 1870,
      "丙": 1871,
      "业": 1872,
      "丛": 1873,
      "东": 1874,
      "丝": 1875,
      "两": 1876,
      "严": 1877,
      "並": 1878,
      "个": 1879,
      "中": 1880,
      "丰": 1881,
      "临": 1882,
      "丸": 1883,
      "丹": 1884,
      "为": 1885,
      "主": 1886,
      "举": 1887,
      "久": 1888,
      "么": 1889,
      "义": 1890,
      "之": 1891,
      "乌": 1892,
      "乎": 1893,
      "乐": 1894,
      "乔": 1895,
      "乙": 1896,
      "九": 1897,
      "也": 1898,
      "习": 1899,
      "乡": 1900,
      "书": 1901,
      "乱": 1902,
      "乾": 1903,
      "亀": 1904,
      "亂": 1905,
      "了": 1906,
      "予": 1907,
      "争": 1908,
      "事": 1909,
      "二": 1910,
      "于": 1911,
      "云": 1912,
      "互": 1913,
      "五": 1914,
      "井": 1915,
      "亚": 1916,
      "些": 1917,
      "亜": 1918,
      "亞": 1919,
      "亡": 1920,
      "交": 1921,
      "亥": 1922,
      "亦": 1923,
      "京": 1924,
      "亭": 1925,
      "亮": 1926,
      "亳": 1927,
      "人": 1928,
      "亿": 1929,
      "什": 1930,
      "仁": 1931,
      "仆": 1932,
      "仇": 1933,
      "今": 1934,
      "介": 1935,
      "从": 1936,
      "仏": 1937,
      "仓": 1938,
      "仔": 1939,
      "仕": 1940,
      "他": 1941,
      "付": 1942,
      "仙": 1943,
      "仝": 1944,
      "仡": 1945,
      "代": 1946,
      "令": 1947,
      "以": 1948,
      "仫": 1949,
      "们": 1950,
      "仮": 1951,
      "仲": 1952,
      "件": 1953,
      "任": 1954,
      "份": 1955,
      "企": 1956,
      "伊": 1957,
      "伍": 1958,
      "伎": 1959,
      "伏": 1960,
      "伐": 1961,
      "休": 1962,
      "伕": 1963,
      "众": 1964,
      "会": 1965,
      "伝": 1966,
      "传": 1967,
      "伤": 1968,
      "伦": 1969,
      "伪": 1970,
      "伯": 1971,
      "估": 1972,
      "伴": 1973,
      "伷": 1974,
      "伸": 1975,
      "似": 1976,
      "伽": 1977,
      "位": 1978,
      "住": 1979,
      "佐": 1980,
      "佑": 1981,
      "体": 1982,
      "何": 1983,
      "余": 1984,
      "佛": 1985,
      "作": 1986,
      "你": 1987,
      "佩": 1988,
      "佬": 1989,
      "佳": 1990,
      "佾": 1991,
      "使": 1992,
      "來": 1993,
      "例": 1994,
      "侍": 1995,
      "供": 1996,
      "依": 1997,
      "侯": 1998,
      "便": 1999,
      "係": 2000,
      "俄": 2001,
      "俊": 2002,
      "保": 2003,
      "俞": 2004,
      "俟": 2005,
      "俠": 2006,
      "信": 2007,
      "修": 2008,
      "俱": 2009,
      "俳": 2010,
      "俺": 2011,
      "倉": 2012,
      "個": 2013,
      "們": 2014,
      "倒": 2015,
      "候": 2016,
      "借": 2017,
      "倡": 2018,
      "倫": 2019,
      "倭": 2020,
      "倶": 2021,
      "假": 2022,
      "偓": 2023,
      "做": 2024,
      "健": 2025,
      "側": 2026,
      "偶": 2027,
      "偽": 2028,
      "傑": 2029,
      "傘": 2030,
      "備": 2031,
      "傣": 2032,
      "傳": 2033,
      "働": 2034,
      "像": 2035,
      "僕": 2036,
      "僖": 2037,
      "僧": 2038,
      "僮": 2039,
      "儋": 2040,
      "儒": 2041,
      "儺": 2042,
      "儿": 2043,
      "允": 2044,
      "元": 2045,
      "兄": 2046,
      "充": 2047,
      "兆": 2048,
      "先": 2049,
      "光": 2050,
      "克": 2051,
      "児": 2052,
      "兒": 2053,
      "兖": 2054,
      "党": 2055,
      "兜": 2056,
      "入": 2057,
      "內": 2058,
      "全": 2059,
      "兪": 2060,
      "八": 2061,
      "公": 2062,
      "六": 2063,
      "兰": 2064,
      "共": 2065,
      "关": 2066,
      "兴": 2067,
      "兵": 2068,
      "其": 2069,
      "具": 2070,
      "典": 2071,
      "冀": 2072,
      "内": 2073,
      "円": 2074,
      "冈": 2075,
      "冊": 2076,
      "册": 2077,
      "再": 2078,
      "冑": 2079,
      "写": 2080,
      "军": 2081,
      "农": 2082,
      "冠": 2083,
      "冥": 2084,
      "冫": 2085,
      "冬": 2086,
      "冯": 2087,
      "决": 2088,
      "冶": 2089,
      "冷": 2090,
      "凉": 2091,
      "凍": 2092,
      "几": 2093,
      "凤": 2094,
      "凯": 2095,
      "凰": 2096,
      "凱": 2097,
      "出": 2098,
      "击": 2099,
      "函": 2100,
      "刀": 2101,
      "刁": 2102,
      "分": 2103,
      "刊": 2104,
      "刑": 2105,
      "列": 2106,
      "刘": 2107,
      "则": 2108,
      "刚": 2109,
      "创": 2110,
      "初": 2111,
      "判": 2112,
      "別": 2113,
      "利": 2114,
      "别": 2115,
      "到": 2116,
      "制": 2117,
      "刷": 2118,
      "刹": 2119,
      "刺": 2120,
      "刻": 2121,
      "則": 2122,
      "剌": 2123,
      "前": 2124,
      "剑": 2125,
      "剛": 2126,
      "剣": 2127,
      "剧": 2128,
      "副": 2129,
      "創": 2130,
      "劃": 2131,
      "劇": 2132,
      "劉": 2133,
      "劍": 2134,
      "力": 2135,
      "功": 2136,
      "加": 2137,
      "务": 2138,
      "动": 2139,
      "助": 2140,
      "努": 2141,
      "劭": 2142,
      "劲": 2143,
      "劳": 2144,
      "势": 2145,
      "勅": 2146,
      "勇": 2147,
      "勉": 2148,
      "勒": 2149,
      "動": 2150,
      "勘": 2151,
      "務": 2152,
      "勝": 2153,
      "勢": 2154,
      "勤": 2155,
      "勧": 2156,
      "勲": 2157,
      "勸": 2158,
      "勿": 2159,
      "匀": 2160,
      "包": 2161,
      "匈": 2162,
      "匐": 2163,
      "化": 2164,
      "北": 2165,
      "匹": 2166,
      "区": 2167,
      "医": 2168,
      "區": 2169,
      "十": 2170,
      "千": 2171,
      "午": 2172,
      "半": 2173,
      "华": 2174,
      "协": 2175,
      "卑": 2176,
      "卒": 2177,
      "卓": 2178,
      "協": 2179,
      "单": 2180,
      "卖": 2181,
      "南": 2182,
      "単": 2183,
      "博": 2184,
      "卜": 2185,
      "占": 2186,
      "卡": 2187,
      "卢": 2188,
      "卫": 2189,
      "印": 2190,
      "危": 2191,
      "即": 2192,
      "卷": 2193,
      "卿": 2194,
      "厅": 2195,
      "历": 2196,
      "厖": 2197,
      "厚": 2198,
      "原": 2199,
      "厢": 2200,
      "厥": 2201,
      "厦": 2202,
      "去": 2203,
      "县": 2204,
      "参": 2205,
      "又": 2206,
      "叉": 2207,
      "友": 2208,
      "双": 2209,
      "反": 2210,
      "収": 2211,
      "发": 2212,
      "叔": 2213,
      "取": 2214,
      "受": 2215,
      "叙": 2216,
      "叛": 2217,
      "叡": 2218,
      "叢": 2219,
      "口": 2220,
      "古": 2221,
      "句": 2222,
      "只": 2223,
      "召": 2224,
      "可": 2225,
      "台": 2226,
      "史": 2227,
      "右": 2228,
      "叶": 2229,
      "号": 2230,
      "司": 2231,
      "吃": 2232,
      "各": 2233,
      "合": 2234,
      "吉": 2235,
      "同": 2236,
      "名": 2237,
      "后": 2238,
      "吐": 2239,
      "向": 2240,
      "吒": 2241,
      "吕": 2242,
      "吗": 2243,
      "君": 2244,
      "吟": 2245,
      "吠": 2246,
      "否": 2247,
      "含": 2248,
      "吳": 2249,
      "吴": 2250,
      "吵": 2251,
      "吸": 2252,
      "吻": 2253,
      "吾": 2254,
      "呂": 2255,
      "呉": 2256,
      "告": 2257,
      "员": 2258,
      "呢": 2259,
      "周": 2260,
      "味": 2261,
      "呼": 2262,
      "命": 2263,
      "咄": 2264,
      "和": 2265,
      "咏": 2266,
      "咥": 2267,
      "咲": 2268,
      "咸": 2269,
      "哀": 2270,
      "品": 2271,
      "哈": 2272,
      "哉": 2273,
      "响": 2274,
      "員": 2275,
      "哥": 2276,
      "哦": 2277,
      "哩": 2278,
      "哪": 2279,
      "哲": 2280,
      "唄": 2281,
      "唇": 2282,
      "唐": 2283,
      "唔": 2284,
      "唯": 2285,
      "商": 2286,
      "啊": 2287,
      "問": 2288,
      "啓": 2289,
      "啜": 2290,
      "啟": 2291,
      "喀": 2292,
      "善": 2293,
      "喆": 2294,
      "喇": 2295,
      "喜": 2296,
      "喦": 2297,
      "喧": 2298,
      "営": 2299,
      "喻": 2300,
      "嗢": 2301,
      "嗣": 2302,
      "嗨": 2303,
      "嘉": 2304,
      "嘎": 2305,
      "嘘": 2306,
      "嘩": 2307,
      "噐": 2308,
      "噢": 2309,
      "噶": 2310,
      "囚": 2311,
      "四": 2312,
      "回": 2313,
      "团": 2314,
      "団": 2315,
      "园": 2316,
      "図": 2317,
      "围": 2318,
      "囷": 2319,
      "固": 2320,
      "国": 2321,
      "图": 2322,
      "圆": 2323,
      "國": 2324,
      "圍": 2325,
      "園": 2326,
      "圖": 2327,
      "團": 2328,
      "土": 2329,
      "圣": 2330,
      "在": 2331,
      "地": 2332,
      "圳": 2333,
      "场": 2334,
      "坂": 2335,
      "均": 2336,
      "坊": 2337,
      "坎": 2338,
      "坝": 2339,
      "坟": 2340,
      "坤": 2341,
      "坪": 2342,
      "垂": 2343,
      "型": 2344,
      "垦": 2345,
      "埃": 2346,
      "埋": 2347,
      "城": 2348,
      "埔": 2349,
      "域": 2350,
      "培": 2351,
      "基": 2352,
      "埼": 2353,
      "堂": 2354,
      "堡": 2355,
      "堤": 2356,
      "堪": 2357,
      "堯": 2358,
      "報": 2359,
      "場": 2360,
      "塁": 2361,
      "塔": 2362,
      "塘": 2363,
      "塚": 2364,
      "塞": 2365,
      "塵": 2366,
      "墓": 2367,
      "増": 2368,
      "墜": 2369,
      "墨": 2370,
      "墳": 2371,
      "壁": 2372,
      "壞": 2373,
      "士": 2374,
      "壬": 2375,
      "壮": 2376,
      "声": 2377,
      "壽": 2378,
      "处": 2379,
      "変": 2380,
      "复": 2381,
      "夏": 2382,
      "夔": 2383,
      "夕": 2384,
      "外": 2385,
      "多": 2386,
      "夜": 2387,
      "夢": 2388,
      "大": 2389,
      "天": 2390,
      "太": 2391,
      "夫": 2392,
      "央": 2393,
      "失": 2394,
      "头": 2395,
      "夷": 2396,
      "夹": 2397,
      "夾": 2398,
      "奄": 2399,
      "奇": 2400,
      "奈": 2401,
      "奉": 2402,
      "奏": 2403,
      "契": 2404,
      "奔": 2405,
      "套": 2406,
      "奚": 2407,
      "奥": 2408,
      "奧": 2409,
      "奪": 2410,
      "奮": 2411,
      "女": 2412,
      "奴": 2413,
      "好": 2414,
      "如": 2415,
      "妃": 2416,
      "妄": 2417,
      "妇": 2418,
      "妓": 2419,
      "妖": 2420,
      "妙": 2421,
      "妥": 2422,
      "妮": 2423,
      "妹": 2424,
      "妻": 2425,
      "姉": 2426,
      "始": 2427,
      "姐": 2428,
      "姑": 2429,
      "姓": 2430,
      "委": 2431,
      "姚": 2432,
      "姝": 2433,
      "姫": 2434,
      "姬": 2435,
      "姿": 2436,
      "威": 2437,
      "娇": 2438,
      "娑": 2439,
      "娘": 2440,
      "娛": 2441,
      "娱": 2442,
      "婁": 2443,
      "婆": 2444,
      "婚": 2445,
      "婦": 2446,
      "媒": 2447,
      "媛": 2448,
      "媽": 2449,
      "嫡": 2450,
      "嫩": 2451,
      "嬢": 2452,
      "嬴": 2453,
      "子": 2454,
      "孔": 2455,
      "字": 2456,
      "存": 2457,
      "孙": 2458,
      "孚": 2459,
      "孝": 2460,
      "孟": 2461,
      "季": 2462,
      "孤": 2463,
      "学": 2464,
      "孩": 2465,
      "孫": 2466,
      "學": 2467,
      "宁": 2468,
      "它": 2469,
      "宅": 2470,
      "宇": 2471,
      "守": 2472,
      "安": 2473,
      "宋": 2474,
      "完": 2475,
      "宍": 2476,
      "宏": 2477,
      "宗": 2478,
      "官": 2479,
      "宙": 2480,
      "定": 2481,
      "宜": 2482,
      "宝": 2483,
      "实": 2484,
      "実": 2485,
      "客": 2486,
      "宣": 2487,
      "室": 2488,
      "宫": 2489,
      "宮": 2490,
      "宰": 2491,
      "宴": 2492,
      "宵": 2493,
      "家": 2494,
      "容": 2495,
      "宾": 2496,
      "宿": 2497,
      "寂": 2498,
      "寄": 2499,
      "寅": 2500,
      "密": 2501,
      "寇": 2502,
      "富": 2503,
      "寒": 2504,
      "寘": 2505,
      "寛": 2506,
      "寝": 2507,
      "寞": 2508,
      "察": 2509,
      "實": 2510,
      "寧": 2511,
      "寨": 2512,
      "寶": 2513,
      "寸": 2514,
      "对": 2515,
      "寺": 2516,
      "寻": 2517,
      "导": 2518,
      "対": 2519,
      "寿": 2520,
      "封": 2521,
      "射": 2522,
      "将": 2523,
      "將": 2524,
      "尉": 2525,
      "尊": 2526,
      "導": 2527,
      "小": 2528,
      "少": 2529,
      "尔": 2530,
      "尚": 2531,
      "尤": 2532,
      "尹": 2533,
      "尼": 2534,
      "尽": 2535,
      "尾": 2536,
      "局": 2537,
      "居": 2538,
      "屈": 2539,
      "屋": 2540,
      "屍": 2541,
      "展": 2542,
      "屮": 2543,
      "屯": 2544,
      "山": 2545,
      "岐": 2546,
      "岑": 2547,
      "岗": 2548,
      "岛": 2549,
      "岡": 2550,
      "岩": 2551,
      "岭": 2552,
      "岳": 2553,
      "峒": 2554,
      "峠": 2555,
      "峡": 2556,
      "峨": 2557,
      "峩": 2558,
      "峭": 2559,
      "峰": 2560,
      "島": 2561,
      "峻": 2562,
      "崇": 2563,
      "崎": 2564,
      "崖": 2565,
      "崛": 2566,
      "崧": 2567,
      "崩": 2568,
      "嵊": 2569,
      "嵋": 2570,
      "嵐": 2571,
      "嵩": 2572,
      "巋": 2573,
      "川": 2574,
      "州": 2575,
      "巡": 2576,
      "巢": 2577,
      "工": 2578,
      "左": 2579,
      "巨": 2580,
      "差": 2581,
      "己": 2582,
      "已": 2583,
      "巳": 2584,
      "巴": 2585,
      "巷": 2586,
      "巻": 2587,
      "巽": 2588,
      "巾": 2589,
      "市": 2590,
      "布": 2591,
      "师": 2592,
      "帋": 2593,
      "希": 2594,
      "帖": 2595,
      "帚": 2596,
      "帝": 2597,
      "帥": 2598,
      "带": 2599,
      "師": 2600,
      "帮": 2601,
      "帯": 2602,
      "帰": 2603,
      "帳": 2604,
      "常": 2605,
      "帼": 2606,
      "幅": 2607,
      "幕": 2608,
      "干": 2609,
      "平": 2610,
      "年": 2611,
      "并": 2612,
      "幸": 2613,
      "幹": 2614,
      "幻": 2615,
      "幼": 2616,
      "幽": 2617,
      "广": 2618,
      "庁": 2619,
      "広": 2620,
      "庄": 2621,
      "庆": 2622,
      "序": 2623,
      "庐": 2624,
      "库": 2625,
      "应": 2626,
      "店": 2627,
      "庙": 2628,
      "庚": 2629,
      "府": 2630,
      "度": 2631,
      "座": 2632,
      "庫": 2633,
      "庭": 2634,
      "庵": 2635,
      "庶": 2636,
      "康": 2637,
      "庾": 2638,
      "廂": 2639,
      "廃": 2640,
      "廉": 2641,
      "廊": 2642,
      "廓": 2643,
      "廖": 2644,
      "廠": 2645,
      "廣": 2646,
      "廬": 2647,
      "延": 2648,
      "建": 2649,
      "廻": 2650,
      "廾": 2651,
      "开": 2652,
      "弁": 2653,
      "弊": 2654,
      "式": 2655,
      "弓": 2656,
      "引": 2657,
      "弗": 2658,
      "弘": 2659,
      "弟": 2660,
      "张": 2661,
      "弥": 2662,
      "弱": 2663,
      "張": 2664,
      "強": 2665,
      "弼": 2666,
      "弾": 2667,
      "彈": 2668,
      "彌": 2669,
      "归": 2670,
      "当": 2671,
      "录": 2672,
      "彘": 2673,
      "彙": 2674,
      "彝": 2675,
      "形": 2676,
      "彦": 2677,
      "彩": 2678,
      "彪": 2679,
      "彬": 2680,
      "彭": 2681,
      "影": 2682,
      "彳": 2683,
      "役": 2684,
      "彼": 2685,
      "往": 2686,
      "征": 2687,
      "待": 2688,
      "很": 2689,
      "律": 2690,
      "後": 2691,
      "徐": 2692,
      "徒": 2693,
      "従": 2694,
      "徕": 2695,
      "得": 2696,
      "從": 2697,
      "御": 2698,
      "微": 2699,
      "徳": 2700,
      "徵": 2701,
      "德": 2702,
      "徽": 2703,
      "心": 2704,
      "必": 2705,
      "忌": 2706,
      "忍": 2707,
      "志": 2708,
      "忘": 2709,
      "応": 2710,
      "忞": 2711,
      "忠": 2712,
      "快": 2713,
      "念": 2714,
      "忻": 2715,
      "怀": 2716,
      "怒": 2717,
      "思": 2718,
      "怡": 2719,
      "急": 2720,
      "性": 2721,
      "怪": 2722,
      "总": 2723,
      "恋": 2724,
      "恒": 2725,
      "恢": 2726,
      "恥": 2727,
      "恩": 2728,
      "恭": 2729,
      "息": 2730,
      "恰": 2731,
      "恵": 2732,
      "悉": 2733,
      "悌": 2734,
      "悔": 2735,
      "悟": 2736,
      "悦": 2737,
      "您": 2738,
      "悪": 2739,
      "悬": 2740,
      "悲": 2741,
      "悴": 2742,
      "情": 2743,
      "惑": 2744,
      "惟": 2745,
      "惠": 2746,
      "惱": 2747,
      "想": 2748,
      "愁": 2749,
      "愈": 2750,
      "愉": 2751,
      "愍": 2752,
      "意": 2753,
      "愛": 2754,
      "感": 2755,
      "愷": 2756,
      "慈": 2757,
      "慎": 2758,
      "慕": 2759,
      "慧": 2760,
      "慰": 2761,
      "慶": 2762,
      "憔": 2763,
      "憲": 2764,
      "憾": 2765,
      "應": 2766,
      "懋": 2767,
      "懐": 2768,
      "懷": 2769,
      "懺": 2770,
      "懿": 2771,
      "戌": 2772,
      "戍": 2773,
      "戏": 2774,
      "成": 2775,
      "我": 2776,
      "或": 2777,
      "战": 2778,
      "戦": 2779,
      "戰": 2780,
      "戲": 2781,
      "戴": 2782,
      "戶": 2783,
      "户": 2784,
      "戸": 2785,
      "戻": 2786,
      "房": 2787,
      "所": 2788,
      "手": 2789,
      "才": 2790,
      "扎": 2791,
      "扒": 2792,
      "扩": 2793,
      "找": 2794,
      "承": 2795,
      "技": 2796,
      "抄": 2797,
      "把": 2798,
      "抓": 2799,
      "投": 2800,
      "抗": 2801,
      "折": 2802,
      "抚": 2803,
      "抜": 2804,
      "护": 2805,
      "报": 2806,
      "披": 2807,
      "抱": 2808,
      "抹": 2809,
      "拉": 2810,
      "拍": 2811,
      "拓": 2812,
      "拔": 2813,
      "招": 2814,
      "拜": 2815,
      "拡": 2816,
      "括": 2817,
      "拶": 2818,
      "拷": 2819,
      "拾": 2820,
      "持": 2821,
      "指": 2822,
      "挥": 2823,
      "挨": 2824,
      "振": 2825,
      "挿": 2826,
      "捕": 2827,
      "损": 2828,
      "换": 2829,
      "捨": 2830,
      "捷": 2831,
      "授": 2832,
      "排": 2833,
      "掘": 2834,
      "掛": 2835,
      "探": 2836,
      "控": 2837,
      "掲": 2838,
      "揆": 2839,
      "提": 2840,
      "揺": 2841,
      "搔": 2842,
      "搶": 2843,
      "摄": 2844,
      "摘": 2845,
      "摩": 2846,
      "摹": 2847,
      "撃": 2848,
      "撒": 2849,
      "撥": 2850,
      "撫": 2851,
      "播": 2852,
      "撰": 2853,
      "撲": 2854,
      "擊": 2855,
      "操": 2856,
      "據": 2857,
      "支": 2858,
      "收": 2859,
      "攸": 2860,
      "改": 2861,
      "放": 2862,
      "政": 2863,
      "故": 2864,
      "敏": 2865,
      "救": 2866,
      "敖": 2867,
      "教": 2868,
      "散": 2869,
      "敬": 2870,
      "数": 2871,
      "整": 2872,
      "敷": 2873,
      "文": 2874,
      "斉": 2875,
      "斋": 2876,
      "斌": 2877,
      "斎": 2878,
      "斗": 2879,
      "料": 2880,
      "斛": 2881,
      "斜": 2882,
      "斟": 2883,
      "斤": 2884,
      "断": 2885,
      "斯": 2886,
      "新": 2887,
      "斷": 2888,
      "方": 2889,
      "於": 2890,
      "施": 2891,
      "旅": 2892,
      "旋": 2893,
      "族": 2894,
      "旗": 2895,
      "无": 2896,
      "旡": 2897,
      "既": 2898,
      "日": 2899,
      "旦": 2900,
      "旧": 2901,
      "早": 2902,
      "旭": 2903,
      "时": 2904,
      "昀": 2905,
      "昆": 2906,
      "昌": 2907,
      "明": 2908,
      "昏": 2909,
      "昐": 2910,
      "易": 2911,
      "星": 2912,
      "映": 2913,
      "春": 2914,
      "昫": 2915,
      "昭": 2916,
      "是": 2917,
      "昱": 2918,
      "昴": 2919,
      "昼": 2920,
      "显": 2921,
      "時": 2922,
      "晉": 2923,
      "晋": 2924,
      "晓": 2925,
      "晚": 2926,
      "晝": 2927,
      "晟": 2928,
      "晨": 2929,
      "晩": 2930,
      "普": 2931,
      "景": 2932,
      "晴": 2933,
      "智": 2934,
      "暁": 2935,
      "暉": 2936,
      "暑": 2937,
      "暖": 2938,
      "暗": 2939,
      "暦": 2940,
      "暨": 2941,
      "暮": 2942,
      "暴": 2943,
      "曄": 2944,
      "曆": 2945,
      "曙": 2946,
      "曜": 2947,
      "曰": 2948,
      "曲": 2949,
      "曳": 2950,
      "更": 2951,
      "書": 2952,
      "曹": 2953,
      "曼": 2954,
      "曽": 2955,
      "曾": 2956,
      "替": 2957,
      "最": 2958,
      "會": 2959,
      "月": 2960,
      "有": 2961,
      "朋": 2962,
      "服": 2963,
      "朔": 2964,
      "朗": 2965,
      "望": 2966,
      "朝": 2967,
      "期": 2968,
      "木": 2969,
      "未": 2970,
      "末": 2971,
      "本": 2972,
      "术": 2973,
      "朱": 2974,
      "朵": 2975,
      "机": 2976,
      "杀": 2977,
      "杂": 2978,
      "权": 2979,
      "杉": 2980,
      "李": 2981,
      "杏": 2982,
      "材": 2983,
      "村": 2984,
      "杓": 2985,
      "杜": 2986,
      "杞": 2987,
      "束": 2988,
      "条": 2989,
      "来": 2990,
      "杨": 2991,
      "杰": 2992,
      "東": 2993,
      "松": 2994,
      "极": 2995,
      "构": 2996,
      "析": 2997,
      "枕": 2998,
      "林": 2999,
      "果": 3000,
      "枝": 3001,
      "枢": 3002,
      "枯": 3003,
      "枹": 3004,
      "柊": 3005,
      "柏": 3006,
      "某": 3007,
      "染": 3008,
      "柢": 3009,
      "查": 3010,
      "柯": 3011,
      "柱": 3012,
      "柳": 3013,
      "柴": 3014,
      "柵": 3015,
      "査": 3016,
      "栃": 3017,
      "栄": 3018,
      "标": 3019,
      "树": 3020,
      "栗": 3021,
      "校": 3022,
      "株": 3023,
      "样": 3024,
      "核": 3025,
      "根": 3026,
      "格": 3027,
      "桀": 3028,
      "桂": 3029,
      "案": 3030,
      "桌": 3031,
      "桐": 3032,
      "桑": 3033,
      "桓": 3034,
      "桔": 3035,
      "桜": 3036,
      "桥": 3037,
      "桶": 3038,
      "梁": 3039,
      "梅": 3040,
      "梦": 3041,
      "梧": 3042,
      "梨": 3043,
      "棋": 3044,
      "棒": 3045,
      "棘": 3046,
      "棠": 3047,
      "森": 3048,
      "棻": 3049,
      "椅": 3050,
      "植": 3051,
      "検": 3052,
      "椿": 3053,
      "楀": 3054,
      "楊": 3055,
      "楚": 3056,
      "楞": 3057,
      "業": 3058,
      "楯": 3059,
      "極": 3060,
      "楷": 3061,
      "楼": 3062,
      "楽": 3063,
      "概": 3064,
      "榆": 3065,
      "榊": 3066,
      "榕": 3067,
      "榮": 3068,
      "構": 3069,
      "様": 3070,
      "樂": 3071,
      "樊": 3072,
      "模": 3073,
      "樣": 3074,
      "権": 3075,
      "横": 3076,
      "樱": 3077,
      "樹": 3078,
      "樽": 3079,
      "橋": 3080,
      "機": 3081,
      "檀": 3082,
      "檻": 3083,
      "櫛": 3084,
      "權": 3085,
      "次": 3086,
      "欣": 3087,
      "欧": 3088,
      "欲": 3089,
      "欽": 3090,
      "歌": 3091,
      "歐": 3092,
      "歙": 3093,
      "歡": 3094,
      "止": 3095,
      "正": 3096,
      "此": 3097,
      "步": 3098,
      "武": 3099,
      "歩": 3100,
      "歳": 3101,
      "歴": 3102,
      "歸": 3103,
      "死": 3104,
      "残": 3105,
      "殴": 3106,
      "段": 3107,
      "殷": 3108,
      "殻": 3109,
      "殿": 3110,
      "毁": 3111,
      "毅": 3112,
      "母": 3113,
      "毒": 3114,
      "比": 3115,
      "毕": 3116,
      "毗": 3117,
      "毛": 3118,
      "氏": 3119,
      "氐": 3120,
      "民": 3121,
      "气": 3122,
      "気": 3123,
      "氣": 3124,
      "水": 3125,
      "氵": 3126,
      "氷": 3127,
      "永": 3128,
      "氺": 3129,
      "汀": 3130,
      "求": 3131,
      "汉": 3132,
      "汕": 3133,
      "汗": 3134,
      "汝": 3135,
      "江": 3136,
      "池": 3137,
      "汤": 3138,
      "汨": 3139,
      "汪": 3140,
      "汲": 3141,
      "汶": 3142,
      "決": 3143,
      "汽": 3144,
      "汾": 3145,
      "沁": 3146,
      "沂": 3147,
      "沃": 3148,
      "沅": 3149,
      "沈": 3150,
      "沉": 3151,
      "沌": 3152,
      "沒": 3153,
      "沔": 3154,
      "沖": 3155,
      "沙": 3156,
      "沛": 3157,
      "没": 3158,
      "沢": 3159,
      "沧": 3160,
      "沫": 3161,
      "沮": 3162,
      "河": 3163,
      "油": 3164,
      "治": 3165,
      "沼": 3166,
      "沽": 3167,
      "沾": 3168,
      "沿": 3169,
      "況": 3170,
      "泃": 3171,
      "泉": 3172,
      "法": 3173,
      "泗": 3174,
      "波": 3175,
      "泣": 3176,
      "注": 3177,
      "泫": 3178,
      "泰": 3179,
      "泳": 3180,
      "泺": 3181,
      "泾": 3182,
      "洋": 3183,
      "洗": 3184,
      "洛": 3185,
      "洞": 3186,
      "津": 3187,
      "洪": 3188,
      "洮": 3189,
      "洲": 3190,
      "洸": 3191,
      "活": 3192,
      "派": 3193,
      "流": 3194,
      "浅": 3195,
      "测": 3196,
      "浍": 3197,
      "济": 3198,
      "浑": 3199,
      "浓": 3200,
      "浔": 3201,
      "浙": 3202,
      "浚": 3203,
      "浦": 3204,
      "浩": 3205,
      "浪": 3206,
      "浮": 3207,
      "海": 3208,
      "浿": 3209,
      "涂": 3210,
      "消": 3211,
      "涉": 3212,
      "涌": 3213,
      "涙": 3214,
      "涞": 3215,
      "涯": 3216,
      "液": 3217,
      "涼": 3218,
      "涿": 3219,
      "淀": 3220,
      "淄": 3221,
      "淇": 3222,
      "淑": 3223,
      "淙": 3224,
      "淮": 3225,
      "深": 3226,
      "淳": 3227,
      "淵": 3228,
      "淺": 3229,
      "清": 3230,
      "渓": 3231,
      "渔": 3232,
      "渠": 3233,
      "渡": 3234,
      "温": 3235,
      "渭": 3236,
      "港": 3237,
      "游": 3238,
      "渾": 3239,
      "湖": 3240,
      "湘": 3241,
      "湯": 3242,
      "湾": 3243,
      "満": 3244,
      "源": 3245,
      "溝": 3246,
      "溪": 3247,
      "溫": 3248,
      "溶": 3249,
      "溺": 3250,
      "滃": 3251,
      "滅": 3252,
      "滕": 3253,
      "滚": 3254,
      "滝": 3255,
      "满": 3256,
      "滨": 3257,
      "滸": 3258,
      "滿": 3259,
      "漁": 3260,
      "漓": 3261,
      "漠": 3262,
      "漢": 3263,
      "漫": 3264,
      "漳": 3265,
      "潍": 3266,
      "潔": 3267,
      "潘": 3268,
      "潜": 3269,
      "潞": 3270,
      "潢": 3271,
      "潭": 3272,
      "潮": 3273,
      "澂": 3274,
      "澄": 3275,
      "澤": 3276,
      "澧": 3277,
      "激": 3278,
      "濟": 3279,
      "濡": 3280,
      "濫": 3281,
      "濬": 3282,
      "瀑": 3283,
      "瀚": 3284,
      "瀬": 3285,
      "灣": 3286,
      "火": 3287,
      "灯": 3288,
      "灵": 3289,
      "炊": 3290,
      "炎": 3291,
      "炤": 3292,
      "炳": 3293,
      "炸": 3294,
      "点": 3295,
      "為": 3296,
      "烈": 3297,
      "烏": 3298,
      "烟": 3299,
      "热": 3300,
      "烽": 3301,
      "焉": 3302,
      "無": 3303,
      "焯": 3304,
      "然": 3305,
      "煎": 3306,
      "煙": 3307,
      "照": 3308,
      "煩": 3309,
      "熊": 3310,
      "熙": 3311,
      "熟": 3312,
      "熱": 3313,
      "熾": 3314,
      "燃": 3315,
      "燕": 3316,
      "營": 3317,
      "燦": 3318,
      "爟": 3319,
      "爱": 3320,
      "爵": 3321,
      "父": 3322,
      "爸": 3323,
      "爺": 3324,
      "爽": 3325,
      "爾": 3326,
      "片": 3327,
      "版": 3328,
      "牘": 3329,
      "牙": 3330,
      "牛": 3331,
      "牟": 3332,
      "牡": 3333,
      "牧": 3334,
      "物": 3335,
      "特": 3336,
      "犬": 3337,
      "状": 3338,
      "狂": 3339,
      "狐": 3340,
      "狗": 3341,
      "狩": 3342,
      "独": 3343,
      "狮": 3344,
      "狼": 3345,
      "猎": 3346,
      "猗": 3347,
      "猛": 3348,
      "猜": 3349,
      "猫": 3350,
      "献": 3351,
      "獅": 3352,
      "獣": 3353,
      "獨": 3354,
      "獲": 3355,
      "玄": 3356,
      "玉": 3357,
      "王": 3358,
      "玛": 3359,
      "环": 3360,
      "现": 3361,
      "珍": 3362,
      "珠": 3363,
      "珪": 3364,
      "班": 3365,
      "現": 3366,
      "球": 3367,
      "琅": 3368,
      "理": 3369,
      "琉": 3370,
      "琪": 3371,
      "琮": 3372,
      "琴": 3373,
      "琼": 3374,
      "瑊": 3375,
      "瑕": 3376,
      "瑞": 3377,
      "瑟": 3378,
      "瑶": 3379,
      "璁": 3380,
      "璐": 3381,
      "璝": 3382,
      "璞": 3383,
      "環": 3384,
      "瓊": 3385,
      "瓜": 3386,
      "瓦": 3387,
      "瓯": 3388,
      "瓶": 3389,
      "甘": 3390,
      "生": 3391,
      "産": 3392,
      "用": 3393,
      "甫": 3394,
      "田": 3395,
      "由": 3396,
      "甲": 3397,
      "申": 3398,
      "电": 3399,
      "男": 3400,
      "町": 3401,
      "画": 3402,
      "界": 3403,
      "畑": 3404,
      "留": 3405,
      "略": 3406,
      "番": 3407,
      "畫": 3408,
      "異": 3409,
      "疆": 3410,
      "疏": 3411,
      "疑": 3412,
      "疗": 3413,
      "疲": 3414,
      "疾": 3415,
      "病": 3416,
      "痛": 3417,
      "痹": 3418,
      "療": 3419,
      "発": 3420,
      "登": 3421,
      "發": 3422,
      "白": 3423,
      "百": 3424,
      "的": 3425,
      "皇": 3426,
      "皋": 3427,
      "皖": 3428,
      "皝": 3429,
      "盆": 3430,
      "益": 3431,
      "盘": 3432,
      "盛": 3433,
      "盟": 3434,
      "盡": 3435,
      "監": 3436,
      "目": 3437,
      "盱": 3438,
      "直": 3439,
      "相": 3440,
      "省": 3441,
      "眉": 3442,
      "看": 3443,
      "県": 3444,
      "眞": 3445,
      "真": 3446,
      "眠": 3447,
      "眩": 3448,
      "着": 3449,
      "督": 3450,
      "睿": 3451,
      "瞳": 3452,
      "瞻": 3453,
      "瞿": 3454,
      "矢": 3455,
      "矣": 3456,
      "知": 3457,
      "短": 3458,
      "石": 3459,
      "矿": 3460,
      "砀": 3461,
      "砂": 3462,
      "研": 3463,
      "砦": 3464,
      "破": 3465,
      "砷": 3466,
      "础": 3467,
      "硏": 3468,
      "硤": 3469,
      "确": 3470,
      "碧": 3471,
      "碱": 3472,
      "確": 3473,
      "碼": 3474,
      "磨": 3475,
      "磬": 3476,
      "示": 3477,
      "礼": 3478,
      "社": 3479,
      "祉": 3480,
      "祖": 3481,
      "祗": 3482,
      "祝": 3483,
      "神": 3484,
      "祥": 3485,
      "祭": 3486,
      "祴": 3487,
      "祿": 3488,
      "禁": 3489,
      "禄": 3490,
      "禅": 3491,
      "禍": 3492,
      "福": 3493,
      "禛": 3494,
      "禮": 3495,
      "禹": 3496,
      "离": 3497,
      "秀": 3498,
      "私": 3499,
      "秋": 3500,
      "科": 3501,
      "秘": 3502,
      "秦": 3503,
      "秩": 3504,
      "积": 3505,
      "移": 3506,
      "程": 3507,
      "稚": 3508,
      "種": 3509,
      "稷": 3510,
      "稽": 3511,
      "稿": 3512,
      "穂": 3513,
      "積": 3514,
      "穎": 3515,
      "穗": 3516,
      "穣": 3517,
      "穴": 3518,
      "究": 3519,
      "空": 3520,
      "突": 3521,
      "窓": 3522,
      "窗": 3523,
      "窟": 3524,
      "窪": 3525,
      "窺": 3526,
      "立": 3527,
      "站": 3528,
      "竜": 3529,
      "章": 3530,
      "童": 3531,
      "端": 3532,
      "競": 3533,
      "竹": 3534,
      "笈": 3535,
      "笑": 3536,
      "笔": 3537,
      "笥": 3538,
      "第": 3539,
      "笹": 3540,
      "筆": 3541,
      "等": 3542,
      "筑": 3543,
      "答": 3544,
      "策": 3545,
      "筠": 3546,
      "筧": 3547,
      "简": 3548,
      "箇": 3549,
      "管": 3550,
      "箭": 3551,
      "箱": 3552,
      "節": 3553,
      "範": 3554,
      "篆": 3555,
      "篇": 3556,
      "築": 3557,
      "篷": 3558,
      "簇": 3559,
      "簡": 3560,
      "簪": 3561,
      "籍": 3562,
      "籔": 3563,
      "籠": 3564,
      "米": 3565,
      "类": 3566,
      "粉": 3567,
      "粤": 3568,
      "粥": 3569,
      "粧": 3570,
      "粵": 3571,
      "精": 3572,
      "糒": 3573,
      "糸": 3574,
      "系": 3575,
      "紀": 3576,
      "約": 3577,
      "紅": 3578,
      "紇": 3579,
      "納": 3580,
      "紐": 3581,
      "紓": 3582,
      "純": 3583,
      "紙": 3584,
      "素": 3585,
      "索": 3586,
      "紫": 3587,
      "累": 3588,
      "細": 3589,
      "終": 3590,
      "絃": 3591,
      "組": 3592,
      "経": 3593,
      "結": 3594,
      "絕": 3595,
      "絡": 3596,
      "統": 3597,
      "絵": 3598,
      "經": 3599,
      "継": 3600,
      "続": 3601,
      "維": 3602,
      "網": 3603,
      "綽": 3604,
      "総": 3605,
      "緑": 3606,
      "緒": 3607,
      "線": 3608,
      "緞": 3609,
      "編": 3610,
      "緯": 3611,
      "縁": 3612,
      "縄": 3613,
      "縊": 3614,
      "縫": 3615,
      "縮": 3616,
      "總": 3617,
      "繁": 3618,
      "繪": 3619,
      "繼": 3620,
      "纂": 3621,
      "續": 3622,
      "红": 3623,
      "约": 3624,
      "级": 3625,
      "纪": 3626,
      "纳": 3627,
      "纸": 3628,
      "线": 3629,
      "组": 3630,
      "绅": 3631,
      "织": 3632,
      "绍": 3633,
      "经": 3634,
      "结": 3635,
      "绘": 3636,
      "统": 3637,
      "绥": 3638,
      "绪": 3639,
      "续": 3640,
      "维": 3641,
      "绵": 3642,
      "综": 3643,
      "缘": 3644,
      "网": 3645,
      "罕": 3646,
      "罗": 3647,
      "罘": 3648,
      "罢": 3649,
      "罪": 3650,
      "置": 3651,
      "罰": 3652,
      "署": 3653,
      "羅": 3654,
      "羊": 3655,
      "羌": 3656,
      "美": 3657,
      "羡": 3658,
      "群": 3659,
      "義": 3660,
      "羯": 3661,
      "羲": 3662,
      "羽": 3663,
      "翁": 3664,
      "翊": 3665,
      "翌": 3666,
      "翎": 3667,
      "習": 3668,
      "翔": 3669,
      "翠": 3670,
      "翬": 3671,
      "翰": 3672,
      "翻": 3673,
      "翼": 3674,
      "翽": 3675,
      "老": 3676,
      "考": 3677,
      "者": 3678,
      "耆": 3679,
      "而": 3680,
      "耏": 3681,
      "耒": 3682,
      "耗": 3683,
      "耶": 3684,
      "聂": 3685,
      "聊": 3686,
      "联": 3687,
      "聖": 3688,
      "聞": 3689,
      "聯": 3690,
      "聲": 3691,
      "聽": 3692,
      "肃": 3693,
      "肅": 3694,
      "肇": 3695,
      "肉": 3696,
      "肌": 3697,
      "肖": 3698,
      "肥": 3699,
      "育": 3700,
      "肾": 3701,
      "背": 3702,
      "胜": 3703,
      "胡": 3704,
      "胤": 3705,
      "胶": 3706,
      "能": 3707,
      "脂": 3708,
      "脇": 3709,
      "脫": 3710,
      "腆": 3711,
      "腊": 3712,
      "腰": 3713,
      "腺": 3714,
      "膏": 3715,
      "膳": 3716,
      "臘": 3717,
      "臣": 3718,
      "臨": 3719,
      "自": 3720,
      "臯": 3721,
      "至": 3722,
      "致": 3723,
      "臺": 3724,
      "與": 3725,
      "興": 3726,
      "舉": 3727,
      "舍": 3728,
      "舒": 3729,
      "舜": 3730,
      "舞": 3731,
      "舟": 3732,
      "航": 3733,
      "舰": 3734,
      "船": 3735,
      "艇": 3736,
      "艚": 3737,
      "艦": 3738,
      "良": 3739,
      "色": 3740,
      "艶": 3741,
      "艺": 3742,
      "艾": 3743,
      "节": 3744,
      "芒": 3745,
      "芙": 3746,
      "芜": 3747,
      "芦": 3748,
      "芬": 3749,
      "芮": 3750,
      "花": 3751,
      "芳": 3752,
      "芷": 3753,
      "芸": 3754,
      "苏": 3755,
      "苗": 3756,
      "苞": 3757,
      "若": 3758,
      "苦": 3759,
      "英": 3760,
      "茂": 3761,
      "范": 3762,
      "茨": 3763,
      "茶": 3764,
      "茹": 3765,
      "荃": 3766,
      "荆": 3767,
      "草": 3768,
      "荏": 3769,
      "荒": 3770,
      "荖": 3771,
      "荘": 3772,
      "荣": 3773,
      "荫": 3774,
      "药": 3775,
      "荷": 3776,
      "莆": 3777,
      "莊": 3778,
      "莎": 3779,
      "莒": 3780,
      "莨": 3781,
      "莫": 3782,
      "莱": 3783,
      "莲": 3784,
      "莽": 3785,
      "菅": 3786,
      "菊": 3787,
      "菓": 3788,
      "菜": 3789,
      "菩": 3790,
      "華": 3791,
      "萁": 3792,
      "萊": 3793,
      "萌": 3794,
      "萍": 3795,
      "营": 3796,
      "萨": 3797,
      "萩": 3798,
      "萬": 3799,
      "落": 3800,
      "葉": 3801,
      "著": 3802,
      "葛": 3803,
      "葭": 3804,
      "葱": 3805,
      "葵": 3806,
      "蒋": 3807,
      "蒙": 3808,
      "蒨": 3809,
      "蒼": 3810,
      "蓄": 3811,
      "蓉": 3812,
      "蓋": 3813,
      "蓟": 3814,
      "蓮": 3815,
      "蓼": 3816,
      "蔑": 3817,
      "蔡": 3818,
      "蔣": 3819,
      "蔵": 3820,
      "蕙": 3821,
      "蕤": 3822,
      "蕭": 3823,
      "薄": 3824,
      "薇": 3825,
      "薔": 3826,
      "薙": 3827,
      "薛": 3828,
      "薦": 3829,
      "薩": 3830,
      "薰": 3831,
      "藍": 3832,
      "藏": 3833,
      "藝": 3834,
      "藤": 3835,
      "藥": 3836,
      "藩": 3837,
      "藻": 3838,
      "蘆": 3839,
      "蘇": 3840,
      "蘭": 3841,
      "虎": 3842,
      "虏": 3843,
      "虐": 3844,
      "處": 3845,
      "虛": 3846,
      "虞": 3847,
      "號": 3848,
      "虫": 3849,
      "虹": 3850,
      "蛇": 3851,
      "蛉": 3852,
      "蛙": 3853,
      "蛛": 3854,
      "蛮": 3855,
      "蜘": 3856,
      "蜜": 3857,
      "蜻": 3858,
      "融": 3859,
      "螺": 3860,
      "蠶": 3861,
      "血": 3862,
      "行": 3863,
      "術": 3864,
      "街": 3865,
      "衙": 3866,
      "衛": 3867,
      "衝": 3868,
      "衞": 3869,
      "衡": 3870,
      "衢": 3871,
      "衣": 3872,
      "表": 3873,
      "衰": 3874,
      "袁": 3875,
      "袋": 3876,
      "袖": 3877,
      "被": 3878,
      "裂": 3879,
      "裏": 3880,
      "裕": 3881,
      "裴": 3882,
      "製": 3883,
      "褐": 3884,
      "褒": 3885,
      "褚": 3886,
      "襄": 3887,
      "西": 3888,
      "要": 3889,
      "覇": 3890,
      "見": 3891,
      "規": 3892,
      "視": 3893,
      "覚": 3894,
      "覧": 3895,
      "親": 3896,
      "観": 3897,
      "覺": 3898,
      "覽": 3899,
      "见": 3900,
      "观": 3901,
      "规": 3902,
      "览": 3903,
      "角": 3904,
      "解": 3905,
      "言": 3906,
      "計": 3907,
      "訊": 3908,
      "訓": 3909,
      "訖": 3910,
      "託": 3911,
      "記": 3912,
      "訥": 3913,
      "設": 3914,
      "許": 3915,
      "訳": 3916,
      "訶": 3917,
      "註": 3918,
      "証": 3919,
      "評": 3920,
      "詞": 3921,
      "詠": 3922,
      "詣": 3923,
      "試": 3924,
      "詧": 3925,
      "詩": 3926,
      "話": 3927,
      "詳": 3928,
      "詹": 3929,
      "誉": 3930,
      "誌": 3931,
      "誓": 3932,
      "誘": 3933,
      "語": 3934,
      "誠": 3935,
      "說": 3936,
      "説": 3937,
      "読": 3938,
      "誹": 3939,
      "調": 3940,
      "談": 3941,
      "論": 3942,
      "諧": 3943,
      "諸": 3944,
      "謀": 3945,
      "謎": 3946,
      "謙": 3947,
      "講": 3948,
      "謝": 3949,
      "證": 3950,
      "識": 3951,
      "譚": 3952,
      "譜": 3953,
      "警": 3954,
      "譯": 3955,
      "議": 3956,
      "譲": 3957,
      "護": 3958,
      "變": 3959,
      "计": 3960,
      "认": 3961,
      "讨": 3962,
      "议": 3963,
      "记": 3964,
      "许": 3965,
      "论": 3966,
      "设": 3967,
      "访": 3968,
      "诀": 3969,
      "评": 3970,
      "识": 3971,
      "诉": 3972,
      "试": 3973,
      "诗": 3974,
      "诚": 3975,
      "话": 3976,
      "诞": 3977,
      "询": 3978,
      "详": 3979,
      "语": 3980,
      "说": 3981,
      "请": 3982,
      "读": 3983,
      "课": 3984,
      "谈": 3985,
      "谊": 3986,
      "谢": 3987,
      "谣": 3988,
      "谱": 3989,
      "谷": 3990,
      "豆": 3991,
      "豊": 3992,
      "象": 3993,
      "豪": 3994,
      "豫": 3995,
      "豬": 3996,
      "貌": 3997,
      "貝": 3998,
      "貞": 3999,
      "財": 4000,
      "貪": 4001,
      "貫": 4002,
      "貯": 4003,
      "貴": 4004,
      "貿": 4005,
      "賀": 4006,
      "賁": 4007,
      "資": 4008,
      "賊": 4009,
      "賓": 4010,
      "賞": 4011,
      "賢": 4012,
      "賴": 4013,
      "贈": 4014,
      "贝": 4015,
      "贡": 4016,
      "财": 4017,
      "贤": 4018,
      "货": 4019,
      "质": 4020,
      "贵": 4021,
      "贸": 4022,
      "费": 4023,
      "贺": 4024,
      "资": 4025,
      "赋": 4026,
      "赏": 4027,
      "赐": 4028,
      "赛": 4029,
      "赞": 4030,
      "赤": 4031,
      "赫": 4032,
      "走": 4033,
      "赵": 4034,
      "起": 4035,
      "超": 4036,
      "越": 4037,
      "趋": 4038,
      "趙": 4039,
      "趣": 4040,
      "足": 4041,
      "跋": 4042,
      "跌": 4043,
      "距": 4044,
      "跡": 4045,
      "跨": 4046,
      "路": 4047,
      "跳": 4048,
      "踊": 4049,
      "踏": 4050,
      "身": 4051,
      "躬": 4052,
      "車": 4053,
      "軌": 4054,
      "軍": 4055,
      "軒": 4056,
      "転": 4057,
      "軽": 4058,
      "載": 4059,
      "輝": 4060,
      "輪": 4061,
      "輸": 4062,
      "轄": 4063,
      "轉": 4064,
      "车": 4065,
      "轩": 4066,
      "转": 4067,
      "辇": 4068,
      "辉": 4069,
      "辖": 4070,
      "辛": 4071,
      "辞": 4072,
      "辭": 4073,
      "辰": 4074,
      "辱": 4075,
      "農": 4076,
      "边": 4077,
      "辺": 4078,
      "辻": 4079,
      "辽": 4080,
      "达": 4081,
      "过": 4082,
      "迎": 4083,
      "运": 4084,
      "近": 4085,
      "返": 4086,
      "还": 4087,
      "这": 4088,
      "进": 4089,
      "远": 4090,
      "连": 4091,
      "迟": 4092,
      "迢": 4093,
      "述": 4094,
      "迷": 4095,
      "迹": 4096,
      "追": 4097,
      "退": 4098,
      "送": 4099,
      "适": 4100,
      "逃": 4101,
      "选": 4102,
      "逐": 4103,
      "递": 4104,
      "途": 4105,
      "通": 4106,
      "逝": 4107,
      "速": 4108,
      "造": 4109,
      "逢": 4110,
      "連": 4111,
      "週": 4112,
      "進": 4113,
      "逸": 4114,
      "逾": 4115,
      "遂": 4116,
      "遇": 4117,
      "遊": 4118,
      "運": 4119,
      "過": 4120,
      "遏": 4121,
      "道": 4122,
      "達": 4123,
      "遜": 4124,
      "遠": 4125,
      "遥": 4126,
      "適": 4127,
      "遵": 4128,
      "遷": 4129,
      "選": 4130,
      "遺": 4131,
      "遼": 4132,
      "遽": 4133,
      "避": 4134,
      "還": 4135,
      "邇": 4136,
      "邏": 4137,
      "邑": 4138,
      "邓": 4139,
      "邕": 4140,
      "邢": 4141,
      "那": 4142,
      "邦": 4143,
      "邪": 4144,
      "邮": 4145,
      "邯": 4146,
      "邱": 4147,
      "邵": 4148,
      "邶": 4149,
      "邹": 4150,
      "邾": 4151,
      "郁": 4152,
      "郊": 4153,
      "郎": 4154,
      "郑": 4155,
      "郗": 4156,
      "郡": 4157,
      "郧": 4158,
      "部": 4159,
      "郭": 4160,
      "郴": 4161,
      "郵": 4162,
      "郷": 4163,
      "郸": 4164,
      "都": 4165,
      "鄂": 4166,
      "鄉": 4167,
      "鄒": 4168,
      "鄚": 4169,
      "鄞": 4170,
      "鄧": 4171,
      "鄩": 4172,
      "鄭": 4173,
      "酉": 4174,
      "酋": 4175,
      "配": 4176,
      "酒": 4177,
      "酓": 4178,
      "酔": 4179,
      "酷": 4180,
      "酺": 4181,
      "醉": 4182,
      "醒": 4183,
      "采": 4184,
      "釋": 4185,
      "里": 4186,
      "重": 4187,
      "野": 4188,
      "量": 4189,
      "釐": 4190,
      "金": 4191,
      "釧": 4192,
      "釵": 4193,
      "鈴": 4194,
      "鉄": 4195,
      "鉞": 4196,
      "銀": 4197,
      "銃": 4198,
      "銑": 4199,
      "銘": 4200,
      "銭": 4201,
      "鋒": 4202,
      "錄": 4203,
      "錚": 4204,
      "錦": 4205,
      "錫": 4206,
      "録": 4207,
      "鍾": 4208,
      "鎮": 4209,
      "鏡": 4210,
      "鐘": 4211,
      "鐵": 4212,
      "鑑": 4213,
      "鑫": 4214,
      "钟": 4215,
      "钱": 4216,
      "铁": 4217,
      "铃": 4218,
      "铎": 4219,
      "铜": 4220,
      "银": 4221,
      "锏": 4222,
      "锡": 4223,
      "锦": 4224,
      "键": 4225,
      "镇": 4226,
      "镛": 4227,
      "長": 4228,
      "长": 4229,
      "門": 4230,
      "閃": 4231,
      "閉": 4232,
      "開": 4233,
      "閑": 4234,
      "間": 4235,
      "閔": 4236,
      "関": 4237,
      "閨": 4238,
      "閭": 4239,
      "闕": 4240,
      "闘": 4241,
      "關": 4242,
      "门": 4243,
      "问": 4244,
      "间": 4245,
      "闻": 4246,
      "闽": 4247,
      "阁": 4248,
      "阅": 4249,
      "阎": 4250,
      "阜": 4251,
      "队": 4252,
      "阪": 4253,
      "阮": 4254,
      "防": 4255,
      "阳": 4256,
      "阴": 4257,
      "阶": 4258,
      "阿": 4259,
      "陀": 4260,
      "附": 4261,
      "际": 4262,
      "陆": 4263,
      "陇": 4264,
      "陈": 4265,
      "限": 4266,
      "陕": 4267,
      "陘": 4268,
      "院": 4269,
      "险": 4270,
      "陰": 4271,
      "陳": 4272,
      "陵": 4273,
      "陶": 4274,
      "陸": 4275,
      "陽": 4276,
      "隅": 4277,
      "隆": 4278,
      "隊": 4279,
      "隋": 4280,
      "階": 4281,
      "隐": 4282,
      "隘": 4283,
      "隠": 4284,
      "隣": 4285,
      "隨": 4286,
      "隱": 4287,
      "隶": 4288,
      "隸": 4289,
      "隹": 4290,
      "隼": 4291,
      "难": 4292,
      "雀": 4293,
      "雁": 4294,
      "雄": 4295,
      "雅": 4296,
      "集": 4297,
      "雑": 4298,
      "雒": 4299,
      "雕": 4300,
      "雙": 4301,
      "雜": 4302,
      "雞": 4303,
      "離": 4304,
      "難": 4305,
      "雨": 4306,
      "雪": 4307,
      "雲": 4308,
      "零": 4309,
      "雷": 4310,
      "電": 4311,
      "需": 4312,
      "霄": 4313,
      "霊": 4314,
      "霏": 4315,
      "霓": 4316,
      "霜": 4317,
      "霞": 4318,
      "霧": 4319,
      "霫": 4320,
      "露": 4321,
      "霸": 4322,
      "靈": 4323,
      "青": 4324,
      "靖": 4325,
      "静": 4326,
      "靜": 4327,
      "非": 4328,
      "面": 4329,
      "革": 4330,
      "靺": 4331,
      "靼": 4332,
      "鞋": 4333,
      "鞍": 4334,
      "鞑": 4335,
      "鞠": 4336,
      "鞨": 4337,
      "韋": 4338,
      "韓": 4339,
      "韩": 4340,
      "韭": 4341,
      "音": 4342,
      "韶": 4343,
      "韻": 4344,
      "響": 4345,
      "頁": 4346,
      "頂": 4347,
      "頃": 4348,
      "順": 4349,
      "須": 4350,
      "頓": 4351,
      "領": 4352,
      "頡": 4353,
      "頬": 4354,
      "頭": 4355,
      "頼": 4356,
      "題": 4357,
      "顏": 4358,
      "顔": 4359,
      "類": 4360,
      "顧": 4361,
      "顯": 4362,
      "页": 4363,
      "顶": 4364,
      "项": 4365,
      "顺": 4366,
      "预": 4367,
      "领": 4368,
      "颇": 4369,
      "颍": 4370,
      "题": 4371,
      "额": 4372,
      "風": 4373,
      "风": 4374,
      "飛": 4375,
      "食": 4376,
      "飯": 4377,
      "餅": 4378,
      "養": 4379,
      "餓": 4380,
      "餘": 4381,
      "館": 4382,
      "饱": 4383,
      "饶": 4384,
      "饼": 4385,
      "馆": 4386,
      "首": 4387,
      "馗": 4388,
      "香": 4389,
      "馬": 4390,
      "馮": 4391,
      "馳": 4392,
      "駁": 4393,
      "駅": 4394,
      "駆": 4395,
      "駕": 4396,
      "駟": 4397,
      "駱": 4398,
      "騒": 4399,
      "験": 4400,
      "騨": 4401,
      "騭": 4402,
      "驕": 4403,
      "马": 4404,
      "驻": 4405,
      "骂": 4406,
      "骅": 4407,
      "骨": 4408,
      "髏": 4409,
      "髑": 4410,
      "體": 4411,
      "高": 4412,
      "鬢": 4413,
      "鬱": 4414,
      "鬼": 4415,
      "魂": 4416,
      "魏": 4417,
      "魔": 4418,
      "魚": 4419,
      "魯": 4420,
      "鮑": 4421,
      "鮮": 4422,
      "鯉": 4423,
      "鰲": 4424,
      "鱉": 4425,
      "鱓": 4426,
      "鱗": 4427,
      "鱼": 4428,
      "鲁": 4429,
      "鲜": 4430,
      "鲸": 4431,
      "鳥": 4432,
      "鳩": 4433,
      "鳳": 4434,
      "鴉": 4435,
      "鴻": 4436,
      "鵪": 4437,
      "鶏": 4438,
      "鶯": 4439,
      "鶴": 4440,
      "鷹": 4441,
      "鷺": 4442,
      "鸟": 4443,
      "鸡": 4444,
      "鸣": 4445,
      "鸿": 4446,
      "鹏": 4447,
      "鹰": 4448,
      "鹿": 4449,
      "麓": 4450,
      "麗": 4451,
      "麞": 4452,
      "麟": 4453,
      "麩": 4454,
      "麴": 4455,
      "麻": 4456,
      "麾": 4457,
      "黃": 4458,
      "黄": 4459,
      "黎": 4460,
      "黑": 4461,
      "黒": 4462,
      "黨": 4463,
      "黹": 4464,
      "鼎": 4465,
      "鼓": 4466,
      "鼠": 4467,
      "鼻": 4468,
      "齊": 4469,
      "齐": 4470,
      "齡": 4471,
      "龍": 4472,
      "龖": 4473,
      "龘": 4474,
      "龙": 4475,
      "龜": 4476,
      "龟": 4477,
      "ꙁ": 4478,
      "ꙋ": 4479,
      "ꙑ": 4480,
      "ꙗ": 4481,
      "ꜭ": 4482,
      "ꜯ": 4483,
      "ꜳ": 4484,
      "ꝗ": 4485,
      "ꞇ": 4486,
      "ꞌ": 4487,
      "ꞩ": 4488,
      "가": 4489,
      "간": 4490,
      "갈": 4491,
      "감": 4492,
      "강": 4493,
      "개": 4494,
      "거": 4495,
      "걸": 4496,
      "검": 4497,
      "게": 4498,
      "겐": 4499,
      "견": 4500,
      "결": 4501,
      "경": 4502,
      "계": 4503,
      "고": 4504,
      "곡": 4505,
      "공": 4506,
      "과": 4507,
      "관": 4508,
      "광": 4509,
      "교": 4510,
      "구": 4511,
      "국": 4512,
      "군": 4513,
      "권": 4514,
      "규": 4515,
      "균": 4516,
      "그": 4517,
      "극": 4518,
      "근": 4519,
      "금": 4520,
      "기": 4521,
      "길": 4522,
      "김": 4523,
      "깃": 4524,
      "까": 4525,
      "깨": 4526,
      "끌": 4527,
      "나": 4528,
      "낙": 4529,
      "난": 4530,
      "날": 4531,
      "남": 4532,
      "납": 4533,
      "내": 4534,
      "너": 4535,
      "넌": 4536,
      "널": 4537,
      "녀": 4538,
      "노": 4539,
      "놀": 4540,
      "놈": 4541,
      "눈": 4542,
      "눌": 4543,
      "는": 4544,
      "늘": 4545,
      "니": 4546,
      "님": 4547,
      "다": 4548,
      "단": 4549,
      "달": 4550,
      "닮": 4551,
      "담": 4552,
      "당": 4553,
      "대": 4554,
      "댄": 4555,
      "더": 4556,
      "덕": 4557,
      "덤": 4558,
      "데": 4559,
      "뎅": 4560,
      "도": 4561,
      "돌": 4562,
      "동": 4563,
      "돯": 4564,
      "두": 4565,
      "드": 4566,
      "듭": 4567,
      "등": 4568,
      "디": 4569,
      "때": 4570,
      "또": 4571,
      "뜻": 4572,
      "띠": 4573,
      "라": 4574,
      "락": 4575,
      "란": 4576,
      "람": 4577,
      "랑": 4578,
      "래": 4579,
      "량": 4580,
      "러": 4581,
      "럼": 4582,
      "레": 4583,
      "렌": 4584,
      "려": 4585,
      "력": 4586,
      "령": 4587,
      "례": 4588,
      "로": 4589,
      "록": 4590,
      "룡": 4591,
      "루": 4592,
      "르": 4593,
      "륵": 4594,
      "른": 4595,
      "를": 4596,
      "름": 4597,
      "리": 4598,
      "린": 4599,
      "림": 4600,
      "립": 4601,
      "릿": 4602,
      "마": 4603,
      "막": 4604,
      "만": 4605,
      "말": 4606,
      "망": 4607,
      "매": 4608,
      "맥": 4609,
      "머": 4610,
      "메": 4611,
      "멤": 4612,
      "면": 4613,
      "명": 4614,
      "모": 4615,
      "몰": 4616,
      "몸": 4617,
      "몽": 4618,
      "무": 4619,
      "문": 4620,
      "물": 4621,
      "뮤": 4622,
      "믈": 4623,
      "미": 4624,
      "민": 4625,
      "믿": 4626,
      "밀": 4627,
      "밑": 4628,
      "바": 4629,
      "박": 4630,
      "반": 4631,
      "받": 4632,
      "발": 4633,
      "밤": 4634,
      "밥": 4635,
      "방": 4636,
      "배": 4637,
      "백": 4638,
      "버": 4639,
      "번": 4640,
      "벌": 4641,
      "범": 4642,
      "법": 4643,
      "벽": 4644,
      "변": 4645,
      "별": 4646,
      "병": 4647,
      "보": 4648,
      "복": 4649,
      "본": 4650,
      "볼": 4651,
      "봉": 4652,
      "봐": 4653,
      "뵈": 4654,
      "부": 4655,
      "북": 4656,
      "분": 4657,
      "불": 4658,
      "붕": 4659,
      "뷰": 4660,
      "브": 4661,
      "비": 4662,
      "빈": 4663,
      "빔": 4664,
      "빨": 4665,
      "쁜": 4666,
      "삥": 4667,
      "사": 4668,
      "산": 4669,
      "삼": 4670,
      "상": 4671,
      "색": 4672,
      "생": 4673,
      "샤": 4674,
      "서": 4675,
      "석": 4676,
      "선": 4677,
      "설": 4678,
      "성": 4679,
      "섶": 4680,
      "세": 4681,
      "섹": 4682,
      "셔": 4683,
      "소": 4684,
      "속": 4685,
      "손": 4686,
      "솔": 4687,
      "송": 4688,
      "쇼": 4689,
      "수": 4690,
      "숙": 4691,
      "순": 4692,
      "술": 4693,
      "숭": 4694,
      "쉽": 4695,
      "스": 4696,
      "슬": 4697,
      "승": 4698,
      "시": 4699,
      "신": 4700,
      "실": 4701,
      "심": 4702,
      "싶": 4703,
      "싸": 4704,
      "쌍": 4705,
      "아": 4706,
      "악": 4707,
      "안": 4708,
      "알": 4709,
      "았": 4710,
      "애": 4711,
      "앨": 4712,
      "야": 4713,
      "양": 4714,
      "어": 4715,
      "억": 4716,
      "언": 4717,
      "엄": 4718,
      "업": 4719,
      "에": 4720,
      "엔": 4721,
      "엘": 4722,
      "엠": 4723,
      "여": 4724,
      "역": 4725,
      "연": 4726,
      "열": 4727,
      "영": 4728,
      "예": 4729,
      "오": 4730,
      "올": 4731,
      "옷": 4732,
      "옹": 4733,
      "와": 4734,
      "왕": 4735,
      "왜": 4736,
      "요": 4737,
      "용": 4738,
      "우": 4739,
      "욱": 4740,
      "운": 4741,
      "울": 4742,
      "웅": 4743,
      "원": 4744,
      "월": 4745,
      "웨": 4746,
      "위": 4747,
      "유": 4748,
      "육": 4749,
      "윤": 4750,
      "율": 4751,
      "으": 4752,
      "은": 4753,
      "을": 4754,
      "음": 4755,
      "읍": 4756,
      "의": 4757,
      "이": 4758,
      "인": 4759,
      "일": 4760,
      "임": 4761,
      "입": 4762,
      "자": 4763,
      "작": 4764,
      "잖": 4765,
      "잠": 4766,
      "잡": 4767,
      "장": 4768,
      "쟁": 4769,
      "쟝": 4770,
      "저": 4771,
      "적": 4772,
      "전": 4773,
      "정": 4774,
      "제": 4775,
      "조": 4776,
      "족": 4777,
      "종": 4778,
      "좋": 4779,
      "좌": 4780,
      "주": 4781,
      "준": 4782,
      "중": 4783,
      "줘": 4784,
      "즈": 4785,
      "증": 4786,
      "지": 4787,
      "직": 4788,
      "진": 4789,
      "집": 4790,
      "짓": 4791,
      "짜": 4792,
      "차": 4793,
      "참": 4794,
      "창": 4795,
      "찾": 4796,
      "채": 4797,
      "처": 4798,
      "천": 4799,
      "철": 4800,
      "첨": 4801,
      "첫": 4802,
      "청": 4803,
      "쳐": 4804,
      "최": 4805,
      "추": 4806,
      "축": 4807,
      "출": 4808,
      "취": 4809,
      "치": 4810,
      "칠": 4811,
      "카": 4812,
      "커": 4813,
      "컵": 4814,
      "코": 4815,
      "쿠": 4816,
      "쿤": 4817,
      "쿨": 4818,
      "퀸": 4819,
      "큐": 4820,
      "크": 4821,
      "키": 4822,
      "타": 4823,
      "탈": 4824,
      "탕": 4825,
      "태": 4826,
      "터": 4827,
      "테": 4828,
      "토": 4829,
      "통": 4830,
      "투": 4831,
      "튜": 4832,
      "트": 4833,
      "특": 4834,
      "틈": 4835,
      "팅": 4836,
      "파": 4837,
      "편": 4838,
      "평": 4839,
      "폰": 4840,
      "폴": 4841,
      "표": 4842,
      "품": 4843,
      "퓨": 4844,
      "프": 4845,
      "픈": 4846,
      "피": 4847,
      "픽": 4848,
      "하": 4849,
      "학": 4850,
      "한": 4851,
      "할": 4852,
      "함": 4853,
      "항": 4854,
      "해": 4855,
      "핸": 4856,
      "했": 4857,
      "행": 4858,
      "허": 4859,
      "헌": 4860,
      "험": 4861,
      "혀": 4862,
      "혁": 4863,
      "현": 4864,
      "혜": 4865,
      "호": 4866,
      "혼": 4867,
      "홀": 4868,
      "홍": 4869,
      "화": 4870,
      "환": 4871,
      "황": 4872,
      "회": 4873,
      "효": 4874,
      "후": 4875,
      "훈": 4876,
      "휘": 4877,
      "휴": 4878,
      "흐": 4879,
      "흘": 4880,
      "흥": 4881,
      "희": 4882,
      "히": 4883,
      "": 4884,
      "": 4885,
      "": 4886,
      "": 4887,
      "": 4888,
      "": 4889,
      "": 4890,
      "": 4891,
      "ﬁ": 4892,
      "ﬂ": 4893,
      "ﬃ": 4894,
      "ﮐ": 4895,
      "ﷺ": 4896,
      "︎": 4897,
      "️": 4898,
      "︠": 4899,
      "︡": 4900,
      "ﺎ": 4901,
      "ﺗ": 4902,
      "ﺮ": 4903,
      "ﻋ": 4904,
      "ﻕ": 4905,
      "ﻖ": 4906,
      "ﻥ": 4907,
      "ﻨ": 4908,
      "ﻶ": 4909,
      "﻿": 4910,
      "！": 4911,
      "＆": 4912,
      "（": 4913,
      "）": 4914,
      "＋": 4915,
      "，": 4916,
      "－": 4917,
      "．": 4918,
      "／": 4919,
      "０": 4920,
      "１": 4921,
      "３": 4922,
      "６": 4923,
      "８": 4924,
      "９": 4925,
      "：": 4926,
      "；": 4927,
      "＜": 4928,
      "＝": 4929,
      "＞": 4930,
      "？": 4931,
      "ａ": 4932,
      "ｄ": 4933,
      "ｅ": 4934,
      "ｆ": 4935,
      "ｈ": 4936,
      "ｍ": 4937,
      "ｎ": 4938,
      "ｏ": 4939,
      "ｐ": 4940,
      "ｓ": 4941,
      "ｔ": 4942,
      "ｕ": 4943,
      "ｚ": 4944,
      "｜": 4945,
      "～": 4946,
      "･": 4947,
      "￼": 4948,
      "�": 4949,
      "𐀂": 4950,
      "𐀏": 4951,
      "𐀘": 4952,
      "𐀙": 4953,
      "𐌚": 4954,
      "𐎠": 4955,
      "𐎡": 4956,
      "𐎹": 4957,
      "𐎼": 4958,
      "𐓘": 4959,
      "𐠀": 4960,
      "𐠁": 4961,
      "𐠂": 4962,
      "𐠃": 4963,
      "𐠄": 4964,
      "𐠅": 4965,
      "𐠊": 4966,
      "𐠋": 4967,
      "𐠌": 4968,
      "𐠍": 4969,
      "𐠎": 4970,
      "𐠐": 4971,
      "𐠑": 4972,
      "𐠒": 4973,
      "𐠔": 4974,
      "𐠕": 4975,
      "𐠖": 4976,
      "𐠚": 4977,
      "𐠛": 4978,
      "𐠜": 4979,
      "𐠞": 4980,
      "𐠡": 4981,
      "𐠣": 4982,
      "𐠥": 4983,
      "𐠦": 4984,
      "𐠨": 4985,
      "𐠩": 4986,
      "𐠪": 4987,
      "𐠭": 4988,
      "𐠮": 4989,
      "𐠯": 4990,
      "𐠰": 4991,
      "𐠱": 4992,
      "𐠲": 4993,
      "𐡄": 4994,
      "𐤂": 4995,
      "𐤄": 4996,
      "𐤌": 4997,
      "𐤍": 4998,
      "𐭣": 4999,
      "𐭪": 5000,
      "𐰀": 5001,
      "𐰂": 5002,
      "𐰄": 5003,
      "𐰅": 5004,
      "𐰆": 5005,
      "𐰈": 5006,
      "𐰉": 5007,
      "𐰋": 5008,
      "𐰏": 5009,
      "𐰚": 5010,
      "𐰠": 5011,
      "𐰣": 5012,
      "𐰤": 5013,
      "𐰱": 5014,
      "𐰲": 5015,
      "𐰴": 5016,
      "𐰺": 5017,
      "𐰼": 5018,
      "𐰽": 5019,
      "𐰾": 5020,
      "𐱁": 5021,
      "𑀓": 5022,
      "𑘎": 5023,
      "𒀭": 5024,
      "𒄖": 5025,
      "𒆷": 5026,
      "𒇽": 5027,
      "𛀁": 5028,
      "𝐂": 5029,
      "𝐄": 5030,
      "𝐅": 5031,
      "𝐇": 5032,
      "𝐈": 5033,
      "𝐍": 5034,
      "𝐎": 5035,
      "𝐏": 5036,
      "𝐑": 5037,
      "𝐒": 5038,
      "𝐓": 5039,
      "𝐞": 5040,
      "𝐡": 5041,
      "𝐢": 5042,
      "𝐦": 5043,
      "𝐧": 5044,
      "𝐬": 5045,
      "𝐴": 5046,
      "𝐵": 5047,
      "𝐸": 5048,
      "𝐾": 5049,
      "𝐿": 5050,
      "𝑀": 5051,
      "𝑃": 5052,
      "𝑆": 5053,
      "𝑇": 5054,
      "𝑎": 5055,
      "𝑏": 5056,
      "𝑐": 5057,
      "𝑒": 5058,
      "𝑖": 5059,
      "𝑙": 5060,
      "𝑚": 5061,
      "𝑛": 5062,
      "𝑜": 5063,
      "𝑟": 5064,
      "𝑡": 5065,
      "𝑦": 5066,
      "𝒆": 5067,
      "𝒊": 5068,
      "𝒍": 5069,
      "𝒎": 5070,
      "𝒐": 5071,
      "𝒔": 5072,
      "𝒕": 5073,
      "𝒗": 5074,
      "𝒚": 5075,
      "𝒛": 5076,
      "𝘈": 5077,
      "𝘎": 5078,
      "𝘒": 5079,
      "𝘓": 5080,
      "𝘖": 5081,
      "𝘛": 5082,
      "𝘢": 5083,
      "𝘨": 5084,
      "𝘭": 5085,
      "𝘮": 5086,
      "🃏": 5087,
      "🇦": 5088,
      "🇪": 5089,
      "🇬": 5090,
      "🇮": 5091,
      "🇲": 5092,
      "🇷": 5093,
      "🇹": 5094,
      "🇺": 5095,
      "🇽": 5096,
      "🇿": 5097,
      "🌈": 5098,
      "🌎": 5099,
      "🌔": 5100,
      "🌟": 5101,
      "🌴": 5102,
      "🌷": 5103,
      "🌹": 5104,
      "🌿": 5105,
      "🍉": 5106,
      "🍊": 5107,
      "🍍": 5108,
      "🍑": 5109,
      "🍒": 5110,
      "🍡": 5111,
      "🍥": 5112,
      "🍬": 5113,
      "🍱": 5114,
      "🍳": 5115,
      "🎉": 5116,
      "🎥": 5117,
      "🎶": 5118,
      "🏂": 5119,
      "🏃": 5120,
      "🏄": 5121,
      "🏆": 5122,
      "🏊": 5123,
      "🏻": 5124,
      "🏼": 5125,
      "🏽": 5126,
      "🏾": 5127,
      "🏿": 5128,
      "🐇": 5129,
      "🐱": 5130,
      "🐴": 5131,
      "🐶": 5132,
      "👀": 5133,
      "👇": 5134,
      "👊": 5135,
      "👌": 5136,
      "👍": 5137,
      "👏": 5138,
      "👑": 5139,
      "👗": 5140,
      "👙": 5141,
      "👨": 5142,
      "👮": 5143,
      "👴": 5144,
      "💃": 5145,
      "💋": 5146,
      "💌": 5147,
      "💎": 5148,
      "💓": 5149,
      "💕": 5150,
      "💖": 5151,
      "💗": 5152,
      "💘": 5153,
      "💙": 5154,
      "💛": 5155,
      "💜": 5156,
      "💥": 5157,
      "💦": 5158,
      "💩": 5159,
      "💪": 5160,
      "💫": 5161,
      "📍": 5162,
      "📣": 5163,
      "📷": 5164,
      "📸": 5165,
      "🔊": 5166,
      "🔝": 5167,
      "🔥": 5168,
      "🔫": 5169,
      "🔮": 5170,
      "🔻": 5171,
      "😀": 5172,
      "😁": 5173,
      "😂": 5174,
      "😃": 5175,
      "😆": 5176,
      "😉": 5177,
      "😊": 5178,
      "😌": 5179,
      "😍": 5180,
      "😎": 5181,
      "😐": 5182,
      "😒": 5183,
      "😓": 5184,
      "😘": 5185,
      "😜": 5186,
      "😡": 5187,
      "😥": 5188,
      "😱": 5189,
      "😻": 5190,
      "🙄": 5191,
      "🙅": 5192,
      "🙆": 5193,
      "🙈": 5194,
      "🙊": 5195,
      "🙌": 5196,
      "🙏": 5197,
      "🚀": 5198,
      "🛵": 5199,
      "🤣": 5200,
      "🤦": 5201,
      "🤨": 5202,
      "🤷": 5203,
      "🥈": 5204,
      "🦁": 5205,
      "🦋": 5206,
      "𩇔": 5207,
      "𪚥": 5208,
      "󾌧": 5209,
      "ст": 5210,
      "на": 5211,
      "но": 5212,
      "ра": 5213,
      "ни": 5214,
      "ко": 5215,
      "ро": 5216,
      "по": 5217,
      "го": 5218,
      "то": 5219,
      "ре": 5220,
      "ли": 5221,
      "не": 5222,
      "ка": 5223,
      "во": 5224,
      "ва": 5225,
      "ле": 5226,
      "ла": 5227,
      "ри": 5228,
      "ль": 5229,
      "ны": 5230,
      "те": 5231,
      "де": 5232,
      "да": 5233,
      "ло": 5234,
      "ве": 5235,
      "та": 5236,
      "ме": 5237,
      "за": 5238,
      "ки": 5239,
      "со": 5240,
      "ми": 5241,
      "до": 5242,
      "че": 5243,
      "ма": 5244,
      "ти": 5245,
      "мо": 5246,
      "се": 5247,
      "ви": 5248,
      "ся": 5249,
      "ть": 5250,
      "же": 5251,
      "про": 5252,
      "ди": 5253,
      "ру": 5254,
      "бо": 5255,
      "ско": 5256,
      "пе": 5257,
      "ста": 5258,
      "вы": 5259,
      "си": 5260,
      "об": 5261,
      "ци": 5262,
      "ча": 5263,
      "от": 5264,
      "бы": 5265,
      "при": 5266,
      "па": 5267,
      "ля": 5268,
      "ния": 5269,
      "са": 5270,
      "из": 5271,
      "ет": 5272,
      "ду": 5273,
      "сто": 5274,
      "ку": 5275,
      "сти": 5276,
      "ние": 5277,
      "ски": 5278,
      "чи": 5279,
      "ну": 5280,
      "хо": 5281,
      "сь": 5282,
      "что": 5283,
      "ры": 5284,
      "пре": 5285,
      "ше": 5286,
      "му": 5287,
      "бе": 5288,
      "га": 5289,
      "19": 5290,
      "ной": 5291,
      "нны": 5292,
      "ты": 5293,
      "пи": 5294,
      "лу": 5295,
      "ту": 5296,
      "це": 5297,
      "ши": 5298,
      "ще": 5299,
      "ги": 5300,
      "раз": 5301,
      "ня": 5302,
      "20": 5303,
      "ба": 5304,
      "он": 5305,
      "ного": 5306,
      "жи": 5307,
      "тель": 5308,
      "это": 5309,
      "ря": 5310,
      "су": 5311,
      "сле": 5312,
      "би": 5313,
      "фи": 5314,
      "пу": 5315,
      "года": 5316,
      "щи": 5317,
      "вер": 5318,
      "ге": 5319,
      "сть": 5320,
      "гра": 5321,
      "лю": 5322,
      "жа": 5323,
      "под": 5324,
      "ска": 5325,
      "кото": 5326,
      "мы": 5327,
      "ке": 5328,
      "она": 5329,
      "бу": 5330,
      "нно": 5331,
      "ской": 5332,
      "ных": 5333,
      "лся": 5334,
      "ор": 5335,
      "ского": 5336,
      "зи": 5337,
      "как": 5338,
      "нт": 5339,
      "пра": 5340,
      "его": 5341,
      "ком": 5342,
      "сте": 5343,
      "так": 5344,
      "ша": 5345,
      "ный": 5346,
      "ции": 5347,
      "ву": 5348,
      "нии": 5349,
      "спо": 5350,
      "нь": 5351,
      "пере": 5352,
      "ин": 5353,
      "ют": 5354,
      "все": 5355,
      "ные": 5356,
      "сси": 5357,
      "стве": 5358,
      "ха": 5359,
      "ство": 5360,
      "ский": 5361,
      "сво": 5362,
      "стра": 5363,
      "гу": 5364,
      "пер": 5365,
      "ды": 5366,
      "ется": 5367,
      "ров": 5368,
      "кон": 5369,
      "сс": 5370,
      "гла": 5371,
      "зна": 5372,
      "нов": 5373,
      "зо": 5374,
      "ная": 5375,
      "кра": 5376,
      "ков": 5377,
      "рова": 5378,
      "году": 5379,
      "вой": 5380,
      "од": 5381,
      "фе": 5382,
      "пред": 5383,
      "ща": 5384,
      "лы": 5385,
      "зы": 5386,
      "зе": 5387,
      "для": 5388,
      "вле": 5389,
      "ск": 5390,
      "ца": 5391,
      "мя": 5392,
      "вре": 5393,
      "вля": 5394,
      "после": 5395,
      "был": 5396,
      "которы": 5397,
      "тре": 5398,
      "тов": 5399,
      "сло": 5400,
      "воз": 5401,
      "том": 5402,
      "ства": 5403,
      "тер": 5404,
      "росси": 5405,
      "аль": 5406,
      "200": 5407,
      "ном": 5408,
      "сту": 5409,
      "201": 5410,
      "ться": 5411,
      "ар": 5412,
      "ских": 5413,
      "ний": 5414,
      "тся": 5415,
      "рабо": 5416,
      "гда": 5417,
      "дол": 5418,
      "лась": 5419,
      "кой": 5420,
      "ходи": 5421,
      "тив": 5422,
      "ан": 5423,
      "род": 5424,
      "тра": 5425,
      "сно": 5426,
      "слу": 5427,
      "стро": 5428,
      "ным": 5429,
      "er": 5430,
      "мен": 5431,
      "18": 5432,
      "дер": 5433,
      "вто": 5434,
      "боль": 5435,
      "ис": 5436,
      "лько": 5437,
      "вет": 5438,
      "дру": 5439,
      "нных": 5440,
      "жно": 5441,
      "бли": 5442,
      "лись": 5443,
      "кт": 5444,
      "нные": 5445,
      "вя": 5446,
      "ром": 5447,
      "ное": 5448,
      "хи": 5449,
      "рас": 5450,
      "ник": 5451,
      "лей": 5452,
      "пол": 5453,
      "лось": 5454,
      "вши": 5455,
      "пла": 5456,
      "фор": 5457,
      "также": 5458,
      "ющи": 5459,
      "нача": 5460,
      "ей": 5461,
      "ную": 5462,
      "было": 5463,
      "каза": 5464,
      "ев": 5465,
      "спе": 5466,
      "стоя": 5467,
      "нный": 5468,
      "пы": 5469,
      "ман": 5470,
      "зу": 5471,
      "ская": 5472,
      "an": 5473,
      "мер": 5474,
      "фа": 5475,
      "in": 5476,
      "шь": 5477,
      "нима": 5478,
      "ция": 5479,
      "бра": 5480,
      "их": 5481,
      "кры": 5482,
      "кто": 5483,
      "чу": 5484,
      "сы": 5485,
      "ней": 5486,
      "рь": 5487,
      "рии": 5488,
      "полу": 5489,
      "нию": 5490,
      "гру": 5491,
      "три": 5492,
      "ские": 5493,
      "сооб": 5494,
      "соста": 5495,
      "лет": 5496,
      "чем": 5497,
      "име": 5498,
      "исто": 5499,
      "пар": 5500,
      "ника": 5501,
      "бря": 5502,
      "стви": 5503,
      "смо": 5504,
      "жде": 5505,
      "сре": 5506,
      "on": 5507,
      "кру": 5508,
      "вое": 5509,
      "вал": 5510,
      "или": 5511,
      "мне": 5512,
      "рай": 5513,
      "кре": 5514,
      "чно": 5515,
      "время": 5516,
      "нной": 5517,
      "гово": 5518,
      "нием": 5519,
      "дей": 5520,
      "дет": 5521,
      "00": 5522,
      "дела": 5523,
      "ском": 5524,
      "тельно": 5525,
      "меня": 5526,
      "нее": 5527,
      "сли": 5528,
      "стре": 5529,
      "en": 5530,
      "оста": 5531,
      "вать": 5532,
      "ран": 5533,
      "зда": 5534,
      "когда": 5535,
      "уча": 5536,
      "уже": 5537,
      "они": 5538,
      "дя": 5539,
      "вз": 5540,
      "лове": 5541,
      "свя": 5542,
      "дом": 5543,
      "199": 5544,
      "была": 5545,
      "кар": 5546,
      "ar": 5547,
      "мар": 5548,
      "были": 5549,
      "дь": 5550,
      "тиче": 5551,
      "дар": 5552,
      "меча": 5553,
      "нд": 5554,
      "обла": 5555,
      "бя": 5556,
      "кла": 5557,
      "пле": 5558,
      "им": 5559,
      "кан": 5560,
      "сла": 5561,
      "тем": 5562,
      "тру": 5563,
      "вра": 5564,
      "ак": 5565,
      "вла": 5566,
      "голо": 5567,
      "вая": 5568,
      "вания": 5569,
      "только": 5570,
      "поли": 5571,
      "мини": 5572,
      "того": 5573,
      "дин": 5574,
      "боле": 5575,
      "нта": 5576,
      "челове": 5577,
      "al": 5578,
      "рой": 5579,
      "цы": 5580,
      "жу": 5581,
      "жда": 5582,
      "писа": 5583,
      "or": 5584,
      "жен": 5585,
      "этом": 5586,
      "бан": 5587,
      "год": 5588,
      "ются": 5589,
      "ству": 5590,
      "es": 5591,
      "ники": 5592,
      "образ": 5593,
      "вые": 5594,
      "произ": 5595,
      "селе": 5596,
      "рт": 5597,
      "дов": 5598,
      "жду": 5599,
      "нным": 5600,
      "яви": 5601,
      "вод": 5602,
      "ем": 5603,
      "нет": 5604,
      "явля": 5605,
      "прави": 5606,
      "сер": 5607,
      "ниче": 5608,
      "испо": 5609,
      "вый": 5610,
      "россии": 5611,
      "лли": 5612,
      "объ": 5613,
      "само": 5614,
      "пло": 5615,
      "лё": 5616,
      "жет": 5617,
      "нного": 5618,
      "рия": 5619,
      "сов": 5620,
      "тур": 5621,
      "клю": 5622,
      "горо": 5623,
      "th": 5624,
      "иг": 5625,
      "вых": 5626,
      "логи": 5627,
      "авто": 5628,
      "цент": 5629,
      "шо": 5630,
      "предста": 5631,
      "льно": 5632,
      "ян": 5633,
      "веде": 5634,
      "теле": 5635,
      "чере": 5636,
      "ября": 5637,
      "между": 5638,
      "над": 5639,
      "россий": 5640,
      "фо": 5641,
      "сказа": 5642,
      "ут": 5643,
      "10": 5644,
      "тор": 5645,
      "обще": 5646,
      "него": 5647,
      "17": 5648,
      "графи": 5649,
      "нако": 5650,
      "циаль": 5651,
      "вно": 5652,
      "вание": 5653,
      "лек": 5654,
      "сты": 5655,
      "ску": 5656,
      "эк": 5657,
      "15": 5658,
      "st": 5659,
      "орга": 5660,
      "вали": 5661,
      "194": 5662,
      "чё": 5663,
      "вели": 5664,
      "тя": 5665,
      "виде": 5666,
      "более": 5667,
      "бор": 5668,
      "ными": 5669,
      "где": 5670,
      "них": 5671,
      "которые": 5672,
      "вс": 5673,
      "работа": 5674,
      "который": 5675,
      "хра": 5676,
      "ложе": 5677,
      "кро": 5678,
      "можно": 5679,
      "ников": 5680,
      "коман": 5681,
      "198": 5682,
      "ссы": 5683,
      "лки": 5684,
      "лен": 5685,
      "сообща": 5686,
      "цию": 5687,
      "at": 5688,
      "ию": 5689,
      "цу": 5690,
      "пера": 5691,
      "зыва": 5692,
      "публи": 5693,
      "чер": 5694,
      "сторо": 5695,
      "ское": 5696,
      "укра": 5697,
      "примеча": 5698,
      "бер": 5699,
      "води": 5700,
      "вич": 5701,
      "юще": 5702,
      "12": 5703,
      "ху": 5704,
      "телей": 5705,
      "коло": 5706,
      "нем": 5707,
      "чтобы": 5708,
      "ch": 5709,
      "госу": 5710,
      "сей": 5711,
      "тели": 5712,
      "спи": 5713,
      "компа": 5714,
      "кри": 5715,
      "теля": 5716,
      "деле": 5717,
      "обра": 5718,
      "ности": 5719,
      "пя": 5720,
      "груп": 5721,
      "получи": 5722,
      "государ": 5723,
      "ему": 5724,
      "ново": 5725,
      "поз": 5726,
      "ним": 5727,
      "ii": 5728,
      "16": 5729,
      "чь": 5730,
      "филь": 5731,
      "бри": 5732,
      "её": 5733,
      "может": 5734,
      "без": 5735,
      "ван": 5736,
      "обо": 5737,
      "эти": 5738,
      "проце": 5739,
      "тия": 5740,
      "примечания": 5741,
      "сред": 5742,
      "нк": 5743,
      "будет": 5744,
      "изве": 5745,
      "ональ": 5746,
      "стью": 5747,
      "таки": 5748,
      "кор": 5749,
      "кого": 5750,
      "слова": 5751,
      "правле": 5752,
      "нул": 5753,
      "шу": 5754,
      "тера": 5755,
      "мени": 5756,
      "послед": 5757,
      "ад": 5758,
      "мет": 5759,
      "стан": 5760,
      "держа": 5761,
      "лов": 5762,
      "образо": 5763,
      "197": 5764,
      "области": 5765,
      "цо": 5766,
      "други": 5767,
      "ским": 5768,
      "re": 5769,
      "тех": 5770,
      "рев": 5771,
      "мь": 5772,
      "is": 5773,
      "бой": 5774,
      "ос": 5775,
      "гля": 5776,
      "если": 5777,
      "соб": 5778,
      "рен": 5779,
      "наз": 5780,
      "форма": 5781,
      "созда": 5782,
      "бро": 5783,
      "чита": 5784,
      "14": 5785,
      "мери": 5786,
      "ственно": 5787,
      "этого": 5788,
      "следо": 5789,
      "сша": 5790,
      "неско": 5791,
      "ее": 5792,
      "дви": 5793,
      "риа": 5794,
      "нау": 5795,
      "однако": 5796,
      "оне": 5797,
      "жиз": 5798,
      "подо": 5799,
      "стал": 5800,
      "ав": 5801,
      "ках": 5802,
      "мой": 5803,
      "верси": 5804,
      "тан": 5805,
      "196": 5806,
      "город": 5807,
      "ден": 5808,
      "рус": 5809,
      "стру": 5810,
      "доро": 5811,
      "пор": 5812,
      "ic": 5813,
      "поль": 5814,
      "тил": 5815,
      "вар": 5816,
      "обе": 5817,
      "тно": 5818,
      "прези": 5819,
      "вше": 5820,
      "офи": 5821,
      "дра": 5822,
      "совет": 5823,
      "фран": 5824,
      "бле": 5825,
      "помо": 5826,
      "еще": 5827,
      "там": 5828,
      "13": 5829,
      "игра": 5830,
      "ro": 5831,
      "гер": 5832,
      "труд": 5833,
      "еди": 5834,
      "мест": 5835,
      "рей": 5836,
      "органи": 5837,
      "отно": 5838,
      "чемпи": 5839,
      "дж": 5840,
      "откры": 5841,
      "которо": 5842,
      "le": 5843,
      "извест": 5844,
      "коро": 5845,
      "ек": 5846,
      "народ": 5847,
      "просто": 5848,
      "день": 5849,
      "кли": 5850,
      "вает": 5851,
      "человек": 5852,
      "амери": 5853,
      "лом": 5854,
      "исполь": 5855,
      "рес": 5856,
      "даже": 5857,
      "тура": 5858,
      "it": 5859,
      "алек": 5860,
      "нения": 5861,
      "али": 5862,
      "мат": 5863,
      "рак": 5864,
      "льта": 5865,
      "милли": 5866,
      "вого": 5867,
      "населе": 5868,
      "евро": 5869,
      "говори": 5870,
      "нали": 5871,
      "нер": 5872,
      "ответ": 5873,
      "коно": 5874,
      "уни": 5875,
      "щё": 5876,
      "два": 5877,
      "реги": 5878,
      "чет": 5879,
      "рая": 5880,
      "раль": 5881,
      "сме": 5882,
      "сни": 5883,
      "глаза": 5884,
      "жения": 5885,
      "the": 5886,
      "куль": 5887,
      "мина": 5888,
      "нг": 5889,
      "сель": 5890,
      "дея": 5891,
      "согла": 5892,
      "вым": 5893,
      "сса": 5894,
      "22": 5895,
      "ками": 5896,
      "действи": 5897,
      "мента": 5898,
      "через": 5899,
      "ций": 5900,
      "195": 5901,
      "моск": 5902,
      "является": 5903,
      "дель": 5904,
      "той": 5905,
      "против": 5906,
      "зем": 5907,
      "дже": 5908,
      "193": 5909,
      "вета": 5910,
      "поло": 5911,
      "один": 5912,
      "кий": 5913,
      "мира": 5914,
      "буду": 5915,
      "запа": 5916,
      "находи": 5917,
      "тро": 5918,
      "уче": 5919,
      "тво": 5920,
      "ал": 5921,
      "шко": 5922,
      "место": 5923,
      "мии": 5924,
      "сай": 5925,
      "ёл": 5926,
      "гли": 5927,
      "реше": 5928,
      "себя": 5929,
      "побе": 5930,
      "нови": 5931,
      "осно": 5932,
      "сообщает": 5933,
      "мир": 5934,
      "рито": 5935,
      "резу": 5936,
      "приня": 5937,
      "el": 5938,
      "наци": 5939,
      "шел": 5940,
      "вот": 5941,
      "ссо": 5942,
      "суще": 5943,
      "систе": 5944,
      "результа": 5945,
      "оче": 5946,
      "зова": 5947,
      "бре": 5948,
      "глав": 5949,
      "лич": 5950,
      "всё": 5951,
      "представи": 5952,
      "дума": 5953,
      "пока": 5954,
      "рий": 5955,
      "хот": 5956,
      "нару": 5957,
      "уда": 5958,
      "заяви": 5959,
      "этот": 5960,
      "распо": 5961,
      "месте": 5962,
      "бур": 5963,
      "право": 5964,
      "луч": 5965,
      "вопро": 5966,
      "больше": 5967,
      "точ": 5968,
      "восто": 5969,
      "состоя": 5970,
      "ографи": 5971,
      "ью": 5972,
      "лия": 5973,
      "11": 5974,
      "коми": 5975,
      "гре": 5976,
      "ходя": 5977,
      "террито": 5978,
      "спа": 5979,
      "сотруд": 5980,
      "мая": 5981,
      "тебя": 5982,
      "уста": 5983,
      "us": 5984,
      "зя": 5985,
      "высо": 5986,
      "ких": 5987,
      "быть": 5988,
      "нная": 5989,
      "много": 5990,
      "ссылки": 5991,
      "города": 5992,
      "скую": 5993,
      "am": 5994,
      "фина": 5995,
      "пыта": 5996,
      "вший": 5997,
      "ёр": 5998,
      "роди": 5999,
      "ств": 6000,
      "шта": 6001,
      "цев": 6002,
      "дву": 6003,
      "встре": 6004,
      "хе": 6005,
      "час": 6006,
      "хоро": 6007,
      "сам": 6008,
      "шка": 6009,
      "ходит": 6010,
      "ору": 6011,
      "пря": 6012,
      "опера": 6013,
      "25": 6014,
      "ср": 6015,
      "которых": 6016,
      "ющий": 6017,
      "тин": 6018,
      "нулся": 6019,
      "кол": 6020,
      "вне": 6021,
      "стер": 6022,
      "несколько": 6023,
      "министра": 6024,
      "числе": 6025,
      "американ": 6026,
      "доста": 6027,
      "сков": 6028,
      "продол": 6029,
      "co": 6030,
      "as": 6031,
      "част": 6032,
      "деву": 6033,
      "ход": 6034,
      "около": 6035,
      "явле": 6036,
      "честве": 6037,
      "президе": 6038,
      "выпу": 6039,
      "вала": 6040,
      "очень": 6041,
      "высту": 6042,
      "язы": 6043,
      "руко": 6044,
      "дерев": 6045,
      "мент": 6046,
      "30": 6047,
      "эта": 6048,
      "района": 6049,
      "дли": 6050,
      "хва": 6051,
      "лан": 6052,
      "чение": 6053,
      "окру": 6054,
      "украи": 6055,
      "тыся": 6056,
      "организа": 6057,
      "тен": 6058,
      "информа": 6059,
      "миче": 6060,
      "уби": 6061,
      "даль": 6062,
      "кие": 6063,
      "дё": 6064,
      "мно": 6065,
      "нико": 6066,
      "нской": 6067,
      "улы": 6068,
      "нное": 6069,
      "изда": 6070,
      "шла": 6071,
      "эле": 6072,
      "интер": 6073,
      "сдела": 6074,
      "окт": 6075,
      "поста": 6076,
      "бла": 6077,
      "il": 6078,
      "государстве": 6079,
      "дека": 6080,
      "нского": 6081,
      "кс": 6082,
      "лага": 6083,
      "есть": 6084,
      "счита": 6085,
      "цер": 6086,
      "ешь": 6087,
      "сент": 6088,
      "клу": 6089,
      "сан": 6090,
      "сил": 6091,
      "осо": 6092,
      "литера": 6093,
      "стя": 6094,
      "грам": 6095,
      "ряд": 6096,
      "чения": 6097,
      "конт": 6098,
      "строи": 6099,
      "21": 6100,
      "кам": 6101,
      "прия": 6102,
      "пери": 6103,
      "воло": 6104,
      "поч": 6105,
      "фу": 6106,
      "ещё": 6107,
      "игро": 6108,
      "чув": 6109,
      "ющих": 6110,
      "смотре": 6111,
      "кая": 6112,
      "ез": 6113,
      "un": 6114,
      "кое": 6115,
      "могу": 6116,
      "заме": 6117,
      "пози": 6118,
      "муж": 6119,
      "разви": 6120,
      "дно": 6121,
      "составля": 6122,
      "жение": 6123,
      "семь": 6124,
      "участ": 6125,
      "пода": 6126,
      "музы": 6127,
      "сейчас": 6128,
      "официаль": 6129,
      "основ": 6130,
      "de": 6131,
      "ат": 6132,
      "струк": 6133,
      "возможно": 6134,
      "ющие": 6135,
      "всего": 6136,
      "работ": 6137,
      "мате": 6138,
      "янва": 6139,
      "сказал": 6140,
      "шая": 6141,
      "инте": 6142,
      "защи": 6143,
      "стов": 6144,
      "оте": 6145,
      "занима": 6146,
      "ктор": 6147,
      "туры": 6148,
      "гор": 6149,
      "сбор": 6150,
      "дели": 6151,
      "шения": 6152,
      "кур": 6153,
      "своей": 6154,
      "23": 6155,
      "вклю": 6156,
      "одно": 6157,
      "ню": 6158,
      "цион": 6159,
      "эн": 6160,
      "части": 6161,
      "чной": 6162,
      "шли": 6163,
      "жур": 6164,
      "националь": 6165,
      "состав": 6166,
      "стои": 6167,
      "авгу": 6168,
      "переда": 6169,
      "случа": 6170,
      "ссср": 6171,
      "ством": 6172,
      "чего": 6173,
      "нтов": 6174,
      "ули": 6175,
      "санд": 6176,
      "тии": 6177,
      "свобо": 6178,
      "емы": 6179,
      "гене": 6180,
      "кси": 6181,
      "вол": 6182,
      "которая": 6183,
      "сня": 6184,
      "перед": 6185,
      "бира": 6186,
      "гро": 6187,
      "следу": 6188,
      "ших": 6189,
      "ion": 6190,
      "чемпиона": 6191,
      "24": 6192,
      "нец": 6193,
      "тета": 6194,
      "ём": 6195,
      "хов": 6196,
      "прав": 6197,
      "свою": 6198,
      "отве": 6199,
      "тий": 6200,
      "ra": 6201,
      "мор": 6202,
      "ter": 6203,
      "лишь": 6204,
      "участи": 6205,
      "моло": 6206,
      "тут": 6207,
      "истори": 6208,
      "эконо": 6209,
      "тай": 6210,
      "самы": 6211,
      "универси": 6212,
      "реши": 6213,
      "тирова": 6214,
      "тран": 6215,
      "феде": 6216,
      "фут": 6217,
      "нами": 6218,
      "цио": 6219,
      "спор": 6220,
      "мере": 6221,
      "сом": 6222,
      "ген": 6223,
      "международ": 6224,
      "вос": 6225,
      "кни": 6226,
      "ol": 6227,
      "щу": 6228,
      "ждения": 6229,
      "джа": 6230,
      "часть": 6231,
      "апре": 6232,
      "вил": 6233,
      "ность": 6234,
      "служ": 6235,
      "дии": 6236,
      "чен": 6237,
      "пара": 6238,
      "ранее": 6239,
      "призна": 6240,
      "жды": 6241,
      "обы": 6242,
      "администра": 6243,
      "данным": 6244,
      "вну": 6245,
      "глу": 6246,
      "кана": 6247,
      "сою": 6248,
      "км": 6249,
      "правитель": 6250,
      "щая": 6251,
      "значи": 6252,
      "александ": 6253,
      "учи": 6254,
      "тон": 6255,
      "став": 6256,
      "жил": 6257,
      "республи": 6258,
      "свои": 6259,
      "чина": 6260,
      "среди": 6261,
      "вом": 6262,
      "большо": 6263,
      "бло": 6264,
      "тей": 6265,
      "мон": 6266,
      "рам": 6267,
      "москов": 6268,
      "словам": 6269,
      "мов": 6270,
      "крас": 6271,
      "стей": 6272,
      "исследо": 6273,
      "войны": 6274,
      "нными": 6275,
      "отме": 6276,
      "ита": 6277,
      "вую": 6278,
      "меся": 6279,
      "шло": 6280,
      "ница": 6281,
      "вается": 6282,
      "ший": 6283,
      "расс": 6284,
      "шки": 6285,
      "долла": 6286,
      "of": 6287,
      "ческой": 6288,
      "руб": 6289,
      "заявил": 6290,
      "смер": 6291,
      "новле": 6292,
      "хотя": 6293,
      "ческих": 6294,
      "февра": 6295,
      "люби": 6296,
      "програм": 6297,
      "позво": 6298,
      "тот": 6299,
      "компании": 6300,
      "конце": 6301,
      "кова": 6302,
      "вшись": 6303,
      "история": 6304,
      "време": 6305,
      "две": 6306,
      "гражда": 6307,
      "друго": 6308,
      "ок": 6309,
      "оказа": 6310,
      "усло": 6311,
      "ография": 6312,
      "всех": 6313,
      "ed": 6314,
      "круп": 6315,
      "кло": 6316,
      "поддер": 6317,
      "ur": 6318,
      "ске": 6319,
      "поня": 6320,
      "влади": 6321,
      "блю": 6322,
      "тому": 6323,
      "проис": 6324,
      "которой": 6325,
      "тек": 6326,
      "ья": 6327,
      "ac": 6328,
      "шей": 6329,
      "тебе": 6330,
      "проек": 6331,
      "нский": 6332,
      "рье": 6333,
      "взгля": 6334,
      "ака": 6335,
      "ступи": 6336,
      "окон": 6337,
      "веро": 6338,
      "et": 6339,
      "нности": 6340,
      "слы": 6341,
      "льный": 6342,
      "источ": 6343,
      "онов": 6344,
      "совер": 6345,
      "двух": 6346,
      "вместе": 6347,
      "этой": 6348,
      "женщи": 6349,
      "бом": 6350,
      "дво": 6351,
      "худо": 6352,
      "ig": 6353,
      "успе": 6354,
      "испол": 6355,
      "вших": 6356,
      "26": 6357,
      "дома": 6358,
      "пунк": 6359,
      "гов": 6360,
      "щения": 6361,
      "and": 6362,
      "себе": 6363,
      "вести": 6364,
      "кроме": 6365,
      "дел": 6366,
      "строе": 6367,
      "жизни": 6368,
      "ях": 6369,
      "тие": 6370,
      "ана": 6371,
      "нение": 6372,
      "пом": 6373,
      "начала": 6374,
      "управле": 6375,
      "перь": 6376,
      "чле": 6377,
      "тить": 6378,
      "фон": 6379,
      "режи": 6380,
      "разу": 6381,
      "стать": 6382,
      "затем": 6383,
      "бере": 6384,
      "28": 6385,
      "мину": 6386,
      "зии": 6387,
      "архи": 6388,
      "вен": 6389,
      "пример": 6390,
      "2010": 6391,
      "января": 6392,
      "тогда": 6393,
      "ing": 6394,
      "оли": 6395,
      "нитель": 6396,
      "настоя": 6397,
      "бое": 6398,
      "районе": 6399,
      "теперь": 6400,
      "этому": 6401,
      "27": 6402,
      "рю": 6403,
      "первый": 6404,
      "бар": 6405,
      "зер": 6406,
      "дой": 6407,
      "стар": 6408,
      "строй": 6409,
      "нова": 6410,
      "50": 6411,
      "зде": 6412,
      "декабря": 6413,
      "верну": 6414,
      "вшие": 6415,
      "ничего": 6416,
      "бело": 6417,
      "хозя": 6418,
      "памя": 6419,
      "моби": 6420,
      "щение": 6421,
      "диви": 6422,
      "улыб": 6423,
      "ино": 6424,
      "июля": 6425,
      "зави": 6426,
      "марта": 6427,
      "мей": 6428,
      "льных": 6429,
      "нам": 6430,
      "льной": 6431,
      "ведения": 6432,
      "вин": 6433,
      "чему": 6434,
      "хоте": 6435,
      "спорт": 6436,
      "первые": 6437,
      "мин": 6438,
      "всегда": 6439,
      "льные": 6440,
      "сен": 6441,
      "май": 6442,
      "ким": 6443,
      "цен": 6444,
      "тысяч": 6445,
      "октября": 6446,
      "потом": 6447,
      "совета": 6448,
      "всем": 6449,
      "сро": 6450,
      "мпи": 6451,
      "ради": 6452,
      "показа": 6453,
      "кус": 6454,
      "вари": 6455,
      "насе": 6456,
      "гото": 6457,
      "скому": 6458,
      "нор": 6459,
      "времени": 6460,
      "сообщи": 6461,
      "сентября": 6462,
      "ожи": 6463,
      "ческого": 6464,
      "грани": 6465,
      "сол": 6466,
      "экс": 6467,
      "кино": 6468,
      "которого": 6469,
      "ави": 6470,
      "нин": 6471,
      "лег": 6472,
      "вид": 6473,
      "нах": 6474,
      "29": 6475,
      "лез": 6476,
      "дит": 6477,
      "страны": 6478,
      "форми": 6479,
      "долларов": 6480,
      "услови": 6481,
      "190": 6482,
      "доку": 6483,
      "профе": 6484,
      "тики": 6485,
      "la": 6486,
      "снова": 6487,
      "седа": 6488,
      "цией": 6489,
      "политиче": 6490,
      "второй": 6491,
      "августа": 6492,
      "дро": 6493,
      "ноября": 6494,
      "годы": 6495,
      "телем": 6496,
      "льного": 6497,
      "заня": 6498,
      "меди": 6499,
      "украины": 6500,
      "вают": 6501,
      "нес": 6502,
      "нном": 6503,
      "гло": 6504,
      "века": 6505,
      "июня": 6506,
      "ници": 6507,
      "своего": 6508,
      "скими": 6509,
      "стран": 6510,
      "произо": 6511,
      "няя": 6512,
      "сут": 6513,
      "шие": 6514,
      "чных": 6515,
      "ил": 6516,
      "рез": 6517,
      "других": 6518,
      "мол": 6519,
      "iv": 6520,
      "верх": 6521,
      "территории": 6522,
      "площа": 6523,
      "лин": 6524,
      "четы": 6525,
      "бю": 6526,
      "элект": 6527,
      "лья": 6528,
      "ер": 6529,
      "принима": 6530,
      "пада": 6531,
      "опре": 6532,
      "вшего": 6533,
      "шёл": 6534,
      "см": 6535,
      "инсти": 6536,
      "апреля": 6537,
      "миро": 6538,
      "тери": 6539,
      "деятельно": 6540,
      "след": 6541,
      "пута": 6542,
      "жной": 6543,
      "лай": 6544,
      "дово": 6545,
      "акаде": 6546,
      "эй": 6547,
      "стала": 6548,
      "включа": 6549,
      "почти": 6550,
      "полно": 6551,
      "банка": 6552,
      "свой": 6553,
      "дости": 6554,
      "аб": 6555,
      "получил": 6556,
      "харак": 6557,
      "взя": 6558,
      "шин": 6559,
      "соответ": 6560,
      "назна": 6561,
      "ia": 6562,
      "человека": 6563,
      "друг": 6564,
      "закры": 6565,
      "здесь": 6566,
      "награ": 6567,
      "север": 6568,
      "ток": 6569,
      "най": 6570,
      "гри": 6571,
      "футбо": 6572,
      "банк": 6573,
      "мости": 6574,
      "должно": 6575,
      "деся": 6576,
      "ожида": 6577,
      "нове": 6578,
      "пробле": 6579,
      "нула": 6580,
      "щих": 6581,
      "метров": 6582,
      "ровать": 6583,
      "ступ": 6584,
      "зву": 6585,
      "пасно": 6586,
      "годах": 6587,
      "российской": 6588,
      "джи": 6589,
      "нас": 6590,
      "лии": 6591,
      "im": 6592,
      "туа": 6593,
      "ог": 6594,
      "ником": 6595,
      "долж": 6596,
      "нил": 6597,
      "циали": 6598,
      "почему": 6599,
      "сон": 6600,
      "тал": 6601,
      "связа": 6602,
      "to": 6603,
      "нью": 6604,
      "население": 6605,
      "щий": 6606,
      "вался": 6607,
      "ляр": 6608,
      "выше": 6609,
      "актив": 6610,
      "чей": 6611,
      "сере": 6612,
      "тора": 6613,
      "находится": 6614,
      "ведь": 6615,
      "2009": 6616,
      "рублей": 6617,
      "связи": 6618,
      "ссе": 6619,
      "гар": 6620,
      "коли": 6621,
      "2008": 6622,
      "строитель": 6623,
      "работы": 6624,
      "дина": 6625,
      "пусти": 6626,
      "очере": 6627,
      "мом": 6628,
      "рё": 6629,
      "чный": 6630,
      "отмеча": 6631,
      "един": 6632,
      "ческие": 6633,
      "шего": 6634,
      "ne": 6635,
      "понима": 6636,
      "оборо": 6637,
      "пись": 6638,
      "роль": 6639,
      "пал": 6640,
      "воро": 6641,
      "февраля": 6642,
      "зве": 6643,
      "ясь": 6644,
      "сим": 6645,
      "тря": 6646,
      "продолжа": 6647,
      "село": 6648,
      "авиа": 6649,
      "сю": 6650,
      "дело": 6651,
      "аге": 6652,
      "ческий": 6653,
      "появи": 6654,
      "будут": 6655,
      "англи": 6656,
      "способ": 6657,
      "сайте": 6658,
      "населё": 6659,
      "каз": 6660,
      "обви": 6661,
      "многи": 6662,
      "необ": 6663,
      "могут": 6664,
      "мед": 6665,
      "группы": 6666,
      "составе": 6667,
      "запад": 6668,
      "мыш": 6669,
      "2011": 6670,
      "туре": 6671,
      "девушка": 6672,
      "президент": 6673,
      "степе": 6674,
      "силь": 6675,
      "спро": 6676,
      "финан": 6677,
      "прин": 6678,
      "сохра": 6679,
      "нную": 6680,
      "дия": 6681,
      "куда": 6682,
      "ватель": 6683,
      "ходе": 6684,
      "тет": 6685,
      "безо": 6686,
      "холо": 6687,
      "хозяй": 6688,
      "согласно": 6689,
      "прода": 6690,
      "100": 6691,
      "lo": 6692,
      "юсь": 6693,
      "написа": 6694,
      "id": 6695,
      "стало": 6696,
      "искус": 6697,
      "долго": 6698,
      "одной": 6699,
      "2012": 6700,
      "направле": 6701,
      "ива": 6702,
      "ссии": 6703,
      "низ": 6704,
      "нок": 6705,
      "щее": 6706,
      "сона": 6707,
      "проти": 6708,
      "своих": 6709,
      "пять": 6710,
      "поги": 6711,
      "качестве": 6712,
      "тах": 6713,
      "деревня": 6714,
      "тар": 6715,
      "тами": 6716,
      "иск": 6717,
      "изи": 6718,
      "чил": 6719,
      "возду": 6720,
      "зре": 6721,
      "стри": 6722,
      "помощ": 6723,
      "участие": 6724,
      "дире": 6725,
      "решение": 6726,
      "носи": 6727,
      "результате": 6728,
      "пой": 6729,
      "сра": 6730,
      "поддерж": 6731,
      "нка": 6732,
      "2014": 6733,
      "именно": 6734,
      "ваться": 6735,
      "40": 6736,
      "поте": 6737,
      "bo": 6738,
      "населения": 6739,
      "отли": 6740,
      "готов": 6741,
      "зависи": 6742,
      "необходи": 6743,
      "стали": 6744,
      "пен": 6745,
      "городе": 6746,
      "све": 6747,
      "маль": 6748,
      "рах": 6749,
      "интере": 6750,
      "лик": 6751,
      "рф": 6752,
      "лежа": 6753,
      "потре": 6754,
      "бов": 6755,
      "чка": 6756,
      "реки": 6757,
      "собра": 6758,
      "стороны": 6759,
      "зако": 6760,
      "производ": 6761,
      "ющего": 6762,
      "плани": 6763,
      "твер": 6764,
      "украин": 6765,
      "надо": 6766,
      "жела": 6767,
      "точно": 6768,
      "власти": 6769,
      "сум": 6770,
      "шим": 6771,
      "административ": 6772,
      "ma": 6773,
      "золо": 6774,
      "олимпи": 6775,
      "рую": 6776,
      "рядом": 6777,
      "собой": 6778,
      "период": 6779,
      "ен": 6780,
      "истории": 6781,
      "стой": 6782,
      "189": 6783,
      "пей": 6784,
      "слав": 6785,
      "еха": 6786,
      "ствует": 6787,
      "ir": 6788,
      "которое": 6789,
      "заклю": 6790,
      "пли": 6791,
      "тки": 6792,
      "выбо": 6793,
      "пора": 6794,
      "сегод": 6795,
      "отноше": 6796,
      "ющей": 6797,
      "сегодня": 6798,
      "утвер": 6799,
      "ктора": 6800,
      "охра": 6801,
      "клад": 6802,
      "сце": 6803,
      "сне": 6804,
      "нность": 6805,
      "руки": 6806,
      "писи": 6807,
      "ган": 6808,
      "2007": 6809,
      "te": 6810,
      "называ": 6811,
      "миха": 6812,
      "внима": 6813,
      "комна": 6814,
      "скры": 6815,
      "другие": 6816,
      "расположе": 6817,
      "лев": 6818,
      "чество": 6819,
      "жизнь": 6820,
      "тный": 6821,
      "выпол": 6822,
      "ито": 6823,
      "ясни": 6824,
      "такой": 6825,
      "кора": 6826,
      "музыка": 6827,
      "квар": 6828,
      "федера": 6829,
      "агент": 6830,
      "чные": 6831,
      "2015": 6832,
      "петер": 6833,
      "тяже": 6834,
      "зада": 6835,
      "хода": 6836,
      "дней": 6837,
      "вере": 6838,
      "зации": 6839,
      "аре": 6840,
      "жить": 6841,
      "комму": 6842,
      "поле": 6843,
      "литература": 6844,
      "имени": 6845,
      "использо": 6846,
      "оп": 6847,
      "началь": 6848,
      "чного": 6849,
      "ред": 6850,
      "момент": 6851,
      "пожа": 6852,
      "игры": 6853,
      "центра": 6854,
      "дре": 6855,
      "поселе": 6856,
      "ябре": 6857,
      "мец": 6858,
      "ёт": 6859,
      "приз": 6860,
      "вало": 6861,
      "тоже": 6862,
      "2013": 6863,
      "составляет": 6864,
      "закон": 6865,
      "ори": 6866,
      "акт": 6867,
      "ствовал": 6868,
      "компания": 6869,
      "начале": 6870,
      "нуть": 6871,
      "тый": 6872,
      "электро": 6873,
      "япо": 6874,
      "um": 6875,
      "эр": 6876,
      "коле": 6877,
      "оде": 6878,
      "ствия": 6879,
      "свет": 6880,
      "мень": 6881,
      "стр": 6882,
      "матиче": 6883,
      "биография": 6884,
      "нить": 6885,
      "безопасно": 6886,
      "лла": 6887,
      "ent": 6888,
      "пала": 6889,
      "жё": 6890,
      "игроки": 6891,
      "суд": 6892,
      "генера": 6893,
      "2006": 6894,
      "название": 6895,
      "бург": 6896,
      "губер": 6897,
      "обеспе": 6898,
      "уров": 6899,
      "людей": 6900,
      "цей": 6901,
      "2016": 6902,
      "удо": 6903,
      "ситуа": 6904,
      "наи": 6905,
      "различ": 6906,
      "герма": 6907,
      "спу": 6908,
      "чки": 6909,
      "сами": 6910,
      "бай": 6911,
      "ie": 6912,
      "паль": 6913,
      "карье": 6914,
      "республики": 6915,
      "депута": 6916,
      "ост": 6917,
      "треть": 6918,
      "шен": 6919,
      "se": 6920,
      "коне": 6921,
      "причи": 6922,
      "ющим": 6923,
      "шую": 6924,
      "скоре": 6925,
      "правля": 6926,
      "посе": 6927,
      "держи": 6928,
      "дне": 6929,
      "логии": 6930,
      "одна": 6931,
      "ье": 6932,
      "сила": 6933,
      "зов": 6934,
      "вери": 6935,
      "вода": 6936,
      "никогда": 6937,
      "ad": 6938,
      "ванием": 6939,
      "сок": 6940,
      "маши": 6941,
      "процентов": 6942,
      "представля": 6943,
      "обнару": 6944,
      "влия": 6945,
      "физи": 6946,
      "президента": 6947,
      "ph": 6948,
      "особе": 6949,
      "фро": 6950,
      "россия": 6951,
      "турни": 6952,
      "деля": 6953,
      "газ": 6954,
      "щего": 6955,
      "лий": 6956,
      "францу": 6957,
      "обя": 6958,
      "кую": 6959,
      "мене": 6960,
      "рок": 6961,
      "таким": 6962,
      "потому": 6963,
      "веду": 6964,
      "миллиар": 6965,
      "60": 6966,
      "мона": 6967,
      "рели": 6968,
      "соеди": 6969,
      "использу": 6970,
      "ложение": 6971,
      "дня": 6972,
      "тол": 6973,
      "одного": 6974,
      "вай": 6975,
      "фото": 6976,
      "ум": 6977,
      "университета": 6978,
      "немец": 6979,
      "встреча": 6980,
      "служи": 6981,
      "поэтому": 6982,
      "котором": 6983,
      "начал": 6984,
      "тая": 6985,
      "фра": 6986,
      "iii": 6987,
      "бежа": 6988,
      "уди": 6989,
      "ката": 6990,
      "район": 6991,
      "зад": 6992,
      "рин": 6993,
      "ницы": 6994,
      "премь": 6995,
      "материа": 6996,
      "роли": 6997,
      "мог": 6998,
      "специаль": 6999,
      "стоит": 7000,
      "фильм": 7001,
      "энер": 7002,
      "быстро": 7003,
      "матри": 7004,
      "фло": 7005,
      "вить": 7006,
      "возвра": 7007,
      "частности": 7008,
      "музе": 7009,
      "подоб": 7010,
      "убий": 7011,
      "распро": 7012,
      "гей": 7013,
      "места": 7014,
      "обяза": 7015,
      "яр": 7016,
      "дал": 7017,
      "руковод": 7018,
      "широ": 7019,
      "вед": 7020,
      "благода": 7021,
      "лон": 7022,
      "ственный": 7023,
      "щие": 7024,
      "рами": 7025,
      "часто": 7026,
      "капи": 7027,
      "рования": 7028,
      "фри": 7029,
      "печа": 7030,
      "кажды": 7031,
      "диа": 7032,
      "теа": 7033,
      "подня": 7034,
      "заявле": 7035,
      "ждение": 7036,
      "британ": 7037,
      "группа": 7038,
      "2000": 7039,
      "ект": 7040,
      "нё": 7041,
      "организации": 7042,
      "журна": 7043,
      "нен": 7044,
      "красно": 7045,
      "голов": 7046,
      "фика": 7047,
      "ag": 7048,
      "лый": 7049,
      "автомоби": 7050,
      "ступле": 7051,
      "худож": 7052,
      "трен": 7053,
      "эль": 7054,
      "одним": 7055,
      "проводи": 7056,
      "лицо": 7057,
      "тю": 7058,
      "четыре": 7059,
      "первой": 7060,
      "проду": 7061,
      "завер": 7062,
      "мость": 7063,
      "2005": 7064,
      "фер": 7065,
      "кали": 7066,
      "казыва": 7067,
      "хорошо": 7068,
      "основа": 7069,
      "прак": 7070,
      "сразу": 7071,
      "рует": 7072,
      "новый": 7073,
      "прово": 7074,
      "разме": 7075,
      "ut": 7076,
      "расте": 7077,
      "отделе": 7078,
      "помина": 7079,
      "специали": 7080,
      "188": 7081,
      "вопрос": 7082,
      "ствии": 7083,
      "объек": 7084,
      "наде": 7085,
      "2002": 7086,
      "тихо": 7087,
      "уро": 7088,
      "свое": 7089,
      "воору": 7090,
      "ствие": 7091,
      "смотря": 7092,
      "мия": 7093,
      "вел": 7094,
      "дох": 7095,
      "тных": 7096,
      "тика": 7097,
      "аэ": 7098,
      "задержа": 7099,
      "муници": 7100,
      "pr": 7101,
      "образом": 7102,
      "имеет": 7103,
      "слыша": 7104,
      "ному": 7105,
      "стол": 7106,
      "восста": 7107,
      "должен": 7108,
      "сез": 7109,
      "руководи": 7110,
      "социаль": 7111,
      "армии": 7112,
      "испа": 7113,
      "работал": 7114,
      "рамках": 7115,
      "либо": 7116,
      "олимпий": 7117,
      "кура": 7118,
      "2004": 7119,
      "впервые": 7120,
      "поме": 7121,
      "председа": 7122,
      "компле": 7123,
      "ква": 7124,
      "иль": 7125,
      "жных": 7126,
      "годов": 7127,
      "предпо": 7128,
      "эт": 7129,
      "миллионов": 7130,
      "течение": 7131,
      "праз": 7132,
      "сколь": 7133,
      "пресс": 7134,
      "тила": 7135,
      "большой": 7136,
      "экономи": 7137,
      "централь": 7138,
      "француз": 7139,
      "экономиче": 7140,
      "мм": 7141,
      "отказа": 7142,
      "геро": 7143,
      "com": 7144,
      "партии": 7145,
      "мало": 7146,
      "скоро": 7147,
      "институ": 7148,
      "лок": 7149,
      "наблю": 7150,
      "нужно": 7151,
      "2017": 7152,
      "лад": 7153,
      "опубли": 7154,
      "лета": 7155,
      "кило": 7156,
      "град": 7157,
      "серд": 7158,
      "мужчи": 7159,
      "гон": 7160,
      "види": 7161,
      "неф": 7162,
      "мышле": 7163,
      "оконча": 7164,
      "круг": 7165,
      "цов": 7166,
      "техниче": 7167,
      "голос": 7168,
      "ай": 7169,
      "желез": 7170,
      "гии": 7171,
      "31": 7172,
      "лле": 7173,
      "получа": 7174,
      "секре": 7175,
      "оди": 7176,
      "рода": 7177,
      "действия": 7178,
      "ce": 7179,
      "умер": 7180,
      "постоя": 7181,
      "шение": 7182,
      "тых": 7183,
      "относи": 7184,
      "спек": 7185,
      "ation": 7186,
      "чёт": 7187,
      "зво": 7188,
      "нар": 7189,
      "дми": 7190,
      "управления": 7191,
      "безопасности": 7192,
      "начина": 7193,
      "ственной": 7194,
      "нему": 7195,
      "вов": 7196,
      "2018": 7197,
      "бал": 7198,
      "тради": 7199,
      "кня": 7200,
      "анти": 7201,
      "доба": 7202,
      "ственных": 7203,
      "вале": 7204,
      "известно": 7205,
      "сове": 7206,
      "процента": 7207,
      "александр": 7208,
      "эту": 7209,
      "гам": 7210,
      "экспер": 7211,
      "имя": 7212,
      "описа": 7213,
      "тые": 7214,
      "po": 7215,
      "журнали": 7216,
      "этих": 7217,
      "тили": 7218,
      "паре": 7219,
      "права": 7220,
      "менты": 7221,
      "попу": 7222,
      "победи": 7223,
      "фак": 7224,
      "буд": 7225,
      "кви": 7226,
      "глава": 7227,
      "ix": 7228,
      "шком": 7229,
      "ффе": 7230,
      "юго": 7231,
      "шно": 7232,
      "такие": 7233,
      "техно": 7234,
      "so": 7235,
      "новой": 7236,
      "do": 7237,
      "вшей": 7238,
      "москве": 7239,
      "дали": 7240,
      "этим": 7241,
      "принад": 7242,
      "кнул": 7243,
      "своим": 7244,
      "велико": 7245,
      "лит": 7246,
      "нена": 7247,
      "северо": 7248,
      "персона": 7249,
      "времен": 7250,
      "обре": 7251,
      "тельной": 7252,
      "обеща": 7253,
      "35": 7254,
      "мах": 7255,
      "центр": 7256,
      "пят": 7257,
      "давно": 7258,
      "вили": 7259,
      "щен": 7260,
      "щей": 7261,
      "щую": 7262,
      "пыт": 7263,
      "187": 7264,
      "евич": 7265,
      "возгла": 7266,
      "sp": 7267,
      "лам": 7268,
      "запре": 7269,
      "граждан": 7270,
      "съ": 7271,
      "менее": 7272,
      "ваний": 7273,
      "ul": 7274,
      "противо": 7275,
      "двер": 7276,
      "син": 7277,
      "смерти": 7278,
      "пали": 7279,
      "сборной": 7280,
      "ристи": 7281,
      "распростра": 7282,
      "огра": 7283,
      "собы": 7284,
      "союза": 7285,
      "ночь": 7286,
      "иде": 7287,
      "культур": 7288,
      "деньги": 7289,
      "которую": 7290,
      "чуть": 7291,
      "чная": 7292,
      "тео": 7293,
      "лучше": 7294,
      "карти": 7295,
      "уз": 7296,
      "случае": 7297,
      "юри": 7298,
      "ближа": 7299,
      "федерации": 7300,
      "информации": 7301,
      "владимир": 7302,
      "новости": 7303,
      "пользова": 7304,
      "фк": 7305,
      "чик": 7306,
      "дон": 7307,
      "xv": 7308,
      "вей": 7309,
      "бир": 7310,
      "ева": 7311,
      "использова": 7312,
      "близ": 7313,
      "отечестве": 7314,
      "демо": 7315,
      "лень": 7316,
      "родился": 7317,
      "европей": 7318,
      "шку": 7319,
      "кин": 7320,
      "лица": 7321,
      "анали": 7322,
      "нулась": 7323,
      "ap": 7324,
      "гом": 7325,
      "сад": 7326,
      "входит": 7327,
      "mo": 7328,
      "допол": 7329,
      "каж": 7330,
      "посмотре": 7331,
      "ун": 7332,
      "выми": 7333,
      "регу": 7334,
      "люди": 7335,
      "чить": 7336,
      "дале": 7337,
      "жили": 7338,
      "жный": 7339,
      "ственного": 7340,
      "несколь": 7341,
      "дю": 7342,
      "настоящее": 7343,
      "расска": 7344,
      "джон": 7345,
      "увиде": 7346,
      "ri": 7347,
      "другой": 7348,
      "паде": 7349,
      "пси": 7350,
      "мето": 7351,
      "зирова": 7352,
      "тельный": 7353,
      "семей": 7354,
      "кер": 7355,
      "подтвер": 7356,
      "увели": 7357,
      "автор": 7358,
      "продук": 7359,
      "мого": 7360,
      "министер": 7361,
      "хан": 7362,
      "2001": 7363,
      "пункты": 7364,
      "брита": 7365,
      "двига": 7366,
      "вались": 7367,
      "поку": 7368,
      "проект": 7369,
      "зло": 7370,
      "тельства": 7371,
      "li": 7372,
      "каждый": 7373,
      "волю": 7374,
      "ён": 7375,
      "внутрен": 7376,
      "2003": 7377,
      "реда": 7378,
      "некоторые": 7379,
      "док": 7380,
      "равно": 7381,
      "учё": 7382,
      "реаль": 7383,
      "орде": 7384,
      "слишком": 7385,
      "спокой": 7386,
      "немного": 7387,
      "например": 7388,
      "твор": 7389,
      "выпуск": 7390,
      "альбо": 7391,
      "жо": 7392,
      "борь": 7393,
      "ru": 7394,
      "ющая": 7395,
      "весь": 7396,
      "чай": 7397,
      "голову": 7398,
      "дной": 7399,
      "новь": 7400,
      "эм": 7401,
      "ата": 7402,
      "ht": 7403,
      "нра": 7404,
      "системы": 7405,
      "функ": 7406,
      "клуб": 7407,
      "какой": 7408,
      "зь": 7409,
      "минут": 7410,
      "уси": 7411,
      "церков": 7412,
      "лл": 7413,
      "рома": 7414,
      "пов": 7415,
      "изра": 7416,
      "ждё": 7417,
      "оно": 7418,
      "вшая": 7419,
      "уч": 7420,
      "команды": 7421,
      "совреме": 7422,
      "xx": 7423,
      "рёх": 7424,
      "газе": 7425,
      "ступа": 7426,
      "da": 7427,
      "чие": 7428,
      "знаю": 7429,
      "памят": 7430,
      "похо": 7431,
      "ап": 7432,
      "облада": 7433,
      "собира": 7434,
      "шед": 7435,
      "работу": 7436,
      "соверше": 7437,
      "муще": 7438,
      "гами": 7439,
      "хочу": 7440,
      "no": 7441,
      "конечно": 7442,
      "сказать": 7443,
      "йти": 7444,
      "требо": 7445,
      "никола": 7446,
      "вновь": 7447,
      "преду": 7448,
      "взгляд": 7449,
      "никами": 7450,
      "находя": 7451,
      "представле": 7452,
      "вок": 7453,
      "франции": 7454,
      "80": 7455,
      "рию": 7456,
      "парла": 7457,
      "москвы": 7458,
      "выра": 7459,
      "ними": 7460,
      "ческая": 7461,
      "зоне": 7462,
      "кос": 7463,
      "подписа": 7464,
      "парень": 7465,
      "театра": 7466,
      "указа": 7467,
      "стана": 7468,
      "российский": 7469,
      "ницу": 7470,
      "макси": 7471,
      "проте": 7472,
      "дида": 7473,
      "догово": 7474,
      "000": 7475,
      "бель": 7476,
      "вообще": 7477,
      "граф": 7478,
      "будь": 7479,
      "коллек": 7480,
      "назад": 7481,
      "реа": 7482,
      "тически": 7483,
      "оз": 7484,
      "руку": 7485,
      "друга": 7486,
      "кварти": 7487,
      "освобо": 7488,
      "пос": 7489,
      "сторон": 7490,
      "четвер": 7491,
      "санкт": 7492,
      "лые": 7493,
      "союз": 7494,
      "совсем": 7495,
      "подчер": 7496,
      "объеди": 7497,
      "езда": 7498,
      "видео": 7499,
      "компози": 7500,
      "выс": 7501,
      "2022": 7502,
      "советский": 7503,
      "ci": 7504,
      "жные": 7505,
      "ard": 7506,
      "отра": 7507,
      "дий": 7508,
      "вд": 7509,
      "стату": 7510,
      "существо": 7511,
      "кандида": 7512,
      "ото": 7513,
      "выда": 7514,
      "езд": 7515,
      "ho": 7516,
      "бес": 7517,
      "кса": 7518,
      "список": 7519,
      "сообщил": 7520,
      "позже": 7521,
      "мас": 7522,
      "верхов": 7523,
      "оружи": 7524,
      "ныне": 7525,
      "стати": 7526,
      "сказала": 7527,
      "шет": 7528,
      "вида": 7529,
      "186": 7530,
      "чал": 7531,
      "чёр": 7532,
      "воды": 7533,
      "ир": 7534,
      "2019": 7535,
      "формирова": 7536,
      "70": 7537,
      "кредит": 7538,
      "взры": 7539,
      "шее": 7540,
      "ссыл": 7541,
      "фигу": 7542,
      "тельных": 7543,
      "нув": 7544,
      "джо": 7545,
      "be": 7546,
      "стом": 7547,
      "исклю": 7548,
      "отправи": 7549,
      "сче": 7550,
      "зом": 7551,
      "фило": 7552,
      "пари": 7553,
      "такое": 7554,
      "сми": 7555,
      "великобрита": 7556,
      "разработ": 7557,
      "лист": 7558,
      "населённые": 7559,
      "плат": 7560,
      "являются": 7561,
      "мнению": 7562,
      "нина": 7563,
      "самого": 7564,
      "кара": 7565,
      "биз": 7566,
      "ходят": 7567,
      "професси": 7568,
      "лой": 7569,
      "региона": 7570,
      "таких": 7571,
      "количество": 7572,
      "нового": 7573,
      "малень": 7574,
      "хар": 7575,
      "метра": 7576,
      "дмитри": 7577,
      "сообще": 7578,
      "отдель": 7579,
      "должны": 7580,
      "москва": 7581,
      "гг": 7582,
      "законо": 7583,
      "узна": 7584,
      "ологи": 7585,
      "сериа": 7586,
      "дере": 7587,
      "команди": 7588,
      "никто": 7589,
      "ess": 7590,
      "мари": 7591,
      "хотел": 7592,
      "мимо": 7593,
      "предприя": 7594,
      "построе": 7595,
      "прошло": 7596,
      "удалось": 7597,
      "дил": 7598,
      "медици": 7599,
      "библи": 7600,
      "пути": 7601,
      "благо": 7602,
      "слуша": 7603,
      "дри": 7604,
      "содержа": 7605,
      "прожи": 7606,
      "валась": 7607,
      "позволя": 7608,
      "федераль": 7609,
      "куб": 7610,
      "новые": 7611,
      "ланд": 7612,
      "бас": 7613,
      "дить": 7614,
      "правда": 7615,
      "поро": 7616,
      "режисс": 7617,
      "чо": 7618,
      "детей": 7619,
      "гос": 7620,
      "особенно": 7621,
      "замести": 7622,
      "цами": 7623,
      "министр": 7624,
      "обычно": 7625,
      "прекра": 7626,
      "эффе": 7627,
      "ta": 7628,
      "вернулся": 7629,
      "член": 7630,
      "отметил": 7631,
      "округа": 7632,
      "предло": 7633,
      "словно": 7634,
      "45": 7635,
      "иска": 7636,
      "пет": 7637,
      "бен": 7638,
      "второ": 7639,
      "1990": 7640,
      "жена": 7641,
      "приме": 7642,
      "мага": 7643,
      "образования": 7644,
      "тали": 7645,
      "военно": 7646,
      "мель": 7647,
      "дис": 7648,
      "деб": 7649,
      "край": 7650,
      "вам": 7651,
      "китай": 7652,
      "новых": 7653,
      "многие": 7654,
      "германии": 7655,
      "2020": 7656,
      "церкви": 7657,
      "пру": 7658,
      "лых": 7659,
      "академии": 7660,
      "епи": 7661,
      "ведом": 7662,
      "куро": 7663,
      "мое": 7664,
      "предоста": 7665,
      "мире": 7666,
      "большин": 7667,
      "терро": 7668,
      "for": 7669,
      "финансо": 7670,
      "потеря": 7671,
      "жителей": 7672,
      "нович": 7673,
      "культуры": 7674,
      "ниц": 7675,
      "лем": 7676,
      "ers": 7677,
      "ваются": 7678,
      "жется": 7679,
      "емых": 7680,
      "ара": 7681,
      "стен": 7682,
      "европы": 7683,
      "me": 7684,
      "чар": 7685,
      "бит": 7686,
      "сын": 7687,
      "несмотря": 7688,
      "тельные": 7689,
      "станции": 7690,
      "независи": 7691,
      "ющее": 7692,
      "данные": 7693,
      "зма": 7694,
      "одо": 7695,
      "ментов": 7696,
      "дыха": 7697,
      "ниях": 7698,
      "празд": 7699,
      "ближай": 7700,
      "казах": 7701,
      "тельного": 7702,
      "мной": 7703,
      "генерал": 7704,
      "площадь": 7705,
      "вече": 7706,
      "установле": 7707,
      "вли": 7708,
      "профессо": 7709,
      "доступ": 7710,
      "полностью": 7711,
      "ведение": 7712,
      "1999": 7713,
      "выз": 7714,
      "погиб": 7715,
      "new": 7716,
      "изобра": 7717,
      "службы": 7718,
      "зия": 7719,
      "брать": 7720,
      "кле": 7721,
      "сама": 7722,
      "кате": 7723,
      "заста": 7724,
      "импера": 7725,
      "утвержда": 7726,
      "io": 7727,
      "поки": 7728,
      "осуще": 7729,
      "государства": 7730,
      "тик": 7731,
      "вокруг": 7732,
      "лиде": 7733,
      "сыгра": 7734,
      "телями": 7735,
      "защит": 7736,
      "наук": 7737,
      "региональ": 7738,
      "нили": 7739,
      "премьер": 7740,
      "вила": 7741,
      "спорта": 7742,
      "нику": 7743,
      "тка": 7744,
      "объяви": 7745,
      "уточ": 7746,
      "втор": 7747,
      "бора": 7748,
      "посколь": 7749,
      "оце": 7750,
      "наиболее": 7751,
      "дова": 7752,
      "сфе": 7753,
      "поселения": 7754,
      "лко": 7755,
      "ровал": 7756,
      "станови": 7757,
      "лях": 7758,
      "внеш": 7759,
      "школы": 7760,
      "тился": 7761,
      "первого": 7762,
      "англий": 7763,
      "цель": 7764,
      "сайт": 7765,
      "реме": 7766,
      "еписко": 7767,
      "сделать": 7768,
      "движения": 7769,
      "реали": 7770,
      "степени": 7771,
      "горя": 7772,
      "ряда": 7773,
      "сельского": 7774,
      "промышле": 7775,
      "древ": 7776,
      "примерно": 7777,
      "полови": 7778,
      "шах": 7779,
      "думал": 7780,
      "ходил": 7781,
      "рс": 7782,
      "которым": 7783,
      "гна": 7784,
      "будто": 7785,
      "акти": 7786,
      "риаль": 7787,
      "фильмы": 7788,
      "руется": 7789,
      "кун": 7790,
      "меха": 7791,
      "аэро": 7792,
      "форм": 7793,
      "дать": 7794,
      "поскольку": 7795,
      "сторону": 7796,
      "правительства": 7797,
      "учре": 7798,
      "чества": 7799,
      "нескольких": 7800,
      "препода": 7801,
      "сср": 7802,
      "медле": 7803,
      "конф": 7804,
      "боро": 7805,
      "дверь": 7806,
      "демон": 7807,
      "жей": 7808,
      "бол": 7809,
      "попро": 7810,
      "рази": 7811,
      "90": 7812,
      "представители": 7813,
      "ам": 7814,
      "бок": 7815,
      "позд": 7816,
      "нера": 7817,
      "вес": 7818,
      "колле": 7819,
      "пост": 7820,
      "устрой": 7821,
      "ствовать": 7822,
      "совмест": 7823,
      "решил": 7824,
      "останови": 7825,
      "чемпионата": 7826,
      "звез": 7827,
      "села": 7828,
      "поступи": 7829,
      "отсут": 7830,
      "мэ": 7831,
      "отношения": 7832,
      "шем": 7833,
      "мак": 7834,
      "суб": 7835,
      "тё": 7836,
      "36": 7837,
      "поряд": 7838,
      "производи": 7839,
      "выступа": 7840,
      "сердце": 7841,
      "живот": 7842,
      "това": 7843,
      "зам": 7844,
      "сед": 7845,
      "зай": 7846,
      "чным": 7847,
      "сек": 7848,
      "имуще": 7849,
      "пяти": 7850,
      "go": 7851,
      "захва": 7852,
      "нки": 7853,
      "отечественной": 7854,
      "суда": 7855,
      "класси": 7856,
      "деятельность": 7857,
      "развития": 7858,
      "играл": 7859,
      "включая": 7860,
      "ct": 7861,
      "бля": 7862,
      "оши": 7863,
      "изме": 7864,
      "пуска": 7865,
      "дор": 7866,
      "водо": 7867,
      "судь": 7868,
      "кажется": 7869,
      "художе": 7870,
      "ge": 7871,
      "торы": 7872,
      "клуба": 7873,
      "королев": 7874,
      "вспо": 7875,
      "столи": 7876,
      "заслу": 7877,
      "вся": 7878,
      "еты": 7879,
      "ствен": 7880,
      "кров": 7881,
      "наконец": 7882,
      "пове": 7883,
      "миллиона": 7884,
      "всю": 7885,
      "уго": 7886,
      "парта": 7887,
      "стно": 7888,
      "нос": 7889,
      "импе": 7890,
      "вас": 7891,
      "37": 7892,
      "представитель": 7893,
      "посвя": 7894,
      "ниж": 7895,
      "кому": 7896,
      "любов": 7897,
      "жного": 7898,
      "вза": 7899,
      "джей": 7900,
      "жан": 7901,
      "версии": 7902,
      "чку": 7903,
      "тала": 7904,
      "транспорт": 7905,
      "ревно": 7906,
      "дене": 7907,
      "возмо": 7908,
      "воду": 7909,
      "радио": 7910,
      "таль": 7911,
      "оцен": 7912,
      "число": 7913,
      "деятельности": 7914,
      "ber": 7915,
      "предполага": 7916,
      "пти": 7917,
      "первым": 7918,
      "услу": 7919,
      "ферен": 7920,
      "избра": 7921,
      "еже": 7922,
      "национальной": 7923,
      "тело": 7924,
      "пишет": 7925,
      "ственные": 7926,
      "последний": 7927,
      "привле": 7928,
      "улыба": 7929,
      "тной": 7930,
      "мили": 7931,
      "185": 7932,
      "ссылкой": 7933,
      "сколько": 7934,
      "система": 7935,
      "мать": 7936,
      "ческое": 7937,
      "man": 7938,
      "поце": 7939,
      "часов": 7940,
      "кими": 7941,
      "провер": 7942,
      "тию": 7943,
      "тике": 7944,
      "популяр": 7945,
      "общи": 7946,
      "жит": 7947,
      "38": 7948,
      "войска": 7949,
      "абсо": 7950,
      "навер": 7951,
      "кал": 7952,
      "эп": 7953,
      "зав": 7954,
      "прямо": 7955,
      "угро": 7956,
      "корпу": 7957,
      "ствуют": 7958,
      "рим": 7959,
      "улица": 7960,
      "мои": 7961,
      "проекта": 7962,
      "48": 7963,
      "ленин": 7964,
      "провин": 7965,
      "жерт": 7966,
      "вии": 7967,
      "иногда": 7968,
      "условия": 7969,
      "темпера": 7970,
      "хом": 7971,
      "фильма": 7972,
      "технологи": 7973,
      "остро": 7974,
      "1941": 7975,
      "ваясь": 7976,
      "подро": 7977,
      "серь": 7978,
      "расследо": 7979,
      "меч": 7980,
      "холод": 7981,
      "команду": 7982,
      "абсолю": 7983,
      "требу": 7984,
      "лог": 7985,
      "постра": 7986,
      "вании": 7987,
      "перво": 7988,
      "оба": 7989,
      "жении": 7990,
      "фили": 7991,
      "контра": 7992,
      "смотри": 7993,
      "брю": 7994,
      "1945": 7995,
      "револю": 7996,
      "ложения": 7997,
      "зан": 7998,
      "вскоре": 7999,
      "последние": 8000,
      "тельным": 8001,
      "спортив": 8002,
      "тым": 8003,
      "зин": 8004,
      "великой": 8005,
      "цвет": 8006,
      "земли": 8007,
      "вшиеся": 8008,
      "недель": 8009,
      "разделе": 8010,
      "стране": 8011,
      "вышел": 8012,
      "льная": 8013,
      "медаль": 8014,
      "льное": 8015,
      "mar": 8016,
      "уме": 8017,
      "объя": 8018,
      "фан": 8019,
      "фици": 8020,
      "вления": 8021,
      "подозре": 8022,
      "дипло": 8023,
      "лично": 8024,
      "типа": 8025,
      "современ": 8026,
      "мс": 8027,
      "ist": 8028,
      "вшим": 8029,
      "каби": 8030,
      "положи": 8031,
      "опа": 8032,
      "обсу": 8033,
      "каса": 8034,
      "og": 8035,
      "расстоя": 8036,
      "кафе": 8037,
      "характери": 8038,
      "вит": 8039,
      "дево": 8040,
      "вича": 8041,
      "хоче": 8042,
      "иностра": 8043,
      "роман": 8044,
      "брь": 8045,
      "чное": 8046,
      "нев": 8047,
      "валось": 8048,
      "нному": 8049,
      "бил": 8050,
      "сергей": 8051,
      "yo": 8052,
      "каме": 8053,
      "спаси": 8054,
      "конца": 8055,
      "благодаря": 8056,
      "подготов": 8057,
      "нит": 8058,
      "краси": 8059,
      "чном": 8060,
      "маги": 8061,
      "брат": 8062,
      "ограниче": 8063,
      "решения": 8064,
      "внимание": 8065,
      "чает": 8066,
      "зри": 8067,
      "1998": 8068,
      "коль": 8069,
      "сор": 8070,
      "государственного": 8071,
      "карту": 8072,
      "убе": 8073,
      "est": 8074,
      "скри": 8075,
      "34": 8076,
      "реша": 8077,
      "ционе": 8078,
      "дан": 8079,
      "учеб": 8080,
      "отец": 8081,
      "действительно": 8082,
      "чемпион": 8083,
      "волосы": 8084,
      "рос": 8085,
      "рав": 8086,
      "осе": 8087,
      "нрави": 8088,
      "намере": 8089,
      "нибудь": 8090,
      "экспе": 8091,
      "били": 8092,
      "бого": 8093,
      "пытался": 8094,
      "боя": 8095,
      "тела": 8096,
      "характер": 8097,
      "сена": 8098,
      "мировой": 8099,
      "говорил": 8100,
      "уи": 8101,
      "ственное": 8102,
      "кп": 8103,
      "эффек": 8104,
      "рассматри": 8105,
      "пью": 8106,
      "дент": 8107,
      "президен": 8108,
      "фин": 8109,
      "сия": 8110,
      "дальней": 8111,
      "ул": 8112,
      "ab": 8113,
      "премии": 8114,
      "кори": 8115,
      "лес": 8116,
      "акции": 8117,
      "возможность": 8118,
      "олимпийских": 8119,
      "меро": 8120,
      "кир": 8121,
      "агентство": 8122,
      "неё": 8123,
      "гори": 8124,
      "сокра": 8125,
      "1944": 8126,
      "похоро": 8127,
      "игр": 8128,
      "уголов": 8129,
      "слов": 8130,
      "цар": 8131,
      "хоть": 8132,
      "1991": 8133,
      "полков": 8134,
      "all": 8135,
      "уничто": 8136,
      "надца": 8137,
      "нике": 8138,
      "расши": 8139,
      "привы": 8140,
      "внутри": 8141,
      "осущест": 8142,
      "эд": 8143,
      "передает": 8144,
      "крупней": 8145,
      "самых": 8146,
      "добро": 8147,
      "выступи": 8148,
      "форму": 8149,
      "лого": 8150,
      "циях": 8151,
      "дороги": 8152,
      "мощ": 8153,
      "комен": 8154,
      "сообщается": 8155,
      "медленно": 8156,
      "официальный": 8157,
      "соревно": 8158,
      "чески": 8159,
      "силы": 8160,
      "креди": 8161,
      "фести": 8162,
      "пасса": 8163,
      "циа": 8164,
      "ёз": 8165,
      "петербург": 8166,
      "озе": 8167,
      "валь": 8168,
      "джу": 8169,
      "1996": 8170,
      "йор": 8171,
      "свиде": 8172,
      "великобритании": 8173,
      "присут": 8174,
      "ощу": 8175,
      "очередь": 8176,
      "середи": 8177,
      "ремо": 8178,
      "знал": 8179,
      "моя": 8180,
      "торго": 8181,
      "корот": 8182,
      "сезона": 8183,
      "шке": 8184,
      "коммер": 8185,
      "ведё": 8186,
      "ира": 8187,
      "альбом": 8188,
      "превра": 8189,
      "мых": 8190,
      "ционной": 8191,
      "операции": 8192,
      "1997": 8193,
      "итоге": 8194,
      "бин": 8195,
      "ио": 8196,
      "средства": 8197,
      "инже": 8198,
      "обслужи": 8199,
      "область": 8200,
      "назначен": 8201,
      "писы": 8202,
      "78": 8203,
      "ционных": 8204,
      "сильно": 8205,
      "тури": 8206,
      "клие": 8207,
      "честь": 8208,
      "самым": 8209,
      "прости": 8210,
      "мана": 8211,
      "делать": 8212,
      "льян": 8213,
      "определе": 8214,
      "qu": 8215,
      "свер": 8216,
      "ходить": 8217,
      "нице": 8218,
      "сотрудники": 8219,
      "перегово": 8220,
      "1994": 8221,
      "цве": 8222,
      "1992": 8223,
      "дополнитель": 8224,
      "переписи": 8225,
      "горь": 8226,
      "возник": 8227,
      "работать": 8228,
      "воль": 8229,
      "ужа": 8230,
      "должна": 8231,
      "серии": 8232,
      "ложен": 8233,
      "тельное": 8234,
      "вместо": 8235,
      "поля": 8236,
      "хол": 8237,
      "возра": 8238,
      "др": 8239,
      "месяца": 8240,
      "мыс": 8241,
      "киев": 8242,
      "млад": 8243,
      "ус": 8244,
      "торов": 8245,
      "массо": 8246,
      "чать": 8247,
      "39": 8248,
      "маг": 8249,
      "моря": 8250,
      "up": 8251,
      "трех": 8252,
      "2021": 8253,
      "общества": 8254,
      "вероя": 8255,
      "гром": 8256,
      "источники": 8257,
      "секрета": 8258,
      "говорить": 8259,
      "дам": 8260,
      "пассажи": 8261,
      "нье": 8262,
      "вдруг": 8263,
      "ид": 8264,
      "контро": 8265,
      "ran": 8266,
      "мяг": 8267,
      "случай": 8268,
      "института": 8269,
      "sh": 8270,
      "мета": 8271,
      "российского": 8272,
      "оны": 8273,
      "32": 8274,
      "исследования": 8275,
      "бори": 8276,
      "столько": 8277,
      "моно": 8278,
      "порт": 8279,
      "47": 8280,
      "bn": 8281,
      "рань": 8282,
      "em": 8283,
      "издание": 8284,
      "линии": 8285,
      "мок": 8286,
      "программы": 8287,
      "зачем": 8288,
      "мысли": 8289,
      "жением": 8290,
      "обороны": 8291,
      "вёл": 8292,
      "цвета": 8293,
      "кке": 8294,
      "итальян": 8295,
      "вку": 8296,
      "вопросы": 8297,
      "чел": 8298,
      "некоторых": 8299,
      "нюю": 8300,
      "нила": 8301,
      "сцена": 8302,
      "сначала": 8303,
      "измени": 8304,
      "генераль": 8305,
      "чика": 8306,
      "конструк": 8307,
      "скре": 8308,
      "дат": 8309,
      "австра": 8310,
      "комитета": 8311,
      "помощи": 8312,
      "газета": 8313,
      "1980": 8314,
      "члены": 8315,
      "сить": 8316,
      "тена": 8317,
      "принял": 8318,
      "получила": 8319,
      "орден": 8320,
      "нился": 8321,
      "жены": 8322,
      "данных": 8323,
      "приш": 8324,
      "жало": 8325,
      "скон": 8326,
      "ign": 8327,
      "российских": 8328,
      "огром": 8329,
      "нель": 8330,
      "ями": 8331,
      "принадлежа": 8332,
      "рил": 8333,
      "компью": 8334,
      "летний": 8335,
      "американский": 8336,
      "недо": 8337,
      "хло": 8338,
      "спросил": 8339,
      "бывший": 8340,
      "вление": 8341,
      "мию": 8342,
      "ниже": 8343,
      "пля": 8344,
      "con": 8345,
      "1995": 8346,
      "довольно": 8347,
      "луй": 8348,
      "нули": 8349,
      "выступле": 8350,
      "глаз": 8351,
      "профессиональ": 8352,
      "достаточно": 8353,
      "формы": 8354,
      "тона": 8355,
      "бога": 8356,
      "городской": 8357,
      "летом": 8358,
      "op": 8359,
      "говоря": 8360,
      "зм": 8361,
      "наблюда": 8362,
      "сем": 8363,
      "средств": 8364,
      "сделал": 8365,
      "окончил": 8366,
      "пале": 8367,
      "лым": 8368,
      "вана": 8369,
      "чемпионате": 8370,
      "мани": 8371,
      "библиоте": 8372,
      "никам": 8373,
      "награды": 8374,
      "помощью": 8375,
      "такого": 8376,
      "всей": 8377,
      "дэ": 8378,
      "сна": 8379,
      "изо": 8380,
      "буде": 8381,
      "шил": 8382,
      "жным": 8383,
      "чении": 8384,
      "ine": 8385,
      "счет": 8386,
      "шер": 8387,
      "читы": 8388,
      "острова": 8389,
      "тысячи": 8390,
      "ление": 8391,
      "беспо": 8392,
      "русский": 8393,
      "щим": 8394,
      "мастер": 8395,
      "au": 8396,
      "1943": 8397,
      "серви": 8398,
      "тные": 8399,
      "bl": 8400,
      "сп": 8401,
      "мужчина": 8402,
      "спустя": 8403,
      "зая": 8404,
      "ческим": 8405,
      "статисти": 8406,
      "самой": 8407,
      "знако": 8408,
      "xix": 8409,
      "петербур": 8410,
      "жем": 8411,
      "преступле": 8412,
      "нией": 8413,
      "исче": 8414,
      "жная": 8415,
      "правительство": 8416,
      "предлага": 8417,
      "купи": 8418,
      "доволь": 8419,
      "развитие": 8420,
      "сел": 8421,
      "воспо": 8422,
      "работе": 8423,
      "матче": 8424,
      "радо": 8425,
      "здания": 8426,
      "ver": 8427,
      "главный": 8428,
      "женщин": 8429,
      "филосо": 8430,
      "цем": 8431,
      "солн": 8432,
      "миллиарда": 8433,
      "неве": 8434,
      "фы": 8435,
      "руют": 8436,
      "раньше": 8437,
      "тари": 8438,
      "суль": 8439,
      "нке": 8440,
      "главы": 8441,
      "дальше": 8442,
      "география": 8443,
      "нём": 8444,
      "лау": 8445,
      "живо": 8446,
      "чек": 8447,
      "пригла": 8448,
      "большая": 8449,
      "увере": 8450,
      "туру": 8451,
      "1993": 8452,
      "инфра": 8453,
      "непо": 8454,
      "наро": 8455,
      "трёх": 8456,
      "ck": 8457,
      "ссия": 8458,
      "губерна": 8459,
      "вшийся": 8460,
      "публика": 8461,
      "одино": 8462,
      "норма": 8463,
      "мг": 8464,
      "чены": 8465,
      "дят": 8466,
      "моей": 8467,
      "жал": 8468,
      "гвар": 8469,
      "ственным": 8470,
      "условиях": 8471,
      "мл": 8472,
      "легко": 8473,
      "ассо": 8474,
      "опубликова": 8475,
      "46": 8476,
      "ian": 8477,
      "лах": 8478,
      "фир": 8479,
      "брига": 8480,
      "тит": 8481,
      "порту": 8482,
      "кубка": 8483,
      "33": 8484,
      "isbn": 8485,
      "монасты": 8486,
      "титу": 8487,
      "разру": 8488,
      "sk": 8489,
      "спасибо": 8490,
      "49": 8491,
      "департа": 8492,
      "одну": 8493,
      "русской": 8494,
      "похи": 8495,
      "горе": 8496,
      "различных": 8497,
      "сур": 8498,
      "играх": 8499,
      "гал": 8500,
      "проз": 8501,
      "сток": 8502,
      "чную": 8503,
      "документа": 8504,
      "ноги": 8505,
      "завод": 8506,
      "чая": 8507,
      "стандар": 8508,
      "напом": 8509,
      "перио": 8510,
      "бассей": 8511,
      "получили": 8512,
      "команда": 8513,
      "отношении": 8514,
      "art": 8515,
      "реж": 8516,
      "патри": 8517,
      "рекомен": 8518,
      "несе": 8519,
      "командо": 8520,
      "аппара": 8521,
      "ответил": 8522,
      "крови": 8523,
      "начально": 8524,
      "ук": 8525,
      "думы": 8526,
      "образование": 8527,
      "государственной": 8528,
      "пан": 8529,
      "избира": 8530,
      "мые": 8531,
      "гия": 8532,
      "хро": 8533,
      "эко": 8534,
      "располага": 8535,
      "pro": 8536,
      "парт": 8537,
      "фф": 8538,
      "карты": 8539,
      "иници": 8540,
      "шеп": 8541,
      "ваю": 8542,
      "телям": 8543,
      "фотографи": 8544,
      "тельство": 8545,
      "ура": 8546,
      "тобой": 8547,
      "матча": 8548,
      "cor": 8549,
      "сети": 8550,
      "щем": 8551,
      "приобре": 8552,
      "произошло": 8553,
      "55": 8554,
      "владе": 8555,
      "директор": 8556,
      "лая": 8557,
      "центре": 8558,
      "инци": 8559,
      "лат": 8560,
      "рый": 8561,
      "проведе": 8562,
      "1970": 8563,
      "однов": 8564,
      "первая": 8565,
      "опять": 8566,
      "совершенно": 8567,
      "песни": 8568,
      "молча": 8569,
      "терпе": 8570,
      "люблю": 8571,
      "инициа": 8572,
      "позиции": 8573,
      "жество": 8574,
      "ровали": 8575,
      "крова": 8576,
      "ябрь": 8577,
      "тепло": 8578,
      "факуль": 8579,
      "южной": 8580,
      "зывает": 8581,
      "пользу": 8582,
      "рование": 8583,
      "футболь": 8584,
      "ина": 8585,
      "архитек": 8586,
      "телекана": 8587,
      "метал": 8588,
      "андре": 8589,
      "направи": 8590,
      "цкий": 8591,
      "ae": 8592,
      "und": 8593,
      "няется": 8594,
      "муниципа": 8595,
      "происходит": 8596,
      "корре": 8597,
      "демокра": 8598,
      "катего": 8599,
      "арти": 8600,
      "спра": 8601,
      "северной": 8602,
      "гель": 8603,
      "щении": 8604,
      "поддержи": 8605,
      "озна": 8606,
      "брон": 8607,
      "столк": 8608,
      "семье": 8609,
      "участники": 8610,
      "доме": 8611,
      "одном": 8612,
      "ума": 8613,
      "констан": 8614,
      "помимо": 8615,
      "емый": 8616,
      "моро": 8617,
      "pe": 8618,
      "we": 8619,
      "тировал": 8620,
      "многих": 8621,
      "управля": 8622,
      "имо": 8623,
      "глубо": 8624,
      "евре": 8625,
      "педа": 8626,
      "льным": 8627,
      "enter": 8628,
      "пришлось": 8629,
      "вью": 8630,
      "одновреме": 8631,
      "тете": 8632,
      "коре": 8633,
      "самый": 8634,
      "шек": 8635,
      "нда": 8636,
      "мероприя": 8637,
      "удар": 8638,
      "ровки": 8639,
      "1960": 8640,
      "упомина": 8641,
      "какие": 8642,
      "выну": 8643,
      "позднее": 8644,
      "своими": 8645,
      "боли": 8646,
      "сова": 8647,
      "уж": 8648,
      "замет": 8649,
      "1989": 8650,
      "туда": 8651,
      "тую": 8652,
      "случи": 8653,
      "вице": 8654,
      "конкур": 8655,
      "яро": 8656,
      "железно": 8657,
      "ниями": 8658,
      "кта": 8659,
      "ктором": 8660,
      "принци": 8661,
      "новая": 8662,
      "основном": 8663,
      "мый": 8664,
      "резко": 8665,
      "церковь": 8666,
      "вки": 8667,
      "земле": 8668,
      "доров": 8669,
      "последствии": 8670,
      "av": 8671,
      "двор": 8672,
      "sch": 8673,
      "рекла": 8674,
      "частью": 8675,
      "согласи": 8676,
      "хокке": 8677,
      "каждо": 8678,
      "берегу": 8679,
      "44": 8680,
      "кэ": 8681,
      "75": 8682,
      "самом": 8683,
      "империи": 8684,
      "инфраструк": 8685,
      "ие": 8686,
      "ям": 8687,
      "железнодоро": 8688,
      "доктор": 8689,
      "плате": 8690,
      "приходи": 8691,
      "плохо": 8692,
      "нс": 8693,
      "выпускники": 8694,
      "вшихся": 8695,
      "лиги": 8696,
      "старо": 8697,
      "азер": 8698,
      "кладби": 8699,
      "ано": 8700,
      "оператив": 8701,
      "впоследствии": 8702,
      "дут": 8703,
      "гах": 8704,
      "мысле": 8705,
      "180": 8706,
      "доль": 8707,
      "объясни": 8708,
      "метро": 8709,
      "языке": 8710,
      "соответству": 8711,
      "бел": 8712,
      "рик": 8713,
      "визи": 8714,
      "симво": 8715,
      "ционного": 8716,
      "ik": 8717,
      "чувство": 8718,
      "оо": 8719,
      "зал": 8720,
      "войск": 8721,
      "значит": 8722,
      "сили": 8723,
      "байджа": 8724,
      "рассказал": 8725,
      "могли": 8726,
      "десяти": 8727,
      "вела": 8728,
      "азербайджа": 8729,
      "58": 8730,
      "женщины": 8731,
      "вёр": 8732,
      "девя": 8733,
      "проблемы": 8734,
      "серебря": 8735,
      "улице": 8736,
      "ада": 8737,
      "ладо": 8738,
      "говорит": 8739,
      "досто": 8740,
      "происхо": 8741,
      "конферен": 8742,
      "om": 8743,
      "кай": 8744,
      "смог": 8745,
      "дрей": 8746,
      "актри": 8747,
      "хотелось": 8748,
      "шев": 8749,
      "микро": 8750,
      "первых": 8751,
      "фами": 8752,
      "начали": 8753,
      "чением": 8754,
      "безу": 8755,
      "простран": 8756,
      "удоб": 8757,
      "напря": 8758,
      "лер": 8759,
      "оч": 8760,
      "жности": 8761,
      "1942": 8762,
      "штаб": 8763,
      "одновременно": 8764,
      "прокура": 8765,
      "чий": 8766,
      "своем": 8767,
      "ay": 8768,
      "инстру": 8769,
      "получить": 8770,
      "ете": 8771,
      "речь": 8772,
      "тного": 8773,
      "няет": 8774,
      "неожида": 8775,
      "чена": 8776,
      "браз": 8777,
      "улыбнулся": 8778,
      "страте": 8779,
      "полиции": 8780,
      "ах": 8781,
      "герой": 8782,
      "гина": 8783,
      "участвовал": 8784,
      "педаго": 8785,
      "полицей": 8786,
      "близи": 8787,
      "губы": 8788,
      "работает": 8789,
      "попыт": 8790,
      "преды": 8791,
      "расположен": 8792,
      "гости": 8793,
      "рина": 8794,
      "здание": 8795,
      "своё": 8796,
      "говор": 8797,
      "нять": 8798,
      "советского": 8799,
      "чиво": 8800,
      "израиль": 8801,
      "станет": 8802,
      "бах": 8803,
      "пару": 8804,
      "разве": 8805,
      "баш": 8806,
      "возь": 8807,
      "институт": 8808,
      "должность": 8809,
      "марш": 8810,
      "информацию": 8811,
      "православ": 8812,
      "бь": 8813,
      "факс": 8814,
      "рк": 8815,
      "аресто": 8816,
      "государственный": 8817,
      "кен": 8818,
      "выход": 8819,
      "кав": 8820,
      "деятель": 8821,
      "городского": 8822,
      "книги": 8823,
      "названием": 8824,
      "ехал": 8825,
      "ill": 8826,
      "рон": 8827,
      "чено": 8828,
      "жила": 8829,
      "понял": 8830,
      "говорится": 8831,
      "поверх": 8832,
      "иван": 8833,
      "емые": 8834,
      "афри": 8835,
      "первом": 8836,
      "вздох": 8837,
      "преступ": 8838,
      "вело": 8839,
      "самолё": 8840,
      "путе": 8841,
      "ok": 8842,
      "завтра": 8843,
      "большинство": 8844,
      "баты": 8845,
      "законода": 8846,
      "значения": 8847,
      "тической": 8848,
      "искусства": 8849,
      "действу": 8850,
      "месяцев": 8851,
      "ордена": 8852,
      "море": 8853,
      "сообщалось": 8854,
      "прос": 8855,
      "николай": 8856,
      "рован": 8857,
      "взаимо": 8858,
      "гали": 8859,
      "позволи": 8860,
      "испыта": 8861,
      "зон": 8862,
      "пита": 8863,
      "ционный": 8864,
      "еле": 8865,
      "интернет": 8866,
      "язык": 8867,
      "голу": 8868,
      "преж": 8869,
      "зар": 8870,
      "тику": 8871,
      "авст": 8872,
      "сах": 8873,
      "восточной": 8874,
      "начало": 8875,
      "ственности": 8876,
      "ющими": 8877,
      "уве": 8878,
      "глазами": 8879,
      "чит": 8880,
      "италии": 8881,
      "ватели": 8882,
      "кала": 8883,
      "могла": 8884,
      "конкре": 8885,
      "65": 8886,
      "смерть": 8887,
      "ления": 8888,
      "оке": 8889,
      "люб": 8890,
      "ванию": 8891,
      "рачи": 8892,
      "интерфакс": 8893,
      "ходили": 8894,
      "уса": 8895,
      "края": 8896,
      "ладно": 8897,
      "стях": 8898,
      "сочи": 8899,
      "дочь": 8900,
      "месяц": 8901,
      "хай": 8902,
      "номе": 8903,
      "результаты": 8904,
      "мур": 8905,
      "зап": 8906,
      "знаешь": 8907,
      "интервью": 8908,
      "целью": 8909,
      "московской": 8910,
      "первое": 8911,
      "сотрудников": 8912,
      "рить": 8913,
      "осуществля": 8914,
      "чался": 8915,
      "установи": 8916,
      "присоеди": 8917,
      "начи": 8918,
      "тина": 8919,
      "спон": 8920,
      "установ": 8921,
      "разных": 8922,
      "ческую": 8923,
      "ждать": 8924,
      "выгля": 8925,
      "днев": 8926,
      "домой": 8927,
      "ука": 8928,
      "практически": 8929,
      "женщина": 8930,
      "срок": 8931,
      "служа": 8932,
      "навли": 8933,
      "возбу": 8934,
      "силу": 8935,
      "белору": 8936,
      "такая": 8937,
      "мигра": 8938,
      "движение": 8939,
      "женный": 8940,
      "протя": 8941,
      "экра": 8942,
      "подчи": 8943,
      "голове": 8944,
      "команд": 8945,
      "выпусти": 8946,
      "голосо": 8947,
      "услыша": 8948,
      "сотрудниче": 8949,
      "пав": 8950,
      "мото": 8951,
      "1988": 8952,
      "напомина": 8953,
      "веща": 8954,
      "хам": 8955,
      "чики": 8956,
      "рассмо": 8957,
      "первую": 8958,
      "зей": 8959,
      "чат": 8960,
      "воде": 8961,
      "he": 8962,
      "александра": 8963,
      "гой": 8964,
      "номина": 8965,
      "швей": 8966,
      "помощь": 8967,
      "судеб": 8968,
      "чинов": 8969,
      "блоки": 8970,
      "литератур": 8971,
      "основе": 8972,
      "лондо": 8973,
      "оби": 8974,
      "ваши": 8975,
      "михаил": 8976,
      "объявле": 8977,
      "тое": 8978,
      "42": 8979,
      "комиссии": 8980,
      "выпуска": 8981,
      "правоохра": 8982,
      "повто": 8983,
      "ностью": 8984,
      "разо": 8985,
      "като": 8986,
      "плу": 8987,
      "500": 8988,
      "режиссёр": 8989,
      "крым": 8990,
      "труда": 8991,
      "дили": 8992,
      "лиза": 8993,
      "вень": 8994,
      "ошиб": 8995,
      "председатель": 8996,
      "рубе": 8997,
      "01": 8998,
      "jo": 8999,
      "предупре": 9000,
      "представителей": 9001,
      "герцо": 9002,
      "тная": 9003,
      "опублико": 9004,
      "аа": 9005,
      "университет": 9006,
      "стья": 9007,
      "секун": 9008,
      "меньше": 9009,
      "ётся": 9010,
      "align": 9011,
      "виль": 9012,
      "тара": 9013,
      "пуга": 9014,
      "музей": 9015,
      "стю": 9016,
      "слово": 9017,
      "ak": 9018,
      "далеко": 9019,
      "прото": 9020,
      "шить": 9021,
      "нья": 9022,
      "юно": 9023,
      "бара": 9024,
      "сезоне": 9025,
      "пило": 9026,
      "яко": 9027,
      "предвари": 9028,
      "der": 9029,
      "тива": 9030,
      "фла": 9031,
      "жений": 9032,
      "жешь": 9033,
      "ip": 9034,
      "чих": 9035,
      "религи": 9036,
      "зор": 9037,
      "найти": 9038,
      "забо": 9039,
      "рождения": 9040,
      "пес": 9041,
      "прош": 9042,
      "дмитрий": 9043,
      "ждён": 9044,
      "километров": 9045,
      "главного": 9046,
      "сюда": 9047,
      "заявление": 9048,
      "геор": 9049,
      "ходила": 9050,
      "рых": 9051,
      "видел": 9052,
      "чемпионат": 9053,
      "частли": 9054,
      "выстав": 9055,
      "порта": 9056,
      "воздуш": 9057,
      "марте": 9058,
      "нении": 9059,
      "пенси": 9060,
      "ссу": 9061,
      "лами": 9062,
      "никаких": 9063,
      "закончи": 9064,
      "мум": 9065,
      "кля": 9066,
      "эксперты": 9067,
      "кает": 9068,
      "профессор": 9069,
      "знамени": 9070,
      "квадра": 9071,
      "роде": 9072,
      "глазах": 9073,
      "эффектив": 9074,
      "важно": 9075,
      "девушки": 9076,
      "вышла": 9077,
      "падает": 9078,
      "класса": 9079,
      "тана": 9080,
      "замеча": 9081,
      "теат": 9082,
      "преимуще": 9083,
      "бек": 9084,
      "нены": 9085,
      "берт": 9086,
      "af": 9087,
      "циями": 9088,
      "поддержку": 9089,
      "конфлик": 9090,
      "издания": 9091,
      "предыду": 9092,
      "ава": 9093,
      "one": 9094,
      "другими": 9095,
      "зали": 9096,
      "семьи": 9097,
      "тором": 9098,
      "зья": 9099,
      "серге": 9100,
      "ох": 9101,
      "wor": 9102,
      "код": 9103,
      "катери": 9104,
      "написал": 9105,
      "ститу": 9106,
      "тельная": 9107,
      "обору": 9108,
      "миллиардов": 9109,
      "петро": 9110,
      "эки": 9111,
      "нета": 9112,
      "санк": 9113,
      "сви": 9114,
      "изуче": 9115,
      "ционные": 9116,
      "действие": 9117,
      "кома": 9118,
      "любовь": 9119,
      "неизвест": 9120,
      "кат": 9121,
      "анна": 9122,
      "жает": 9123,
      "номер": 9124,
      "неодно": 9125,
      "шоу": 9126,
      "редак": 9127,
      "тилле": 9128,
      "разно": 9129,
      "br": 9130,
      "летних": 9131,
      "льд": 9132,
      "московского": 9133,
      "артилле": 9134,
      "русского": 9135,
      "середине": 9136,
      "иди": 9137,
      "учили": 9138,
      "интерес": 9139,
      "нельзя": 9140,
      "магази": 9141,
      "лка": 9142,
      "военной": 9143,
      "поэ": 9144,
      "следующий": 9145,
      "ant": 9146,
      "отмечает": 9147,
      "здра": 9148,
      "новым": 9149,
      "сих": 9150,
      "гну": 9151,
      "тренер": 9152,
      "действий": 9153,
      "оформ": 9154,
      "заседа": 9155,
      "становится": 9156,
      "ческом": 9157,
      "выбра": 9158,
      "ассоциа": 9159,
      "губернии": 9160,
      "ющую": 9161,
      "производства": 9162,
      "трав": 9163,
      "вене": 9164,
      "посо": 9165,
      "оказался": 9166,
      "газа": 9167,
      "утра": 9168,
      "события": 9169,
      "поя": 9170,
      "тиков": 9171,
      "андрей": 9172,
      "ace": 9173,
      "чувству": 9174,
      "сообщили": 9175,
      "стьян": 9176,
      "тории": 9177,
      "зывать": 9178,
      "ари": 9179,
      "востоке": 9180,
      "кампа": 9181,
      "хии": 9182,
      "ленинград": 9183,
      "начальник": 9184,
      "дож": 9185,
      "река": 9186,
      "правоохранитель": 9187,
      "транс": 9188,
      "наверное": 9189,
      "счастли": 9190,
      "меж": 9191,
      "супер": 9192,
      "географи": 9193,
      "стями": 9194,
      "лучший": 9195,
      "сибир": 9196,
      "космиче": 9197,
      "лова": 9198,
      "план": 9199,
      "1987": 9200,
      "стрелко": 9201,
      "синг": 9202,
      "ракет": 9203,
      "погибли": 9204,
      "созна": 9205,
      "подразделе": 9206,
      "болез": 9207,
      "высоко": 9208,
      "1986": 9209,
      "дца": 9210,
      "писатель": 9211,
      "память": 9212,
      "мае": 9213,
      "смотрел": 9214,
      "террори": 9215,
      "король": 9216,
      "йо": 9217,
      "ell": 9218,
      "кораб": 9219,
      "лье": 9220,
      "покры": 9221,
      "мвд": 9222,
      "ситуации": 9223,
      "вступи": 9224,
      "имеют": 9225,
      "фикации": 9226,
      "моз": 9227,
      "декабре": 9228,
      "лейтена": 9229,
      "обраща": 9230,
      "занимает": 9231,
      "сосед": 9232,
      "конститу": 9233,
      "мым": 9234,
      "возможности": 9235,
      "регионе": 9236,
      "приводи": 9237,
      "кторов": 9238,
      "карьера": 9239,
      "рекор": 9240,
      "свобод": 9241,
      "гает": 9242,
      "самое": 9243,
      "руках": 9244,
      "языка": 9245,
      "боеви": 9246,
      "ченко": 9247,
      "сентябре": 9248,
      "вынужде": 9249,
      "психо": 9250,
      "обуче": 9251,
      "школе": 9252,
      "строительство": 9253,
      "контракт": 9254,
      "кладбище": 9255,
      "стры": 9256,
      "ната": 9257,
      "маршру": 9258,
      "лак": 9259,
      "сило": 9260,
      "гим": 9261,
      "шесть": 9262,
      "сезон": 9263,
      "пото": 9264,
      "лете": 9265,
      "евге": 9266,
      "необходимо": 9267,
      "лежит": 9268,
      "дав": 9269,
      "цкого": 9270,
      "тических": 9271,
      "ландии": 9272,
      "полка": 9273,
      "доби": 9274,
      "бей": 9275,
      "военных": 9276,
      "1930": 9277,
      "эл": 9278,
      "ight": 9279,
      "возрасте": 9280,
      "семья": 9281,
      "опла": 9282,
      "выбор": 9283,
      "щена": 9284,
      "знает": 9285,
      "второго": 9286,
      "умере": 9287,
      "васи": 9288,
      "джор": 9289,
      "дивизи": 9290,
      "300": 9291,
      "прежде": 9292,
      "национа": 9293,
      "скорее": 9294,
      "данный": 9295,
      "уровне": 9296,
      "регуляр": 9297,
      "комнату": 9298,
      "деревни": 9299,
      "подру": 9300,
      "российская": 9301,
      "льном": 9302,
      "другим": 9303,
      "отца": 9304,
      "январе": 9305,
      "пры": 9306,
      "перевод": 9307,
      "членов": 9308,
      "считает": 9309,
      "1920": 9310,
      "отстав": 9311,
      "посмотрел": 9312,
      "часа": 9313,
      "1950": 9314,
      "тине": 9315,
      "обрати": 9316,
      "1985": 9317,
      "руководством": 9318,
      "son": 9319,
      "следует": 9320,
      "западной": 9321,
      "идет": 9322,
      "раза": 9323,
      "кл": 9324,
      "плю": 9325,
      "хор": 9326,
      "коммента": 9327,
      "процесс": 9328,
      "головой": 9329,
      "подвер": 9330,
      "постоянно": 9331,
      "спец": 9332,
      "креп": 9333,
      "1940": 9334,
      "вероятно": 9335,
      "мгнове": 9336,
      "матери": 9337,
      "лидер": 9338,
      "теку": 9339,
      "возглавля": 9340,
      "администрации": 9341,
      "муль": 9342,
      "vi": 9343,
      "вклад": 9344,
      "главным": 9345,
      "исчез": 9346,
      "лице": 9347,
      "дай": 9348,
      "вечером": 9349,
      "нападе": 9350,
      "претен": 9351,
      "био": 9352,
      "протяже": 9353,
      "школа": 9354,
      "заместитель": 9355,
      "64": 9356,
      "ого": 9357,
      "есте": 9358,
      "положение": 9359,
      "чиков": 9360,
      "финанси": 9361,
      "повыше": 9362,
      "press": 9363,
      "нений": 9364,
      "екатери": 9365,
      "веще": 9366,
      "выступал": 9367,
      "влияние": 9368,
      "христи": 9369,
      "министерства": 9370,
      "владель": 9371,
      "обеспечи": 9372,
      "духов": 9373,
      "кет": 9374,
      "создания": 9375,
      "двумя": 9376,
      "57": 9377,
      "информация": 9378,
      "tim": 9379,
      "представляет": 9380,
      "двое": 9381,
      "большое": 9382,
      "сда": 9383,
      "управление": 9384,
      "политики": 9385,
      "ственная": 9386,
      "aw": 9387,
      "банков": 9388,
      "ждении": 9389,
      "бывшего": 9390,
      "di": 9391,
      "национального": 9392,
      "99": 9393,
      "социали": 9394,
      "улицы": 9395,
      "ковой": 9396,
      "center": 9397,
      "мужчин": 9398,
      "циони": 9399,
      "рд": 9400,
      "климат": 9401,
      "ключе": 9402,
      "дебю": 9403,
      "сведения": 9404,
      "1984": 9405,
      "итогам": 9406,
      "саске": 9407,
      "разработа": 9408,
      "продю": 9409,
      "лёг": 9410,
      "посё": 9411,
      "находился": 9412,
      "сумму": 9413,
      "изменения": 9414,
      "поддержа": 9415,
      "октябре": 9416,
      "пору": 9417,
      "хочет": 9418,
      "юр": 9419,
      "официально": 9420,
      "лож": 9421,
      "news": 9422,
      "air": 9423,
      "национальный": 9424,
      "видов": 9425,
      "возвраща": 9426,
      "русские": 9427,
      "которому": 9428,
      "поднима": 9429,
      "берг": 9430,
      "кот": 9431,
      "нских": 9432,
      "добы": 9433,
      "fe": 9434,
      "гря": 9435,
      "казалось": 9436,
      "путь": 9437,
      "температура": 9438,
      "43": 9439,
      "стка": 9440,
      "разли": 9441,
      "стреми": 9442,
      "доказа": 9443,
      "тельности": 9444,
      "нял": 9445,
      "утром": 9446,
      "шина": 9447,
      "вшее": 9448,
      "дивизии": 9449,
      "ds": 9450,
      "емого": 9451,
      "ww": 9452,
      "логия": 9453,
      "верховного": 9454,
      "воспи": 9455,
      "хри": 9456,
      "полномо": 9457,
      "кризи": 9458,
      "мати": 9459,
      "трудо": 9460,
      "завое": 9461,
      "песня": 9462,
      "класс": 9463,
      "ственном": 9464,
      "бр": 9465,
      "цикло": 9466,
      "членом": 9467,
      "значение": 9468,
      "войне": 9469,
      "стам": 9470,
      "компаний": 9471,
      "тём": 9472,
      "тать": 9473,
      "матч": 9474,
      "ноябре": 9475,
      "должности": 9476,
      "службу": 9477,
      "святого": 9478,
      "молоды": 9479,
      "щик": 9480,
      "нская": 9481,
      "нском": 9482,
      "произведе": 9483,
      "поддержки": 9484,
      "находятся": 9485,
      "нько": 9486,
      "стоял": 9487,
      "gu": 9488,
      "мино": 9489,
      "делё": 9490,
      "сопрово": 9491,
      "1939": 9492,
      "применя": 9493,
      "ps": 9494,
      "апреле": 9495,
      "мел": 9496,
      "студен": 9497,
      "наме": 9498,
      "контак": 9499,
      "наруто": 9500,
      "пах": 9501,
      "сара": 9502,
      "адво": 9503,
      "ry": 9504,
      "описание": 9505,
      "основной": 9506,
      "футболист": 9507,
      "остров": 9508,
      "пки": 9509,
      "прой": 9510,
      "статус": 9511,
      "жители": 9512,
      "фаль": 9513,
      "алексе": 9514,
      "заметил": 9515,
      "нуж": 9516,
      "пострада": 9517,
      "японии": 9518,
      "41": 9519,
      "лиц": 9520,
      "никах": 9521,
      "гий": 9522,
      "полк": 9523,
      "домаш": 9524,
      "момента": 9525,
      "концер": 9526,
      "серьез": 9527,
      "предела": 9528,
      "анто": 9529,
      "ненави": 9530,
      "веке": 9531,
      "сар": 9532,
      "емой": 9533,
      "водя": 9534,
      "другу": 9535,
      "подроб": 9536,
      "делу": 9537,
      "кад": 9538,
      "игру": 9539,
      "общей": 9540,
      "позна": 9541,
      "источник": 9542,
      "мую": 9543,
      "ex": 9544,
      "памяти": 9545,
      "августе": 9546,
      "меша": 9547,
      "рит": 9548,
      "играть": 9549,
      "заявили": 9550,
      "предпринима": 9551,
      "футболи": 9552,
      "брата": 9553,
      "бизне": 9554,
      "менедже": 9555,
      "штра": 9556,
      "штат": 9557,
      "школу": 9558,
      "активи": 9559,
      "прось": 9560,
      "шаг": 9561,
      "альбома": 9562,
      "участник": 9563,
      "участников": 9564,
      "вив": 9565,
      "лян": 9566,
      "фильме": 9567,
      "император": 9568,
      "уг": 9569,
      "экипа": 9570,
      "гале": 9571,
      "щены": 9572,
      "органов": 9573,
      "истре": 9574,
      "местных": 9575,
      "отделение": 9576,
      "осу": 9577,
      "ca": 9578,
      "ауди": 9579,
      "нется": 9580,
      "восстановле": 9581,
      "еги": 9582,
      "ющем": 9583,
      "аф": 9584,
      "станов": 9585,
      "ive": 9586,
      "систем": 9587,
      "последу": 9588,
      "взял": 9589,
      "вось": 9590,
      "провинции": 9591,
      "взглядом": 9592,
      "неболь": 9593,
      "плане": 9594,
      "стоимость": 9595,
      "ve": 9596,
      "состоянии": 9597,
      "осторо": 9598,
      "неу": 9599,
      "телефо": 9600,
      "взрыв": 9601,
      "шар": 9602,
      "соба": 9603,
      "ющихся": 9604,
      "группи": 9605,
      "неде": 9606,
      "бронзо": 9607,
      "зеле": 9608,
      "служба": 9609,
      "кратно": 9610,
      "партий": 9611,
      "снима": 9612,
      "оказыва": 9613,
      "территориаль": 9614,
      "отлича": 9615,
      "изви": 9616,
      "планирова": 9617,
      "бл": 9618,
      "блон": 9619,
      "путеше": 9620,
      "парня": 9621,
      "прозра": 9622,
      "создание": 9623,
      "газеты": 9624,
      "оль": 9625,
      "военного": 9626,
      "скор": 9627,
      "кей": 9628,
      "сказали": 9629,
      "вру": 9630,
      "вами": 9631,
      "госпо": 9632,
      "бежать": 9633,
      "гео": 9634,
      "вни": 9635,
      "повы": 9636,
      "сотрудник": 9637,
      "сомне": 9638,
      "тием": 9639,
      "старший": 9640,
      "запи": 9641,
      "тт": 9642,
      "фар": 9643,
      "акций": 9644,
      "алексей": 9645,
      "международного": 9646,
      "чём": 9647,
      "тыс": 9648,
      "экспери": 9649,
      "иностранных": 9650,
      "ters": 9651,
      "лаге": 9652,
      "мик": 9653,
      "85": 9654,
      "вт": 9655,
      "епар": 9656,
      "ешься": 9657,
      "150": 9658,
      "чета": 9659,
      "руководство": 9660,
      "уилья": 9661,
      "протяжении": 9662,
      "жив": 9663,
      "добавил": 9664,
      "предприятия": 9665,
      "капитан": 9666,
      "католи": 9667,
      "вина": 9668,
      "рукой": 9669,
      "1979": 9670,
      "чили": 9671,
      "июне": 9672,
      "техники": 9673,
      "ственность": 9674,
      "66": 9675,
      "площади": 9676,
      "привет": 9677,
      "использовать": 9678,
      "понедель": 9679,
      "зака": 9680,
      "василь": 9681,
      "цели": 9682,
      "вшегося": 9683,
      "рад": 9684,
      "относится": 9685,
      "научно": 9686,
      "дети": 9687,
      "1917": 9688,
      "пропа": 9689,
      "мид": 9690,
      "считается": 9691,
      "полковник": 9692,
      "семи": 9693,
      "трене": 9694,
      "форме": 9695,
      "област": 9696,
      "ниям": 9697,
      "os": 9698,
      "округ": 9699,
      "выборах": 9700,
      "сеть": 9701,
      "крепле": 9702,
      "мужчины": 9703,
      "супру": 9704,
      "трам": 9705,
      "михай": 9706,
      "епископ": 9707,
      "пау": 9708,
      "новое": 9709,
      "развед": 9710,
      "окончания": 9711,
      "туаль": 9712,
      "июле": 9713,
      "видно": 9714,
      "ющиеся": 9715,
      "феврале": 9716,
      "инвести": 9717,
      "деть": 9718,
      "лега": 9719,
      "1982": 9720,
      "смех": 9721,
      "ера": 9722,
      "пун": 9723,
      "рост": 9724,
      "тельность": 9725,
      "актёр": 9726,
      "рее": 9727,
      "недели": 9728,
      "производство": 9729,
      "назвал": 9730,
      "точки": 9731,
      "ур": 9732,
      "кавале": 9733,
      "соревнования": 9734,
      "ими": 9735,
      "ждений": 9736,
      "чке": 9737,
      "чия": 9738,
      "рем": 9739,
      "col": 9740,
      "записи": 9741,
      "напомним": 9742,
      "редко": 9743,
      "наказа": 9744,
      "влен": 9745,
      "1983": 9746,
      "двери": 9747,
      "анато": 9748,
      "откуда": 9749,
      "директора": 9750,
      "посёлок": 9751,
      "реб": 9752,
      "друзья": 9753,
      "думать": 9754,
      "пь": 9755,
      "ливо": 9756,
      "сит": 9757,
      "вь": 9758,
      "рот": 9759,
      "комплекс": 9760,
      "йте": 9761,
      "корпора": 9762,
      "76": 9763,
      "произведения": 9764,
      "юриди": 9765,
      "дев": 9766,
      "серва": 9767,
      "меры": 9768,
      "иллю": 9769,
      "1973": 9770,
      "владимира": 9771,
      "ствовали": 9772,
      "религиоз": 9773,
      "среду": 9774,
      "рук": 9775,
      "существует": 9776,
      "мато": 9777,
      "столь": 9778,
      "среднего": 9779,
      "тюрь": 9780,
      "активно": 9781,
      "графия": 9782,
      "пье": 9783,
      "воздуха": 9784,
      "агентства": 9785,
      "млн": 9786,
      "оригина": 9787,
      "большого": 9788,
      "баталь": 9789,
      "аналоги": 9790,
      "оцени": 9791,
      "воскре": 9792,
      "сюжет": 9793,
      "тивы": 9794,
      "алфа": 9795,
      "исполнитель": 9796,
      "заявля": 9797,
      "пусть": 9798,
      "оборудо": 9799,
      "доб": 9800,
      "1918": 9801,
      "зен": 9802,
      "проходит": 9803,
      "нут": 9804,
      "стара": 9805,
      "испании": 9806,
      "модели": 9807,
      "ack": 9808,
      "средняя": 9809,
      "рыв": 9810,
      "турнира": 9811,
      "гол": 9812,
      "cl": 9813,
      "документы": 9814,
      "статьи": 9815,
      "посла": 9816,
      "зация": 9817,
      "нака": 9818,
      "парламента": 9819,
      "лайн": 9820,
      "фср": 9821,
      "компьютер": 9822,
      "разби": 9823,
      "жную": 9824,
      "ближе": 9825,
      "торгов": 9826,
      "эмо": 9827,
      "едва": 9828,
      "рат": 9829,
      "выясни": 9830,
      "победы": 9831,
      "чувствовал": 9832,
      "скло": 9833,
      "1981": 9834,
      "оружия": 9835,
      "новую": 9836,
      "ваны": 9837,
      "газо": 9838,
      "многочисле": 9839,
      "своему": 9840,
      "59": 9841,
      "другом": 9842,
      "схва": 9843,
      "дера": 9844,
      "инженер": 9845,
      "рым": 9846,
      "понять": 9847,
      "имел": 9848,
      "небо": 9849,
      "архе": 9850,
      "считают": 9851,
      "партия": 9852,
      "превы": 9853,
      "фей": 9854,
      "филип": 9855,
      "od": 9856,
      "1976": 9857,
      "дона": 9858,
      "нести": 9859,
      "последнее": 9860,
      "летов": 9861,
      "56": 9862,
      "переме": 9863,
      "уровня": 9864,
      "рсфср": 9865,
      "эсто": 9866,
      "трени": 9867,
      "норве": 9868,
      "прибы": 9869,
      "1975": 9870,
      "тыми": 9871,
      "целом": 9872,
      "мело": 9873,
      "деревне": 9874,
      "думаю": 9875,
      "кои": 9876,
      "соору": 9877,
      "израи": 9878,
      "фикси": 9879,
      "увидел": 9880,
      "фана": 9881,
      "основные": 9882,
      "шими": 9883,
      "исследователь": 9884,
      "денег": 9885,
      "шести": 9886,
      "pl": 9887,
      "рука": 9888,
      "мекси": 9889,
      "увеличи": 9890,
      "парламент": 9891,
      "мю": 9892,
      "ковского": 9893,
      "науки": 9894,
      "уезда": 9895,
      "химиче": 9896,
      "стами": 9897,
      "оон": 9898,
      "центральной": 9899,
      "жать": 9900,
      "предме": 9901,
      "темно": 9902,
      "сант": 9903,
      "университете": 9904,
      "вариан": 9905,
      "уо": 9906,
      "карьеру": 9907,
      "ани": 9908,
      "кух": 9909,
      "ity": 9910,
      "временем": 9911,
      "моги": 9912,
      "льности": 9913,
      "доче": 9914,
      "фоне": 9915,
      "шенко": 9916,
      "стане": 9917,
      "выборов": 9918,
      "тье": 9919,
      "лина": 9920,
      "энерге": 9921,
      "веря": 9922,
      "дами": 9923,
      "1972": 9924,
      "gen": 9925,
      "смогу": 9926,
      "оном": 9927,
      "появилась": 9928,
      "автобу": 9929,
      "архите": 9930,
      "марки": 9931,
      "помочь": 9932,
      "украине": 9933,
      "1968": 9934,
      "территория": 9935,
      "модель": 9936,
      "ядер": 9937,
      "рица": 9938,
      "спаса": 9939,
      "истреби": 9940,
      "du": 9941,
      "вор": 9942,
      "победу": 9943,
      "фр": 9944,
      "неделю": 9945,
      "пр": 9946,
      "попа": 9947,
      "появле": 9948,
      "обвиня": 9949,
      "пунктов": 9950,
      "ke": 9951,
      "системе": 9952,
      "гора": 9953,
      "распре": 9954,
      "куп": 9955,
      "гидро": 9956,
      "сохрани": 9957,
      "футболу": 9958,
      "полне": 9959,
      "зв": 9960,
      "ходов": 9961,
      "штаба": 9962,
      "дворе": 9963,
      "ort": 9964,
      "тим": 9965,
      "гно": 9966,
      "выпла": 9967,
      "встречи": 9968,
      "красной": 9969,
      "1971": 9970,
      "отмечают": 9971,
      "воспомина": 9972,
      "88": 9973,
      "пел": 9974,
      "третий": 9975,
      "чувства": 9976,
      "отда": 9977,
      "строительства": 9978,
      "подчеркнул": 9979,
      "понедельник": 9980,
      "проведения": 9981,
      "дента": 9982,
      "достижения": 9983,
      "ичи": 9984,
      "шать": 9985,
      "продолжи": 9986,
      "бизнес": 9987,
      "сравне": 9988,
      "принять": 9989,
      "ора": 9990,
      "нувшись": 9991,
      "потребо": 9992,
      "стади": 9993,
      "мило": 9994,
      "1978": 9995,
      "историю": 9996,
      "измене": 9997,
      "смотреть": 9998,
      "позволяет": 9999,
      "пласти": 10000,
      "художник": 10001,
      "сексу": 10002,
      "рынке": 10003,
      "копи": 10004,
      "ros": 10005,
      "179": 10006,
      "станция": 10007,
      "лето": 10008,
      "ляции": 10009,
      "тиру": 10010,
      "приняли": 10011,
      "свободы": 10012,
      "причиной": 10013,
      "спокойно": 10014,
      "ходы": 10015,
      "фре": 10016,
      "контроль": 10017,
      "христиан": 10018,
      "груди": 10019,
      "ала": 10020,
      "шве": 10021,
      "образу": 10022,
      "штата": 10023,
      "хочешь": 10024,
      "09": 10025,
      "1965": 10026,
      "организация": 10027,
      "спут": 10028,
      "премия": 10029,
      "обер": 10030,
      "ram": 10031,
      "очеред": 10032,
      "секретарь": 10033,
      "известен": 10034,
      "отдела": 10035,
      "печат": 10036,
      "завода": 10037,
      "чению": 10038,
      "кем": 10039,
      "чности": 10040,
      "отличие": 10041,
      "сына": 10042,
      "пункт": 10043,
      "жки": 10044,
      "поясни": 10045,
      "брал": 10046,
      "записа": 10047,
      "щиков": 10048,
      "fo": 10049,
      "указыва": 10050,
      "уровень": 10051,
      "конку": 10052,
      "рожде": 10053,
      "экономики": 10054,
      "заверши": 10055,
      "посёл": 10056,
      "дни": 10057,
      "жном": 10058,
      "чными": 10059,
      "внезап": 10060,
      "тсу": 10061,
      "здоров": 10062,
      "базе": 10063,
      "приложение": 10064,
      "кровати": 10065,
      "мена": 10066,
      "мал": 10067,
      "музыкан": 10068,
      "na": 10069,
      "давай": 10070,
      "клады": 10071,
      "дёт": 10072,
      "лиш": 10073,
      "1977": 10074,
      "неоднократно": 10075,
      "проблем": 10076,
      "защиты": 10077,
      "книга": 10078,
      "шает": 10079,
      "циклопе": 10080,
      "космо": 10081,
      "конец": 10082,
      "выста": 10083,
      "скуль": 10084,
      "сва": 10085,
      "взро": 10086,
      "флота": 10087,
      "насле": 10088,
      "грузи": 10089,
      "хмы": 10090,
      "ежегод": 10091,
      "вечер": 10092,
      "мака": 10093,
      "ёв": 10094,
      "международной": 10095,
      "нуться": 10096,
      "05": 10097,
      "военные": 10098,
      "ich": 10099,
      "сот": 10100,
      "08": 10101,
      "запу": 10102,
      "состоит": 10103,
      "эли": 10104,
      "телю": 10105,
      "1967": 10106,
      "принято": 10107,
      "par": 10108,
      "lin": 10109,
      "преда": 10110,
      "путин": 10111,
      "руками": 10112,
      "названия": 10113,
      "театр": 10114,
      "su": 10115,
      "дум": 10116,
      "расстоянии": 10117,
      "ходу": 10118,
      "какая": 10119,
      "видела": 10120,
      "1963": 10121,
      "обвинения": 10122,
      "границы": 10123,
      "менте": 10124,
      "удиви": 10125,
      "площад": 10126,
      "совместно": 10127,
      "валю": 10128,
      "атмо": 10129,
      "оказалось": 10130,
      "скончался": 10131,
      "видеть": 10132,
      "гать": 10133,
      "гляды": 10134,
      "открыл": 10135,
      "скульп": 10136,
      "1937": 10137,
      "вернуть": 10138,
      "сб": 10139,
      "рово": 10140,
      "устра": 10141,
      "крат": 10142,
      "1938": 10143,
      "1966": 10144,
      "алфави": 10145,
      "mus": 10146,
      "стров": 10147,
      "коммен": 10148,
      "ченных": 10149,
      "сул": 10150,
      "льную": 10151,
      "периода": 10152,
      "белоруссии": 10153,
      "международных": 10154,
      "порядке": 10155,
      "ресур": 10156,
      "короля": 10157,
      "эксплу": 10158,
      "депутат": 10159,
      "вец": 10160,
      "занял": 10161,
      "ас": 10162,
      "исти": 10163,
      "моего": 10164,
      "1974": 10165,
      "видимо": 10166,
      "странах": 10167,
      "счёт": 10168,
      "стые": 10169,
      "машины": 10170,
      "сельсовета": 10171,
      "муниципали": 10172,
      "лабора": 10173,
      "отмечается": 10174,
      "появились": 10175,
      "2023": 10176,
      "провести": 10177,
      "сигна": 10178,
      "мою": 10179,
      "черно": 10180,
      "звание": 10181,
      "европе": 10182,
      "soci": 10183,
      "фё": 10184,
      "твори": 10185,
      "произошел": 10186,
      "предложил": 10187,
      "лович": 10188,
      "соответствии": 10189,
      "фона": 10190,
      "вест": 10191,
      "вспом": 10192,
      "используется": 10193,
      "определя": 10194,
      "шан": 10195,
      "ворачи": 10196,
      "оса": 10197,
      "комнате": 10198,
      "заболе": 10199,
      "сквозь": 10200,
      "англии": 10201,
      "интересо": 10202,
      "демонстри": 10203,
      "инде": 10204,
      "арен": 10205,
      "вера": 10206,
      "относительно": 10207,
      "ровка": 10208,
      "оппози": 10209,
      "губ": 10210,
      "обратно": 10211,
      "объектов": 10212,
      "ложении": 10213,
      "мария": 10214,
      "раскры": 10215,
      "inter": 10216,
      "напада": 10217,
      "зим": 10218,
      "77": 10219,
      "ребе": 10220,
      "шься": 10221,
      "винов": 10222,
      "ass": 10223,
      "06": 10224,
      "всему": 10225,
      "посту": 10226,
      "известные": 10227,
      "вшейся": 10228,
      "per": 10229,
      "тические": 10230,
      "пятницу": 10231,
      "тельную": 10232,
      "стики": 10233,
      "зрения": 10234,
      "контине": 10235,
      "генри": 10236,
      "летия": 10237,
      "вляет": 10238,
      "сможет": 10239,
      "подгото": 10240,
      "режиссё": 10241,
      "говорят": 10242,
      "нидер": 10243,
      "связь": 10244,
      "виктор": 10245,
      "вариа": 10246,
      "местного": 10247,
      "нач": 10248,
      "возле": 10249,
      "организо": 10250,
      "изуча": 10251,
      "цам": 10252,
      "регистри": 10253,
      "образователь": 10254,
      "десять": 10255,
      "1969": 10256,
      "модер": 10257,
      "квали": 10258,
      "начальника": 10259,
      "российские": 10260,
      "1964": 10261,
      "полага": 10262,
      "воскресе": 10263,
      "употре": 10264,
      "американской": 10265,
      "разда": 10266,
      "02": 10267,
      "рассмотре": 10268,
      "значительно": 10269,
      "провёл": 10270,
      "журнал": 10271,
      "вашинг": 10272,
      "энциклопе": 10273,
      "очередной": 10274,
      "военный": 10275,
      "хотела": 10276,
      "солне": 10277,
      "тасс": 10278,
      "чила": 10279,
      "тического": 10280,
      "астро": 10281,
      "картины": 10282,
      "вард": 10283,
      "04": 10284,
      "джет": 10285,
      "исполни": 10286,
      "версия": 10287,
      "самостоя": 10288,
      "пересе": 10289,
      "дие": 10290,
      "программа": 10291,
      "введе": 10292,
      "сопер": 10293,
      "крупных": 10294,
      "сопроти": 10295,
      "вторник": 10296,
      "пехот": 10297,
      "решили": 10298,
      "сообщения": 10299,
      "постепе": 10300,
      "проблема": 10301,
      "тяжело": 10302,
      "вия": 10303,
      "верить": 10304,
      "вут": 10305,
      "состояние": 10306,
      "мане": 10307,
      "категории": 10308,
      "четверг": 10309,
      "медали": 10310,
      "регули": 10311,
      "банке": 10312,
      "reu": 10313,
      "заявила": 10314,
      "тере": 10315,
      "опусти": 10316,
      "гран": 10317,
      "гаре": 10318,
      "палести": 10319,
      "гин": 10320,
      "расшире": 10321,
      "щер": 10322,
      "конференции": 10323,
      "программ": 10324,
      "кости": 10325,
      "07": 10326,
      "бюдже": 10327,
      "леты": 10328,
      "ситуация": 10329,
      "твой": 10330,
      "поколе": 10331,
      "землю": 10332,
      "непосред": 10333,
      "ba": 10334,
      "нынеш": 10335,
      "йорк": 10336,
      "400": 10337,
      "верто": 10338,
      "03": 10339,
      "распоря": 10340,
      "глуби": 10341,
      "широко": 10342,
      "пин": 10343,
      "корреспон": 10344,
      "52": 10345,
      "происше": 10346,
      "нете": 10347,
      "gro": 10348,
      "социалисти": 10349,
      "успо": 10350,
      "ненные": 10351,
      "окружа": 10352,
      "выборы": 10353,
      "текст": 10354,
      "центром": 10355,
      "попы": 10356,
      "приро": 10357,
      "нулись": 10358,
      "зависимости": 10359,
      "армя": 10360,
      "зывал": 10361,
      "политической": 10362,
      "звезда": 10363,
      "неожиданно": 10364,
      "парк": 10365,
      "шот": 10366,
      "резер": 10367,
      "жесто": 10368,
      "природ": 10369,
      "пожалуй": 10370,
      "чаще": 10371,
      "вернуться": 10372,
      "материалов": 10373,
      "потен": 10374,
      "офице": 10375,
      "пытаясь": 10376,
      "68": 10377,
      "подъ": 10378,
      "зато": 10379,
      "выигра": 10380,
      "числа": 10381,
      "зная": 10382,
      "остался": 10383,
      "памятник": 10384,
      "ао": 10385,
      "мама": 10386,
      "нан": 10387,
      "гай": 10388,
      "мелки": 10389,
      "руп": 10390,
      "лями": 10391,
      "октябрь": 10392,
      "рейтин": 10393,
      "рые": 10394,
      "1962": 10395,
      "карта": 10396,
      "шкой": 10397,
      "кисло": 10398,
      "повре": 10399,
      "тации": 10400,
      "война": 10401,
      "ваку": 10402,
      "зывают": 10403,
      "1946": 10404,
      "найде": 10405,
      "1948": 10406,
      "втором": 10407,
      "крестьян": 10408,
      "ленина": 10409,
      "любви": 10410,
      "хозяйства": 10411,
      "гры": 10412,
      "расположена": 10413,
      "груз": 10414,
      "состава": 10415,
      "нис": 10416,
      "рика": 10417,
      "приблизи": 10418,
      "журнала": 10419,
      "председателя": 10420,
      "кине": 10421,
      "барди": 10422,
      "идти": 10423,
      "розы": 10424,
      "предо": 10425,
      "приятно": 10426,
      "различные": 10427,
      "азии": 10428,
      "стера": 10429,
      "int": 10430,
      "множество": 10431,
      "вшую": 10432,
      "курс": 10433,
      "my": 10434,
      "звёз": 10435,
      "зелё": 10436,
      "рованы": 10437,
      "пожар": 10438,
      "гка": 10439,
      "пот": 10440,
      "кровь": 10441,
      "подчерки": 10442,
      "тип": 10443,
      "стаби": 10444,
      "соответственно": 10445,
      "еврей": 10446,
      "плы": 10447,
      "фронта": 10448,
      "забы": 10449,
      "тяжё": 10450,
      "похоже": 10451,
      "1961": 10452,
      "длина": 10453,
      "цом": 10454,
      "xviii": 10455,
      "церемо": 10456,
      "коммуни": 10457,
      "известный": 10458,
      "девушку": 10459,
      "механиз": 10460,
      "чами": 10461,
      "ческими": 10462,
      "1959": 10463,
      "использование": 10464,
      "невозможно": 10465,
      "содержи": 10466,
      "поводу": 10467,
      "дах": 10468,
      "51": 10469,
      "вка": 10470,
      "молодё": 10471,
      "почто": 10472,
      "стратеги": 10473,
      "слегка": 10474,
      "ga": 10475,
      "валя": 10476,
      "голь": 10477,
      "совой": 10478,
      "семейства": 10479,
      "устой": 10480,
      "появился": 10481,
      "президентом": 10482,
      "эфи": 10483,
      "ющийся": 10484,
      "оружие": 10485,
      "матчей": 10486,
      "носит": 10487,
      "харь": 10488,
      "певи": 10489,
      "pa": 10490,
      "ud": 10491,
      "домо": 10492,
      "финал": 10493,
      "наш": 10494,
      "главе": 10495,
      "дороге": 10496,
      "ковых": 10497,
      "wi": 10498,
      "иванов": 10499,
      "пуль": 10500,
      "большую": 10501,
      "остальные": 10502,
      "румы": 10503,
      "борьбе": 10504,
      "карте": 10505,
      "соли": 10506,
      "включает": 10507,
      "бюро": 10508,
      "1958": 10509,
      "музыки": 10510,
      "объявил": 10511,
      "следствие": 10512,
      "персо": 10513,
      "грузии": 10514,
      "группе": 10515,
      "газпро": 10516,
      "эс": 10517,
      "источников": 10518,
      "жению": 10519,
      "турнир": 10520,
      "mon": 10521,
      "португа": 10522,
      "континента": 10523,
      "постанов": 10524,
      "сборную": 10525,
      "ом": 10526,
      "1957": 10527,
      "успел": 10528,
      "внимания": 10529,
      "депутаты": 10530,
      "американского": 10531,
      "педагоги": 10532,
      "сят": 10533,
      "дила": 10534,
      "звезды": 10535,
      "юрий": 10536,
      "актриса": 10537,
      "спосо": 10538,
      "красного": 10539,
      "уль": 10540,
      "рович": 10541,
      "ence": 10542,
      "славя": 10543,
      "сыграл": 10544,
      "корпуса": 10545,
      "анге": 10546,
      "никак": 10547,
      "боевых": 10548,
[...]
